<pad>	0
<s>	0
</s>	0
<unk>	0
<PAD>	0
<BOS>	0
<EOS>	0
<UNK>	0
▁the	-2.81307
▁to	-3.69244
▁of	-3.73714
▁a	-3.73874
▁in	-3.83161
▁and	-3.88651
s	-4.64009
▁said	-4.68854
ing	-4.72561
▁	-4.73527
ed	-4.73939
▁for	-4.77796
▁on	-4.79075
▁that	-4.79123
▁is	-4.98978
▁was	-5.07154
▁with	-5.15762
▁it	-5.23664
▁at	-5.30858
▁he	-5.31204
▁be	-5.33717
▁as	-5.34588
▁from	-5.41828
▁by	-5.43873
▁has	-5.47977
▁an	-5.55389
▁have	-5.56568
▁his	-5.56653
▁are	-5.68781
ly	-5.72071
▁but	-5.74257
▁were	-5.77204
▁will	-5.78375
▁not	-5.86674
▁us	-5.88593
▁who	-5.90815
▁they	-5.94036
▁after	-5.96173
▁had	-5.99096
▁been	-6.03722
▁this	-6.06649
▁their	-6.11115
▁its	-6.11164
▁people	-6.12249
▁year	-6.14833
▁about	-6.14993
▁more	-6.15096
▁i	-6.18304
y	-6.1868
▁two	-6.19267
d	-6.22429
▁we	-6.22884
▁korea	-6.24716
▁new	-6.24886
▁which	-6.26787
▁president	-6.2735
▁one	-6.2801
▁would	-6.31981
▁her	-6.33375
▁up	-6.33642
▁government	-6.33676
▁or	-6.37156
▁north	-6.3798
▁she	-6.40485
▁also	-6.40911
▁s	-6.41824
▁than	-6.42682
▁out	-6.46429
▁t	-6.48725
▁last	-6.4938
▁over	-6.51516
▁police	-6.52436
▁when	-6.53659
▁first	-6.54093
n	-6.5471
▁south	-6.55026
▁there	-6.61092
▁into	-6.64933
▁all	-6.66947
▁some	-6.67056
▁other	-6.6774
▁time	-6.72254
▁told	-6.7267
▁no	-6.73055
l	-6.75566
▁years	-6.77453
▁korean	-6.78578
e	-6.79327
▁percent	-6.80562
▁dollars	-6.81349
▁world	-6.81917
▁you	-6.8249
▁state	-6.83692
▁united	-6.8469
▁officials	-6.86444
▁could	-6.86693
▁can	-6.87586
▁according	-6.87972
▁if	-6.8839
▁party	-6.92149
▁country	-6.92384
▁three	-6.92874
▁monday	-6.93615
▁iraq	-6.94301
▁says	-6.94373
▁military	-6.95818
▁tuesday	-6.96197
▁them	-6.9728
▁states	-6.99797
▁national	-7.00571
▁what	-7.01167
▁day	-7.01322
▁obama	-7.01799
▁minister	-7.02056
▁un	-7.02385
▁wednesday	-7.04663
▁before	-7.05257
▁most	-7.05932
▁so	-7.06766
▁against	-7.07493
▁since	-7.07511
▁sunday	-7.07795
▁week	-7.0987
▁china	-7.10338
▁bush	-7.10589
▁nuclear	-7.1065
▁old	-7.10764
▁al	-7.11853
▁where	-7.12318
▁may	-7.12494
▁now	-7.12723
▁million	-7.13473
▁killed	-7.13815
cause	-7.15725
▁city	-7.16955
▁say	-7.17364
▁former	-7.17456
▁thursday	-7.17623
▁official	-7.19052
▁off	-7.1937
▁just	-7.19664
▁security	-7.19738
▁while	-7.19889
during	-7.19907
▁reported	-7.20061
▁him	-7.20291
▁down	-7.2035
▁four	-7.21127
▁between	-7.21337
▁under	-7.21779
▁back	-7.22493
▁made	-7.22624
▁only	-7.23931
▁near	-7.2403
▁news	-7.2669
er	-7.27831
▁many	-7.27952
▁being	-7.2856
▁house	-7.29399
▁group	-7.29771
▁month	-7.29925
▁re	-7.31089
▁do	-7.3266
th	-7.33319
▁war	-7.33361
a	-7.33846
▁like	-7.34443
▁called	-7.34832
▁including	-7.35296
▁cnn	-7.37746
▁did	-7.37853
al	-7.38031
▁our	-7.39519
▁international	-7.39916
▁1	-7.40135
▁through	-7.40163
▁six	-7.40844
▁high	-7.41419
o	-7.41675
▁home	-7.4187
▁10	-7.42496
▁man	-7.4303
▁reports	-7.43231
▁spokesman	-7.43694
▁any	-7.43778
▁statement	-7.44155
▁won	-7.44607
▁found	-7.45782
▁days	-7.46423
▁next	-7.46447
▁take	-7.47003
▁talks	-7.47397
▁foreign	-7.48353
▁five	-7.48452
▁japan	-7.48524
▁those	-7.49278
▁still	-7.49464
▁get	-7.49493
▁second	-7.50849
▁part	-7.51701
▁prime	-7.52233
▁court	-7.52481
▁troops	-7.52864
▁make	-7.53025
▁seoul	-7.54118
▁2	-7.54448
▁report	-7.55462
▁least	-7.55489
▁end	-7.55503
▁american	-7.56278
▁around	-7.56789
▁another	-7.57681
▁long	-7.58696
▁ministry	-7.59923
such	-7.60399
▁help	-7.6132
▁de	-7.62218
▁top	-7.62739
▁how	-7.62899
▁leader	-7.62912
▁clinton	-7.63063
▁go	-7.64196
▁office	-7.64325
▁washington	-7.64455
▁way	-7.64471
t	-7.64689
▁company	-7.65866
▁public	-7.667
▁set	-7.67027
▁work	-7.67193
▁expected	-7.67772
▁agency	-7.67858
▁presidential	-7.68228
▁attack	-7.68874
▁saying	-7.68879
▁forces	-7.69603
▁times	-7.69809
▁press	-7.70246
▁well	-7.70691
▁even	-7.70788
very	-7.71133
▁children	-7.71271
▁york	-7.71727
es	-7.72157
▁both	-7.72199
▁lead	-7.7325
▁should	-7.73379
▁political	-7.73593
ther	-7.73698
▁died	-7.73942
▁early	-7.74081
▁authorities	-7.74423
▁british	-7.75261
▁members	-7.75495
▁3	-7.75513
▁chief	-7.75628
▁earlier	-7.75984
▁saturday	-7.76105
▁number	-7.76484
▁election	-7.76487
▁white	-7.76715
▁friday	-7.77448
▁came	-7.78255
▁countries	-7.78434
▁my	-7.78578
▁iraqi	-7.78969
▁months	-7.78998
▁meeting	-7.7905
▁chinese	-7.79181
▁democratic	-7.79312
▁women	-7.7943
▁general	-7.80105
▁then	-7.80534
▁support	-7.80671
▁nation	-7.80927
▁look	-7.81131
▁bank	-7.81285
▁among	-7.81329
▁going	-7.81781
▁20	-7.81887
▁economic	-7.82417
▁kim	-7.82506
▁family	-7.82611
▁billion	-7.827
▁took	-7.82705
▁see	-7.82798
▁death	-7.82918
▁think	-7.83677
in	-7.84626
▁show	-7.84808
▁lee	-7.84823
▁power	-7.85083
▁later	-7.85351
▁much	-7.8563
▁capital	-7.8566
▁severa	-7.85812
▁fire	-7.86221
▁life	-7.86303
▁campaign	-7.8705
▁night	-7.87084
▁left	-7.87231
▁car	-7.87367
▁ago	-7.87636
▁yesterday	-7.88468
▁good	-7.89699
▁secretary	-7.90009
▁30	-7.90193
▁announced	-7.91496
▁used	-7.91591
▁pakistan	-7.92199
▁site	-7.92297
▁human	-7.9231
▁john	-7.92537
▁men	-7.92863
▁me	-7.9355
▁held	-7.93705
▁area	-7.9391
▁head	-7.94254
▁deal	-7.9458
▁program	-7.94717
▁health	-7.94925
▁recent	-7.94948
r	-7.9497
▁same	-7.94999
▁turn	-7.95075
▁iran	-7.95279
▁team	-7.95493
▁oil	-7.95717
▁major	-7.96151
▁want	-7.97186
▁plan	-7.97375
▁leaders	-7.97531
i	-7.97679
▁place	-7.97873
▁today	-7.97966
▁force	-7.98161
▁university	-7.98253
▁based	-7.98654
▁media	-7.98662
▁right	-7.98949
▁case	-7.98985
▁department	-7.99262
▁air	-7.99342
▁don	-7.99381
▁opposition	-7.99469
▁economy	-7.99623
▁center	-7.99803
▁third	-8.00084
▁roh	-8.00246
▁released	-8.00475
▁these	-8.01056
▁return	-8.01219
▁past	-8.01224
▁morning	-8.01498
▁use	-8.01907
▁school	-8.01931
▁half	-8.01938
▁win	-8.0255
▁local	-8.02856
▁law	-8.02971
▁know	-8.03118
▁financial	-8.03185
▁late	-8.03958
▁london	-8.04009
▁start	-8.04118
▁whe	-8.04281
▁defense	-8.04329
▁hours	-8.04403
▁m	-8.04497
▁taliban	-8.04651
▁without	-8.04852
▁market	-8.05066
▁put	-8.05414
on	-8.05481
▁15	-8.05522
▁come	-8.05605
▁hit	-8.06023
▁run	-8.06056
▁11	-8.06335
▁6	-8.06785
▁5	-8.06981
▁your	-8.07237
▁taken	-8.07361
▁attacks	-8.07513
▁beijing	-8.07928
able	-8.08362
▁visit	-8.08545
▁money	-8.08597
▁workers	-8.08748
▁nations	-8.09021
▁afghanistan	-8.091
▁japanese	-8.09132
▁4	-8.09151
▁close	-8.09942
▁mccain	-8.09946
▁dead	-8.10132
▁administration	-8.10158
▁hospital	-8.10343
▁does	-8.10726
▁space	-8.10833
▁water	-8.10863
▁plans	-8.11038
▁per	-8.1132
▁led	-8.11666
▁free	-8.11819
▁best	-8.11899
▁19	-8.12063
▁move	-8.12237
▁already	-8.12529
▁baghdad	-8.12704
▁central	-8.12911
▁final	-8.13457
▁service	-8.13674
▁others	-8.13814
▁along	-8.13926
▁began	-8.14317
▁give	-8.1433
▁march	-8.1447
▁system	-8.14573
▁trade	-8.14952
▁big	-8.15539
▁army	-8.16124
▁rights	-8.1613
▁business	-8.16387
▁province	-8.16589
▁known	-8.16603
▁current	-8.16804
▁unti	-8.16823
▁believe	-8.1717
▁few	-8.17282
▁decision	-8.17304
▁vote	-8.17793
▁away	-8.18141
▁each	-8.18639
▁conference	-8.18833
▁far	-8.18891
▁main	-8.18893
▁however	-8.19022
▁become	-8.19199
▁israel	-8.19392
▁across	-8.19758
▁12	-8.19886
▁release	-8.2009
▁eight	-8.20495
▁50	-8.20497
▁open	-8.20559
▁southern	-8.207
▁soldiers	-8.20753
▁weeks	-8.2076
▁issue	-8.20776
▁barack	-8.21079
▁food	-8.21254
▁region	-8.21579
▁french	-8.21626
▁woman	-8.21671
▁co	-8.2174
▁face	-8.21828
▁own	-8.21842
▁need	-8.21987
▁information	-8.22232
▁sen	-8.22561
▁web	-8.23317
▁violence	-8.23384
▁asked	-8.23417
▁200	-8.23628
▁agreement	-8.23787
▁b	-8.24006
▁east	-8.2429
▁here	-8.24331
▁weapons	-8.24733
▁global	-8.24757
▁arrested	-8.24828
▁young	-8.25109
▁control	-8.25325
▁change	-8.25385
▁russia	-8.25602
▁d	-8.25697
▁militants	-8.26023
▁european	-8.26178
▁making	-8.26184
▁park	-8.26218
▁seven	-8.26478
▁israeli	-8.26972
▁prices	-8.26983
▁film	-8.27345
▁students	-8.2748
▁largest	-8.27565
▁e	-8.2777
▁bill	-8.27786
▁star	-8.2785
▁thousands	-8.27859
▁video	-8.2791
▁40	-8.27927
▁following	-8.28116
▁killing	-8.2813
▁town	-8.28447
▁100	-8.28703
▁ve	-8.28919
▁northern	-8.28981
▁federal	-8.29394
▁peace	-8.30008
▁internet	-8.30013
▁seen	-8.30061
▁25	-8.30729
▁am	-8.30756
▁agreed	-8.31097
▁large	-8.31428
▁california	-8.31903
▁alleged	-8.31948
▁added	-8.32071
▁every	-8.3211
▁committee	-8.32418
▁britain	-8.32537
▁might	-8.32964
spite	-8.32988
▁point	-8.33315
▁pyongyang	-8.33608
▁article	-8.33929
▁director	-8.34163
▁small	-8.34187
man	-8.34224
▁points	-8.34356
▁trying	-8.34373
▁outside	-8.34754
▁never	-8.34904
▁ahead	-8.35286
▁accused	-8.36179
▁border	-8.3637
▁went	-8.36544
▁elections	-8.36641
▁great	-8.36709
▁working	-8.36888
▁emergency	-8.36897
▁side	-8.37029
▁palestinian	-8.37045
▁clear	-8.37259
▁aid	-8.37308
▁likely	-8.37357
▁research	-8.37468
▁senior	-8.3756
taking	-8.37581
▁record	-8.37665
▁must	-8.37804
▁key	-8.38097
0	-8.38277
▁charges	-8.38454
▁investigation	-8.38863
▁crisis	-8.38913
▁little	-8.38924
▁body	-8.39008
▁keep	-8.39258
▁anti	-8.39392
▁possible	-8.39395
▁france	-8.39706
▁cut	-8.39994
▁energy	-8.40286
▁2006	-8.40524
▁union	-8.40594
▁miles	-8.40727
▁associat	-8.4089
▁west	-8.40897
▁companies	-8.40977
▁congress	-8.41184
▁got	-8.4124
u	-8.4136
▁again	-8.41427
▁18	-8.41618
▁hyun	-8.41732
▁council	-8.42069
▁game	-8.42358
▁january	-8.42377
▁red	-8.42519
▁latest	-8.4287
▁continue	-8.43097
▁due	-8.43452
c	-8.43472
▁groups	-8.43692
▁live	-8.43738
▁reporters	-8.43829
▁qaeda	-8.44036
ers	-8.44117
▁june	-8.4452
▁tell	-8.44557
▁line	-8.4458
▁meet	-8.44847
▁gas	-8.44909
▁america	-8.45087
▁july	-8.45276
▁ap	-8.4539
▁member	-8.45491
▁candidate	-8.45491
▁building	-8.45628
▁toward	-8.45649
▁sea	-8.45716
▁further	-8.45725
▁pay	-8.46016
▁policy	-8.46211
▁showed	-8.46572
▁name	-8.46771
▁coast	-8.46779
▁george	-8.46955
▁8	-8.46955
▁once	-8.471
▁22	-8.47277
▁13	-8.47509
▁less	-8.47557
▁find	-8.47584
▁england	-8.47686
▁carry	-8.47698
est	-8.47918
▁strong	-8.4804
▁w	-8.4812
▁ban	-8.48394
▁minutes	-8.48514
▁allow	-8.48756
▁efforts	-8.48844
▁order	-8.48897
▁mean	-8.49054
▁television	-8.49187
▁too	-8.49212
▁race	-8.49264
▁gaza	-8.49446
▁airport	-8.49487
ish	-8.49502
▁september	-8.49942
▁16	-8.49947
▁weekend	-8.49966
▁ruling	-8.49967
▁suicide	-8.49981
▁stop	-8.50091
▁bring	-8.50286
▁medical	-8.50452
▁lost	-8.50491
▁hundreds	-8.50627
▁black	-8.5115
▁term	-8.51284
▁parliament	-8.51369
▁russian	-8.51721
▁station	-8.51791
▁child	-8.52008
▁demand	-8.52513
▁afghan	-8.52579
▁send	-8.52611
▁study	-8.52671
▁search	-8.52701
▁14	-8.5301
▁future	-8.53112
▁travel	-8.53438
▁victory	-8.53566
▁level	-8.53917
▁better	-8.54098
▁communist	-8.54351
▁series	-8.5439
▁process	-8.54418
▁call	-8.54601
▁street	-8.54741
▁island	-8.55225
▁americans	-8.55318
▁industry	-8.5568
▁confirmed	-8.55774
▁round	-8.55791
▁action	-8.55809
▁bomb	-8.55828
▁sent	-8.55989
▁person	-8.56002
▁shot	-8.56085
▁pro	-8.56205
▁december	-8.56218
▁lot	-8.56385
▁musharraf	-8.56489
en	-8.56541
m	-8.56659
▁father	-8.57411
▁real	-8.57554
▁april	-8.57577
▁almost	-8.57584
▁san	-8.5759
▁k	-8.57725
▁injured	-8.58247
though	-8.58302
▁wounded	-8.58702
▁list	-8.58729
▁hour	-8.5883
▁yet	-8.58971
▁interview	-8.58977
an	-8.59232
▁really	-8.59337
▁sex	-8.59583
▁enough	-8.5979
▁important	-8.59791
▁play	-8.59812
▁hav	-8.59949
▁europe	-8.60052
▁nine	-8.60099
▁hard	-8.60281
▁history	-8.60354
▁chairman	-8.60355
▁ever	-8.60419
▁test	-8.60467
▁result	-8.6052
▁republican	-8.60526
▁asia	-8.60559
▁special	-8.60605
▁november	-8.60633
▁involved	-8.60729
▁tv	-8.60776
▁david	-8.60916
▁inside	-8.60989
▁soon	-8.61121
▁started	-8.61301
▁behind	-8.61483
▁homes	-8.61522
▁sources	-8.61532
▁full	-8.61561
▁wife	-8.62062
▁believed	-8.62113
▁coming	-8.62218
▁given	-8.62284
▁hand	-8.62581
▁fighting	-8.63073
▁f	-8.63104
▁flight	-8.63115
▁front	-8.63149
▁job	-8.63163
▁24	-8.63185
▁amid	-8.63216
▁rice	-8.63504
▁private	-8.63785
▁grand	-8.63896
▁60	-8.63902
▁appear	-8.6409
▁plane	-8.64155
▁whose	-8.64158
▁mother	-8.64284
▁organization	-8.64289
▁heart	-8.64321
▁western	-8.64331
▁india	-8.64807
▁areas	-8.65023
ic	-8.65061
p	-8.65128
▁urg	-8.65868
▁using	-8.66033
▁fuel	-8.66078
▁comes	-8.66112
ese	-8.66127
▁newspaper	-8.66376
▁problems	-8.66433
▁august	-8.6644
ve	-8.66534
▁commission	-8.6665
▁role	-8.66664
▁season	-8.66854
▁price	-8.66986
▁post	-8.67054
▁2005	-8.67067
▁victims	-8.67116
▁son	-8.6713
▁storm	-8.67131
▁evidence	-8.67341
▁koreans	-8.67357
▁rate	-8.67414
▁express	-8.67512
▁hold	-8.67851
▁prison	-8.68407
▁planned	-8.68867
▁though	-8.68877
▁voters	-8.68952
▁conduct	-8.69134
▁mission	-8.69138
▁mark	-8.69315
▁increase	-8.69531
5	-8.69699
▁middle	-8.69772
▁scientists	-8.69986
▁different	-8.70069
▁met	-8.70098
▁australia	-8.70259
▁ground	-8.70361
▁gave	-8.70718
▁tour	-8.7081
ous	-8.71086
▁lower	-8.71124
▁wanted	-8.71282
▁wants	-8.71469
▁february	-8.71971
▁couple	-8.71977
▁poll	-8.72035
▁summit	-8.72288
▁senate	-8.72291
▁step	-8.72298
▁age	-8.72401
▁reach	-8.72416
▁9	-8.72478
h	-8.72497
▁incident	-8.72595
▁board	-8.72605
▁spokeswoman	-8.72605
▁islamic	-8.72612
▁2004	-8.72621
▁results	-8.72733
▁percents	-8.72769
▁light	-8.72842
▁fell	-8.72927
▁received	-8.73338
▁calls	-8.73437
▁tried	-8.73614
▁road	-8.7364
▁heavy	-8.73885
▁problem	-8.73893
ary	-8.74128
▁movie	-8.74216
▁attempt	-8.7433
▁supporters	-8.74365
▁appeared	-8.74511
▁protest	-8.74543
▁prosecutors	-8.74917
▁recently	-8.74933
▁negotiations	-8.74937
▁deaths	-8.74982
▁let	-8.75118
▁judge	-8.75118
▁situation	-8.75182
▁church	-8.75188
ies	-8.75328
▁exchange	-8.75467
▁district	-8.75518
▁development	-8.75524
▁relations	-8.75555
▁train	-8.75588
▁markets	-8.75818
▁together	-8.75837
▁thought	-8.75898
com	-8.76129
▁short	-8.76148
▁disease	-8.76189
▁scheduled	-8.76216
▁protesters	-8.76221
▁vice	-8.76243
to	-8.76789
▁intelligence	-8.76828
▁stock	-8.7688
▁october	-8.77159
▁florida	-8.7716
▁something	-8.77168
▁hotel	-8.77199
▁stay	-8.7728
▁germany	-8.77348
k	-8.77483
▁pressure	-8.77539
▁tokyo	-8.77827
▁moo	-8.77853
▁low	-8.77982
▁needed	-8.78321
▁los	-8.78449
▁operation	-8.78487
▁hamas	-8.785
▁immediately	-8.78675
▁include	-8.78677
▁decided	-8.79048
▁caused	-8.79053
▁technology	-8.79176
▁2008	-8.79197
▁games	-8.79204
▁project	-8.79229
▁online	-8.79321
▁2000	-8.7937
▁hong	-8.79531
▁growth	-8.79535
▁total	-8.79583
▁ll	-8.797
▁wall	-8.79831
▁labor	-8.79837
biggest	-8.79858
▁getting	-8.79887
▁brown	-8.80089
▁growing	-8.80119
▁cross	-8.80176
▁issues	-8.80225
▁eastern	-8.80242
▁coalition	-8.80543
▁reached	-8.81131
▁paris	-8.81207
▁cause	-8.81222
▁strike	-8.81239
▁league	-8.81267
▁pakistani	-8.81383
▁services	-8.81385
▁land	-8.81432
▁phone	-8.81514
▁lawmakers	-8.81573
▁pm	-8.81593
▁assembly	-8.81595
▁2003	-8.81603
▁fight	-8.81649
▁claimed	-8.8177
▁try	-8.81826
▁apparent	-8.8193
▁provide	-8.8193
▁summer	-8.81988
▁saw	-8.8199
▁missing	-8.82229
▁sentence	-8.82366
▁remain	-8.82381
▁claim	-8.82573
▁polls	-8.82694
▁hill	-8.82761
▁officers	-8.82885
▁hillary	-8.82999
▁cup	-8.83063
▁survey	-8.83076
▁executive	-8.83081
▁girl	-8.83107
▁condition	-8.83397
▁closed	-8.83429
▁asian	-8.8384
▁angeles	-8.84053
▁serious	-8.84075
▁officer	-8.84276
▁hope	-8.84325
▁23	-8.84326
1	-8.84668
▁warned	-8.84855
▁speech	-8.85076
▁arrest	-8.85103
▁feel	-8.85151
le	-8.85456
▁sarkozy	-8.85483
▁effort	-8.85611
▁battle	-8.85626
▁tax	-8.85638
▁charged	-8.8567
▁trip	-8.8591
▁issued	-8.85975
▁failed	-8.85983
▁rise	-8.86028
▁german	-8.86117
▁kind	-8.8612
▁protests	-8.86192
▁21	-8.86227
came	-8.86462
▁pull	-8.86578
less	-8.86879
▁goal	-8.86931
▁seem	-8.86955
ble	-8.8701
▁staff	-8.87285
▁blood	-8.87329
▁jobs	-8.87423
▁olympic	-8.87455
▁gen	-8.87456
▁texas	-8.87676
▁running	-8.87693
▁justice	-8.87818
st	-8.87954
▁match	-8.88029
▁democracy	-8.88053
▁turkey	-8.88421
▁hostages	-8.88481
coming	-8.88519
▁protect	-8.88649
▁lives	-8.88802
▁experts	-8.89073
▁interest	-8.89088
▁majority	-8.89186
son	-8.89189
▁speaking	-8.89233
▁threat	-8.89313
▁paul	-8.89529
▁drug	-8.89715
▁expect	-8.8981
▁crew	-8.90096
▁host	-8.90143
▁describ	-8.90219
▁music	-8.90226
▁community	-8.90299
▁quot	-8.90307
▁bad	-8.90327
or	-8.90452
▁opened	-8.90506
▁sales	-8.90528
ally	-8.90537
▁launched	-8.9059
▁higher	-8.90603
▁event	-8.90638
▁things	-8.90645
▁credit	-8.90874
▁talk	-8.91426
▁base	-8.91427
▁continued	-8.91449
▁senator	-8.91632
▁named	-8.91752
▁safety	-8.91832
▁why	-8.91833
▁association	-8.91855
▁leave	-8.92023
▁county	-8.92313
▁civilians	-8.92433
▁inter	-8.92579
▁governor	-8.92799
▁room	-8.92858
▁primary	-8.93382
▁joint	-8.93479
▁doing	-8.93499
▁cost	-8.93581
▁ra	-8.93584
▁programs	-8.93603
▁rule	-8.93742
▁damage	-8.9377
▁arrived	-8.93829
▁parties	-8.9384
▁offer	-8.93882
▁residents	-8.9401
▁address	-8.94046
▁suffer	-8.94067
▁similar	-8.94167
▁target	-8.94325
▁king	-8.94444
▁himself	-8.94563
▁concerns	-8.947
▁delegates	-8.94772
▁sign	-8.94955
▁measures	-8.95131
▁denied	-8.95358
▁bhutto	-8.95358
▁often	-8.95363
▁daily	-8.95376
▁average	-8.95567
▁daughter	-8.95591
▁message	-8.95596
▁gold	-8.95748
▁earth	-8.95769
▁break	-8.95913
▁river	-8.9601
▁care	-8.9613
▁estimated	-8.96239
▁camp	-8.9624
▁stage	-8.9632
while	-8.96475
▁husband	-8.96563
▁boy	-8.96617
▁identified	-8.9676
▁resolution	-8.96776
▁deputy	-8.96968
▁robert	-8.97106
▁bid	-8.97305
▁australian	-8.97398
▁risk	-8.9742
▁cars	-8.97425
▁shows	-8.97473
▁concern	-8.97599
▁africa	-8.97637
us	-8.97698
▁previous	-8.97864
▁attorney	-8.98048
▁fired	-8.98048
▁missile	-8.98058
▁always	-8.98192
▁2002	-8.98217
▁ordered	-8.98363
▁kong	-8.98398
▁production	-8.98425
▁population	-8.98457
▁parents	-8.98468
▁minute	-8.98478
▁radio	-8.98607
▁story	-8.98616
▁calling	-8.98742
▁scene	-8.98879
ung	-8.99019
▁ask	-8.99249
▁families	-8.99432
▁michael	-8.99434
▁cover	-8.99685
▁done	-8.99706
▁illegal	-8.99937
one	-9.0009
▁computer	-9.00149
▁iranian	-9.00151
▁form	-9.00156
▁push	-9.00217
▁popular	-9.0068
▁rest	-9.00745
▁funds	-9.00772
g	-9.00779
▁rose	-9.00919
▁royal	-9.00952
▁act	-9.0097
▁included	-9.00987
▁certain	-9.01109
▁myanmar	-9.01109
▁spent	-9.01134
▁suspected	-9.01305
▁education	-9.01616
ive	-9.01687
▁prince	-9.01949
▁ambassador	-9.01958
▁increasing	-9.01958
▁cases	-9.02086
▁period	-9.02341
▁details	-9.02366
▁embassy	-9.02385
8	-9.02412
▁sanctions	-9.0247
▁terrorist	-9.02719
▁armed	-9.02882
▁related	-9.02924
rought	-9.03206
▁living	-9.03246
3	-9.03294
▁dow	-9.03432
▁candidates	-9.03658
▁afternoon	-9.03679
▁followed	-9.03993
▁trial	-9.04039
▁fund	-9.0406
▁potential	-9.04114
ion	-9.04135
▁nato	-9.04148
▁ready	-9.04297
▁o	-9.04327
▁prevent	-9.04548
▁english	-9.0455
▁worst	-9.04554
▁crash	-9.04966
▁book	-9.04985
▁activities	-9.04989
▁cabinet	-9.04989
▁rally	-9.05015
▁elect	-9.05152
▁begin	-9.05347
▁nomination	-9.05349
▁crowd	-9.05353
▁source	-9.05354
▁cell	-9.05369
▁aim	-9.05439
▁huge	-9.05611
▁opening	-9.05733
▁comment	-9.05761
▁holding	-9.05838
carried	-9.05844
▁position	-9.05858
▁played	-9.059
▁refused	-9.06035
▁legal	-9.06175
▁comments	-9.06389
▁democrats	-9.06399
▁researchers	-9.06491
▁r	-9.06549
▁raised	-9.06565
▁sexual	-9.06769
▁african	-9.0682
▁doctors	-9.06855
2	-9.06987
▁view	-9.07047
▁drive	-9.07101
▁means	-9.07128
▁quarter	-9.07138
▁leaving	-9.07211
ton	-9.07214
▁bodies	-9.07223
▁share	-9.07429
▁fall	-9.07625
▁struck	-9.07661
▁allowed	-9.07862
▁claims	-9.07991
▁access	-9.08113
ra	-9.0821
▁streets	-9.08367
▁rescue	-9.08368
▁sure	-9.0858
▁terrorism	-9.0858
▁discuss	-9.08623
▁putin	-9.08679
▁love	-9.08813
▁ended	-9.0888
▁matter	-9.09002
▁cat	-9.09099
▁c	-9.09149
▁broke	-9.09164
▁response	-9.09484
▁focus	-9.09544
▁dr	-9.09615
▁returned	-9.09714
▁conditions	-9.09809
▁fact	-9.09895
▁blast	-9.09903
▁debate	-9.09915
▁question	-9.09976
▁instead	-9.1001
▁peninsula	-9.10408
▁create	-9.10466
▁passengers	-9.10811
▁rival	-9.10847
▁cities	-9.1088
▁hopes	-9.11214
▁mexico	-9.1134
▁parts	-9.11382
▁forward	-9.11473
▁pre	-9.1149
▁29	-9.11659
▁operations	-9.11736
▁title	-9.11804
▁illinois	-9.11809
▁needs	-9.1181
▁foot	-9.11849
▁published	-9.11957
▁35	-9.12209
▁announcement	-9.12221
▁course	-9.12244
▁trading	-9.12281
▁passed	-9.12335
▁interior	-9.12339
▁fans	-9.12602
▁st	-9.12746
▁progress	-9.12749
▁network	-9.12791
▁accept	-9.12808
▁sites	-9.1313
▁mid	-9.13368
▁murder	-9.13421
za	-9.13524
▁millions	-9.136
▁spending	-9.13699
▁spread	-9.1371
▁consider	-9.13876
▁saudi	-9.14169
▁available	-9.1419
▁nothing	-9.14201
z	-9.14298
▁warning	-9.14337
▁civil	-9.14693
ness	-9.14705
▁launch	-9.14816
▁charge	-9.15135
▁26	-9.1517
um	-9.15221
▁non	-9.15321
▁watch	-9.15376
▁80	-9.15693
▁citizens	-9.15943
▁ship	-9.16095
▁social	-9.16135
▁chicago	-9.16137
▁treatment	-9.1614
▁chance	-9.1615
▁data	-9.16153
▁institute	-9.16155
▁investment	-9.16156
▁31	-9.16277
▁annual	-9.16297
side	-9.16545
▁banks	-9.16559
▁moved	-9.16745
▁ceremony	-9.17125
▁2001	-9.17163
▁poor	-9.17195
▁follow	-9.17349
▁longer	-9.1746
▁winning	-9.17634
▁weather	-9.17638
▁rising	-9.17644
▁virginia	-9.17655
▁muslim	-9.17659
▁lawyer	-9.17662
▁movement	-9.17669
▁jail	-9.17767
▁declared	-9.17849
▁either	-9.18122
▁cannot	-9.18125
▁ki	-9.18186
▁enter	-9.18297
▁field	-9.18532
▁themselves	-9.18626
▁harry	-9.18626
▁thing	-9.18639
▁sold	-9.18642
▁decades	-9.18748
▁rebels	-9.18768
▁affairs	-9.18803
▁signed	-9.18832
▁diplomatic	-9.19123
▁italian	-9.19136
▁professor	-9.19174
▁analysts	-9.19195
▁deliver	-9.19413
▁increased	-9.19483
▁friends	-9.19522
▁smith	-9.19576
▁mass	-9.1959
▁snow	-9.19641
▁lack	-9.19645
f	-9.19718
▁commander	-9.19745
▁discovered	-9.19751
▁gain	-9.19826
▁moon	-9.19889
▁difficult	-9.1992
▁players	-9.1993
▁date	-9.20039
▁century	-9.20148
▁above	-9.20148
▁particular	-9.20149
▁chung	-9.20154
▁schools	-9.20204
▁club	-9.20211
▁steps	-9.20269
▁employees	-9.20408
▁adding	-9.20569
▁injuries	-9.20664
▁feet	-9.2067
▁size	-9.20686
▁single	-9.20757
ce	-9.20818
▁0	-9.20875
▁worked	-9.21035
▁award	-9.21071
▁construction	-9.21177
▁italy	-9.21195
▁rain	-9.21423
▁45	-9.21455
▁range	-9.21517
▁28	-9.21524
▁eu	-9.21659
▁green	-9.21677
▁mail	-9.21921
▁investigators	-9.21933
▁sun	-9.2209
▁espe	-9.22234
▁highest	-9.22342
▁quickly	-9.22367
el	-9.22437
▁destroyed	-9.22558
▁toll	-9.22592
▁remains	-9.22599
▁nasa	-9.22616
▁questions	-9.22778
▁female	-9.22781
▁rare	-9.22812
▁manager	-9.22857
▁additional	-9.22922
▁spain	-9.23274
▁dollar	-9.23364
▁helped	-9.23366
▁dozens	-9.23435
▁join	-9.23502
▁personal	-9.23588
▁giving	-9.23794
▁supreme	-9.23796
▁index	-9.23798
▁industrial	-9.23807
▁accident	-9.23809
▁worth	-9.23846
time	-9.23858
▁threatened	-9.24107
▁shooting	-9.24159
▁code	-9.24183
▁chavez	-9.24328
▁anything	-9.24329
▁jones	-9.24341
▁blue	-9.24425
▁vehicle	-9.24434
▁mayor	-9.24528
cially	-9.24546
▁request	-9.24637
▁indian	-9.2476
▁ice	-9.24785
▁approved	-9.24914
▁guard	-9.24918
▁letter	-9.24958
▁detained	-9.25044
▁forc	-9.25057
te	-9.25293
▁idea	-9.25398
▁paid	-9.25448
▁square	-9.2548
▁playing	-9.25489
▁hearing	-9.25507
▁uri	-9.25537
▁seeking	-9.25695
▁friend	-9.25736
▁everything	-9.2594
▁500	-9.26156
▁common	-9.2619
▁moscow	-9.26482
▁prosecution	-9.26483
▁nearby	-9.2651
▁90	-9.26536
▁allegations	-9.26606
▁uk	-9.26641
▁considered	-9.26911
▁massive	-9.27054
▁beat	-9.27129
▁session	-9.27154
▁hands	-9.2718
▁environmental	-9.27319
ial	-9.27399
▁appeal	-9.27458
▁envoy	-9.27578
▁carolina	-9.27582
▁kept	-9.27586
▁relationship	-9.27709
▁natural	-9.27742
▁secret	-9.27769
▁buy	-9.27774
▁attention	-9.28131
▁cancer	-9.28131
▁dropped	-9.28132
▁shut	-9.28145
and	-9.28216
▁firm	-9.28279
▁levels	-9.28484
4	-9.28554
▁changes	-9.28605
▁posted	-9.28606
▁aircraft	-9.28687
▁alliance	-9.28687
▁convicted	-9.2874
▁shiite	-9.28822
0000	-9.28842
▁safe	-9.28928
▁avoid	-9.2896
▁evening	-9.2909
▁contain	-9.29112
▁numbers	-9.29177
▁taiwan	-9.29227
▁driving	-9.29245
▁responsible	-9.29245
▁significant	-9.2925
▁happened	-9.29252
▁born	-9.29352
▁investors	-9.29406
▁original	-9.29428
▁criticized	-9.29433
ar	-9.29595
▁separate	-9.29608
▁success	-9.2971
▁loss	-9.29713
▁ex	-9.29726
▁8212	-9.29807
▁sides	-9.29998
▁remarks	-9.30013
▁bus	-9.30041
▁critical	-9.30049
▁plant	-9.30193
▁quit	-9.30194
▁fear	-9.30248
▁pennsylvania	-9.30371
▁responsibility	-9.30371
▁usual	-9.30402
000	-9.30636
▁build	-9.30664
▁visitors	-9.31025
▁college	-9.3109
▁crime	-9.31123
▁sell	-9.31135
▁wide	-9.31211
▁1000	-9.31267
▁xinhua	-9.31511
▁whom	-9.31513
▁society	-9.31529
▁admitted	-9.31588
▁kill	-9.31643
▁store	-9.31656
▁mountain	-9.31661
▁conservative	-9.31693
▁il	-9.31937
▁seat	-9.31961
▁stand	-9.32007
▁makes	-9.32065
▁authority	-9.32097
▁el	-9.32146
▁figure	-9.32178
▁draw	-9.32209
▁consumer	-9.32286
▁seek	-9.32436
▁heard	-9.32482
▁training	-9.32493
▁indonesia	-9.32518
co	-9.32594
▁ohio	-9.32665
▁planning	-9.32678
▁products	-9.32739
▁rock	-9.32797
▁independence	-9.32806
▁terror	-9.32849
▁student	-9.32868
▁costs	-9.32924
▁animals	-9.32935
▁prisoners	-9.32961
▁track	-9.332
▁management	-9.33247
▁thailand	-9.33249
▁arms	-9.3335
▁suspect	-9.3378
▁serve	-9.33793
▁tibet	-9.33811
▁complete	-9.33899
▁ii	-9.33955
▁pacific	-9.34419
▁criticism	-9.34419
▁jump	-9.3442
▁worldwide	-9.34428
▁baby	-9.34434
▁written	-9.34447
▁defeat	-9.34694
▁cho	-9.34761
▁buildings	-9.34989
▁abbas	-9.35062
▁committed	-9.3512
▁offered	-9.35129
▁nominee	-9.35229
▁bak	-9.35231
▁rejected	-9.35245
▁experience	-9.35294
▁suspects	-9.35389
▁previously	-9.35486
▁independent	-9.35489
▁contact	-9.35553
b	-9.35719
▁read	-9.35844
▁drop	-9.35892
▁constitution	-9.36025
▁custody	-9.36204
▁leadership	-9.36217
▁sale	-9.36291
▁reactor	-9.36433
▁raise	-9.36572
▁account	-9.36759
▁shortly	-9.36803
▁herald	-9.36811
▁impact	-9.36821
ro	-9.36826
▁regional	-9.3701
▁reform	-9.37012
▁insurgents	-9.37026
▁earthquake	-9.37043
▁ruled	-9.3714
▁bin	-9.37171
▁seats	-9.37218
be	-9.37283
00	-9.37283
9	-9.37353
▁class	-9.37371
▁commercial	-9.37413
▁ties	-9.3746
▁dae	-9.37498
▁proposed	-9.37515
▁allies	-9.37651
▁satellite	-9.37661
▁tests	-9.37662
▁explosion	-9.37665
▁giant	-9.37665
▁brother	-9.37669
▁rules	-9.37683
x	-9.37691
▁career	-9.37719
▁vehicles	-9.37898
▁includes	-9.37925
▁g	-9.37994
▁occurred	-9.38023
▁corruption	-9.38023
▁combat	-9.38057
▁300	-9.38194
▁voice	-9.38253
▁neighbor	-9.38285
▁remained	-9.38295
▁civilian	-9.38299
▁paper	-9.38307
▁environment	-9.38329
▁word	-9.38367
re	-9.38372
▁rich	-9.38414
▁georgia	-9.38469
▁prize	-9.385
▁reduce	-9.38533
▁microsoft	-9.38636
▁deep	-9.38834
▁beginning	-9.3885
6	-9.38885
▁port	-9.38915
▁zone	-9.3896
▁compar	-9.38979
▁marine	-9.39192
▁contract	-9.39227
▁moving	-9.39254
▁everyone	-9.39289
▁fine	-9.39299
▁actually	-9.39327
sh	-9.39525
han	-9.39557
▁ran	-9.39563
▁attacked	-9.39623
▁olympics	-9.39626
▁pick	-9.39655
▁linked	-9.39717
▁command	-9.3976
ia	-9.39767
▁boost	-9.39804
▁traffic	-9.39871
▁wrote	-9.39875
▁signs	-9.40131
▁effect	-9.40149
▁failure	-9.40499
▁climate	-9.405
▁fifth	-9.40503
▁shares	-9.40604
▁museum	-9.40759
▁science	-9.40786
▁immediate	-9.408
▁actor	-9.40812
▁traditional	-9.40836
▁reason	-9.40847
▁figures	-9.40918
▁documents	-9.41039
▁elected	-9.41096
▁myung	-9.41194
▁se	-9.41202
▁le	-9.41255
▁formal	-9.41294
▁events	-9.41473
▁brief	-9.41502
▁built	-9.41761
▁anyone	-9.41852
▁32	-9.4235
▁super	-9.42373
▁domestic	-9.42398
▁votes	-9.42537
▁regime	-9.42675
▁player	-9.42878
▁complex	-9.4303
▁queen	-9.43039
▁spanish	-9.43042
▁surgery	-9.43058
▁finance	-9.43351
▁bombing	-9.43543
▁itself	-9.43684
▁guilty	-9.43708
▁cash	-9.43726
▁prompt	-9.43997
▁marriage	-9.44006
▁showing	-9.44144
▁spoke	-9.44189
▁violent	-9.44334
▁james	-9.44341
▁bit	-9.44447
▁criminal	-9.44674
▁animal	-9.44681
▁hurt	-9.44695
▁girls	-9.44802
▁p	-9.44979
▁coach	-9.4499
▁turk	-9.45006
ity	-9.4502
▁shin	-9.45084
▁mosque	-9.45309
▁brain	-9.45328
▁tourists	-9.4553
▁fresh	-9.4564
▁faces	-9.45653
ation	-9.45655
▁fair	-9.45677
▁jong	-9.45694
▁rates	-9.45777
▁created	-9.458
▁peaceful	-9.45993
▁corp	-9.45998
▁bombs	-9.46019
▁bridge	-9.46074
▁colombia	-9.46145
▁policies	-9.46308
▁operating	-9.46308
▁self	-9.46315
▁shuttle	-9.46317
▁mobile	-9.46322
▁dispute	-9.46454
▁suggested	-9.46471
▁flights	-9.46519
▁gates	-9.46597
tp	-9.46653
▁addition	-9.4674
▁abe	-9.46886
▁owner	-9.46914
ian	-9.4696
▁filed	-9.47097
▁panel	-9.47325
▁truck	-9.4735
▁provided	-9.47379
▁bar	-9.47503
▁supply	-9.47645
▁telephone	-9.47645
▁necessary	-9.47672
▁concerned	-9.47714
▁moment	-9.48023
▁patients	-9.48139
▁terms	-9.48141
▁n	-9.48289
▁correspondent	-9.48324
▁powerful	-9.48349
▁lebanon	-9.48353
▁shown	-9.48378
▁speed	-9.48494
citing	-9.48624
▁republic	-9.48647
▁fears	-9.48789
▁confirm	-9.48817
ang	-9.48995
▁leban	-9.49039
▁stopped	-9.49195
▁football	-9.49278
▁involv	-9.49355
▁damaged	-9.49396
▁militant	-9.49413
▁promised	-9.49436
▁understand	-9.4948
▁approach	-9.49509
▁voting	-9.49687
▁ilbo	-9.49689
▁dangerous	-9.49697
▁row	-9.49784
▁suggest	-9.49832
▁terrorists	-9.49849
▁specific	-9.50089
▁conflict	-9.5009
▁suspended	-9.50113
▁represent	-9.5019
▁names	-9.50331
▁positive	-9.50376
▁sought	-9.50499
▁parliamentar	-9.50602
▁hu	-9.50658
▁village	-9.50758
▁words	-9.50768
▁works	-9.50821
▁blam	-9.50885
▁wearing	-9.50885
▁affect	-9.50895
▁stocks	-9.50994
▁regard	-9.51056
▁hollywood	-9.51071
▁fbi	-9.51074
▁cold	-9.51213
▁id	-9.51244
▁affected	-9.51249
▁remaining	-9.5144
▁drugs	-9.5145
▁apple	-9.51454
▁kids	-9.51456
▁performance	-9.515
id	-9.51674
▁amount	-9.51677
▁felt	-9.51769
▁territory	-9.51769
▁opportunity	-9.51769
▁confidence	-9.51773
▁bbc	-9.51777
▁navy	-9.51849
▁ongoing	-9.51975
▁palestinians	-9.51984
▁designed	-9.52171
▁resume	-9.52257
▁vow	-9.52509
▁referr	-9.52663
▁activists	-9.52724
▁gathered	-9.52724
▁measure	-9.52749
▁joined	-9.52914
▁rocket	-9.52935
▁laws	-9.52951
▁beach	-9.53137
▁overseas	-9.53183
▁cooperation	-9.53185
▁caught	-9.53185
▁journalists	-9.53201
▁seized	-9.53275
▁voted	-9.53303
▁sometime	-9.53354
▁check	-9.53493
▁protection	-9.53602
▁winter	-9.53603
▁takes	-9.53609
▁holiday	-9.5364
▁maintain	-9.53748
▁ben	-9.53833
▁wrong	-9.53891
▁possibility	-9.53897
▁crude	-9.53897
▁lines	-9.53926
▁na	-9.53928
▁lone	-9.54138
▁screen	-9.54181
▁van	-9.54253
▁quake	-9.54338
▁opinion	-9.5436
▁heat	-9.5446
▁premier	-9.54558
▁straight	-9.54616
▁olmert	-9.54617
▁anniversary	-9.54619
▁investigating	-9.54621
▁headquarters	-9.54669
▁images	-9.54696
▁blow	-9.54723
▁bay	-9.54797
▁constitutional	-9.54832
▁review	-9.54941
▁initial	-9.55013
▁present	-9.55015
▁placed	-9.55048
▁receive	-9.55085
▁dozen	-9.55107
▁considering	-9.5523
▁ways	-9.55254
▁sa	-9.55267
▁brazil	-9.55328
lew	-9.55354
▁peter	-9.55363
▁ht	-9.55391
▁customers	-9.5558
▁ball	-9.55825
▁double	-9.55878
▁hurricane	-9.56071
▁assistant	-9.56075
▁controversial	-9.56083
▁throughout	-9.5609
▁below	-9.56117
▁severe	-9.56247
▁critics	-9.56253
▁honor	-9.56439
▁wa	-9.5646
▁flu	-9.56526
▁package	-9.56569
▁christophe	-9.56806
▁yahoo	-9.56806
▁christmas	-9.56807
▁display	-9.56807
vez	-9.56902
▁disaster	-9.57308
▁language	-9.57315
▁winner	-9.57347
▁blair	-9.57547
▁laden	-9.57549
▁famous	-9.5759
▁surrounding	-9.57611
▁choice	-9.57629
▁influence	-9.57705
▁kilometers	-9.57738
▁goes	-9.5786
▁directly	-9.5787
▁type	-9.57887
▁ministers	-9.57949
▁collapse	-9.58078
▁meetings	-9.58081
▁soldier	-9.58089
▁rebel	-9.581
joins	-9.58188
▁facilities	-9.58293
▁madrid	-9.58294
▁bear	-9.58347
▁material	-9.58434
▁declined	-9.58436
▁arab	-9.58478
▁produced	-9.58479
▁develop	-9.58566
▁speak	-9.58593
asp	-9.58731
▁richard	-9.58781
▁barrel	-9.58848
▁kidnapped	-9.59046
▁extreme	-9.59049
▁true	-9.59082
▁burma	-9.59128
▁developing	-9.59193
▁alone	-9.59199
▁auto	-9.59202
▁direct	-9.59264
▁sunni	-9.59295
▁fighters	-9.59389
▁art	-9.59443
▁behavior	-9.5957
▁deadline	-9.59578
▁scandal	-9.59592
total	-9.59677
▁song	-9.5976
▁twice	-9.59803
▁unit	-9.59806
▁spark	-9.59817
▁gone	-9.59962
▁treasur	-9.60086
▁pack	-9.60327
▁magazine	-9.60344
▁victim	-9.60372
▁champions	-9.60502
▁exile	-9.60571
▁overall	-9.60588
▁winds	-9.60597
▁tech	-9.60668
▁blame	-9.60777
▁challenge	-9.60823
▁broadcast	-9.60908
▁abu	-9.61102
ist	-9.61138
▁decade	-9.61147
▁pass	-9.61316
▁happy	-9.61323
▁mugabe	-9.61335
▁charles	-9.61336
▁festival	-9.61336
▁sudan	-9.61336
▁species	-9.61367
▁activity	-9.61374
▁witnesses	-9.6138
▁waters	-9.6148
▁attend	-9.61736
▁assault	-9.61788
▁selling	-9.61791
▁value	-9.61995
▁software	-9.62111
▁recession	-9.62114
▁resignation	-9.62116
▁canada	-9.62129
▁2009	-9.62146
▁helicopter	-9.62712
▁northeast	-9.62865
▁politics	-9.62892
▁ocean	-9.62988
ever	-9.62995
▁bombings	-9.63299
▁eye	-9.6343
▁demands	-9.63433
▁wound	-9.63435
▁h	-9.63465
▁throw	-9.63614
▁finish	-9.63614
▁prepared	-9.63632
▁singapore	-9.63659
▁hussein	-9.63679
▁palace	-9.6368
▁multi	-9.63695
▁married	-9.63711
▁require	-9.63752
▁talking	-9.63926
▁missiles	-9.63949
▁imposed	-9.63953
▁airline	-9.64242
is	-9.64248
▁doctor	-9.64298
▁proposal	-9.64305
▁wild	-9.64422
▁zimbabwe	-9.64454
▁pentagon	-9.64473
▁door	-9.64506
ie	-9.64632
▁williams	-9.64735
▁god	-9.64895
▁consumers	-9.65005
▁determine	-9.65071
▁birth	-9.65071
▁style	-9.65083
▁headed	-9.65197
▁transport	-9.65265
▁gordon	-9.65273
▁knew	-9.65273
▁francisco	-9.65275
▁33	-9.65282
▁losses	-9.65339
▁setting	-9.65353
▁gay	-9.65366
▁pope	-9.65377
▁targeted	-9.65412
▁card	-9.65445
▁records	-9.65496
▁foreigners	-9.65513
▁lo	-9.65567
▁count	-9.6559
di	-9.65733
▁actions	-9.65736
▁jet	-9.65748
▁trouble	-9.65749
▁william	-9.65825
▁steve	-9.65837
▁improve	-9.65858
▁democrat	-9.65886
▁prosecutor	-9.6593
▁secure	-9.65946
▁dress	-9.65948
▁seed	-9.66005
▁reuters	-9.66079
▁agencies	-9.6608
▁li	-9.66099
▁ending	-9.66167
▁controlled	-9.66244
▁da	-9.66255
▁required	-9.66432
▁systems	-9.66435
▁cast	-9.66542
▁syria	-9.66602
▁arm	-9.66645
▁model	-9.66737
▁sports	-9.66793
▁waiting	-9.66809
▁lived	-9.66812
eastern	-9.66884
▁thai	-9.66891
▁beyond	-9.66892
▁presence	-9.66892
▁du	-9.67087
▁abuse	-9.67129
▁forecast	-9.67222
▁smoke	-9.67265
▁transfer	-9.67368
▁tank	-9.67388
▁hot	-9.67437
▁las	-9.67529
▁resort	-9.67539
▁hostage	-9.67587
▁camera	-9.67621
▁ali	-9.67638
▁gnp	-9.67712
▁draft	-9.67713
▁declaration	-9.67715
▁trust	-9.67725
▁hall	-9.6773
▁hair	-9.67754
▁tough	-9.67774
▁halt	-9.67789
▁airlines	-9.67884
▁computers	-9.67957
▁route	-9.68013
▁400	-9.68051
▁competition	-9.68359
▁resolve	-9.68368
▁dog	-9.6838
▁male	-9.68454
▁govern	-9.68454
▁establish	-9.685
ty	-9.68503
▁condoleez	-9.68538
▁crackdown	-9.68539
▁relief	-9.68539
▁maliki	-9.68541
▁serving	-9.68559
▁la	-9.68633
▁150	-9.68768
▁ma	-9.68784
▁sense	-9.68888
▁pictures	-9.69004
▁author	-9.69052
▁losing	-9.69076
▁crimes	-9.69108
▁fully	-9.69147
▁whole	-9.69161
▁christian	-9.69178
▁adviser	-9.69241
tan	-9.69347
▁egypt	-9.69359
▁soviet	-9.69372
▁dialogue	-9.69372
▁supplies	-9.69372
▁various	-9.69373
▁actress	-9.69378
▁withdrawal	-9.69435
ri	-9.69462
▁developed	-9.69514
▁forest	-9.69539
▁36	-9.69565
▁burn	-9.69573
▁served	-9.6969
▁stem	-9.69781
▁politicians	-9.69791
men	-9.69852
atomic	-9.69862
▁neighborhood	-9.70084
▁walk	-9.70092
▁singer	-9.70096
▁block	-9.70112
▁deadly	-9.70149
▁approval	-9.70212
▁sharif	-9.70215
▁1999	-9.70225
▁demonstrators	-9.70233
▁lift	-9.70244
▁roll	-9.70249
▁welcome	-9.70331
▁cells	-9.70362
ry	-9.70484
▁traveling	-9.70535
▁happen	-9.70552
▁republicans	-9.70556
▁scale	-9.70607
▁tony	-9.70687
▁stars	-9.70824
▁net	-9.70895
▁flow	-9.70897
▁floor	-9.7092
▁apartment	-9.70937
▁product	-9.70944
▁tibetan	-9.70948
▁analyst	-9.7095
▁witness	-9.71015
▁quality	-9.7106
▁kosovo	-9.71061
▁religious	-9.71064
▁kyi	-9.71072
ment	-9.711
▁bomber	-9.71164
▁suffering	-9.71276
▁determined	-9.7137
▁owned	-9.71469
▁removed	-9.71482
▁withdraw	-9.71705
▁isn	-9.7176
▁howard	-9.71947
▁places	-9.7224
▁fled	-9.72243
▁pledg	-9.72319
▁42	-9.72341
▁martin	-9.72396
▁widely	-9.72409
▁save	-9.72472
▁wing	-9.72482
▁mine	-9.72624
▁struggle	-9.72633
▁defend	-9.7265
▁freedom	-9.72663
▁image	-9.72676
▁delay	-9.72682
▁caus	-9.72697
▁199	-9.72709
▁probab	-9.72736
▁academy	-9.72776
▁facing	-9.72777
▁kabul	-9.72777
▁property	-9.72779
▁38	-9.72788
▁ceo	-9.72842
▁zoo	-9.7285
▁taxes	-9.72884
im	-9.72924
▁historic	-9.72949
▁provid	-9.73012
▁counter	-9.73017
▁sever	-9.73113
▁changed	-9.73173
▁standing	-9.73279
▁produce	-9.73285
▁probe	-9.7346
▁questioned	-9.73522
▁partner	-9.73598
▁journal	-9.73633
▁encourage	-9.73646
▁unveil	-9.73646
▁beckham	-9.73647
▁basic	-9.73696
▁planet	-9.73719
▁islam	-9.7374
▁prove	-9.73746
▁normal	-9.73929
▁picture	-9.74031
▁promise	-9.74043
▁finding	-9.74046
▁users	-9.74099
▁houses	-9.74173
▁surge	-9.74173
▁tens	-9.74176
▁lawyers	-9.74458
▁clean	-9.74481
▁fraud	-9.74523
▁budget	-9.74526
▁diana	-9.74531
▁fellow	-9.74531
▁1998	-9.74538
▁1980	-9.74539
▁located	-9.74571
▁continues	-9.74576
▁visited	-9.74625
▁sky	-9.74731
▁businesses	-9.74743
▁torch	-9.74775
▁hear	-9.75012
▁gun	-9.75047
▁rape	-9.75107
▁via	-9.75305
▁extra	-9.75347
ance	-9.7539
▁michigan	-9.75408
▁struggling	-9.75408
▁tehran	-9.75408
▁saddam	-9.75408
▁kurdish	-9.75408
▁1990	-9.75435
▁weight	-9.75513
▁items	-9.75603
▁demanded	-9.75675
▁wave	-9.75733
▁picked	-9.75793
▁active	-9.75871
▁demonstrations	-9.75984
▁estimates	-9.76048
▁accepted	-9.76129
▁ko	-9.76145
▁arabia	-9.76153
na	-9.76169
▁replace	-9.76202
▁division	-9.76215
▁raid	-9.76269
▁boat	-9.76274
▁highway	-9.76282
▁thaksin	-9.76301
▁housing	-9.76301
▁kennedy	-9.76301
▁transportation	-9.7631
▁stake	-9.76333
▁spot	-9.76493
▁alive	-9.76496
▁fed	-9.76528
▁organizations	-9.76554
▁collapsed	-9.76559
▁touch	-9.766
▁stone	-9.76719
▁ru	-9.76738
▁tensions	-9.76744
suu	-9.76826
▁explosives	-9.76829
▁discussions	-9.76859
▁culture	-9.76997
▁alert	-9.77107
▁channel	-9.77131
▁device	-9.77145
▁55	-9.77175
▁vietnam	-9.77202
▁virtual	-9.77202
▁uranium	-9.77202
▁spring	-9.77227
▁heavily	-9.77248
▁captured	-9.77373
▁climb	-9.77396
▁rank	-9.77497
▁initially	-9.77612
▁teams	-9.77675
▁indicated	-9.77807
▁sleep	-9.77905
▁kidnapping	-9.78039
▁page	-9.78067
▁appearance	-9.78072
▁solution	-9.78072
▁southeast	-9.78074
▁alcohol	-9.78089
▁penalty	-9.78111
▁assistance	-9.78115
▁stood	-9.78133
▁tourism	-9.78135
▁shift	-9.78203
▁cuts	-9.7828
▁ring	-9.78292
▁banned	-9.7831
▁broken	-9.78427
▁joong	-9.78464
▁wind	-9.78698
▁hop	-9.78702
▁reserve	-9.78768
▁refugees	-9.78833
▁cuba	-9.78973
▁attempts	-9.78998
▁ethnic	-9.79028
▁junta	-9.79029
ribal	-9.79037
▁speculation	-9.79043
▁exploded	-9.79063
▁sadr	-9.79092
▁virus	-9.79109
ley	-9.79119
la	-9.7922
▁jose	-9.79293
▁scored	-9.79329
▁mind	-9.79338
▁decide	-9.79489
▁pa	-9.79541
▁attempted	-9.79633
▁kenya	-9.79809
▁inc	-9.7983
▁possibl	-9.79844
▁rush	-9.79918
▁respect	-9.79938
▁arizona	-9.79954
▁currency	-9.79954
▁exact	-9.79954
▁stadium	-9.79955
▁islamabad	-9.79955
▁nicola	-9.79955
▁vegas	-9.79957
▁foundation	-9.79968
▁clashes	-9.79976
▁spend	-9.79998
▁injury	-9.8005
western	-9.80051
▁faced	-9.8007
▁photos	-9.80119
ester	-9.80148
▁sub	-9.80349
▁threatening	-9.80524
▁53	-9.80524
ized	-9.80596
▁warming	-9.80663
▁flying	-9.8073
▁cruise	-9.80789
▁keeping	-9.80796
▁remote	-9.80889
▁physical	-9.80889
▁journalist	-9.80896
▁personnel	-9.80919
▁troop	-9.81077
▁brand	-9.81132
▁greater	-9.81181
▁heads	-9.81254
▁convention	-9.81341
▁completed	-9.81393
▁gov	-9.81409
▁tom	-9.81569
▁nor	-9.81686
▁fast	-9.81733
▁l	-9.81794
▁ships	-9.81795
▁jerusalem	-9.81832
▁massachusetts	-9.81832
▁euro	-9.81878
▁ease	-9.81898
▁ensure	-9.81938
▁ho	-9.81987
▁holds	-9.81991
age	-9.82012
land	-9.82191
▁opposed	-9.82197
ful	-9.82388
at	-9.82493
▁sharp	-9.8252
▁phones	-9.82564
▁box	-9.82707
▁income	-9.82754
▁negotiator	-9.82784
▁equipment	-9.82785
▁crucial	-9.82787
▁nationwide	-9.8279
▁dna	-9.82815
▁finished	-9.82891
▁cia	-9.83014
▁commissioner	-9.83069
▁representatives	-9.83432
▁pain	-9.8358
as	-9.83701
cient	-9.83717
▁connection	-9.83731
▁handed	-9.83731
▁delayed	-9.83742
▁trillion	-9.83746
▁angry	-9.83752
▁lose	-9.83776
ought	-9.8378
▁iowa	-9.83785
▁jung	-9.83787
▁spears	-9.83807
▁answer	-9.83833
▁driver	-9.83848
▁hoped	-9.84269
▁goals	-9.84351
▁tons	-9.84392
▁projects	-9.84553
▁leg	-9.84583
ina	-9.84588
▁pounds	-9.84646
▁ba	-9.84698
▁reaction	-9.84712
▁bailout	-9.84718
▁fatah	-9.84719
▁involvement	-9.8472
▁wake	-9.84721
▁downtown	-9.84737
▁eventually	-9.84789
▁anger	-9.84941
▁48	-9.85068
▁jan	-9.85176
ey	-9.85178
▁entire	-9.85366
▁executives	-9.85423
▁band	-9.85506
▁han	-9.85539
▁mo	-9.85652
▁minor	-9.85662
▁delegation	-9.85694
▁samsung	-9.85698
▁google	-9.857
▁stall	-9.85701
▁estate	-9.85704
▁footage	-9.85709
▁carbon	-9.85714
▁perfect	-9.8572
▁relative	-9.85723
▁lawmaker	-9.85731
▁jury	-9.85738
▁tonight	-9.85787
▁evacuated	-9.85818
▁dogs	-9.85867
▁dismissed	-9.8589
▁visiting	-9.85992
▁smaller	-9.86011
▁tape	-9.86196
▁sw	-9.86204
▁intended	-9.86242
▁buying	-9.86301
▁treated	-9.86327
ur	-9.86353
▁probabl	-9.86423
▁films	-9.86433
▁founder	-9.86454
▁surprise	-9.86466
corporate	-9.86601
▁34	-9.86609
ine	-9.86643
▁crashed	-9.86643
▁facility	-9.86688
▁invasion	-9.86688
▁magnitude	-9.86688
▁dutch	-9.86689
▁studies	-9.86692
▁pair	-9.86692
▁nevada	-9.86693
▁orbit	-9.86698
▁version	-9.86713
▁mike	-9.86732
▁discovery	-9.86744
▁santa	-9.86785
▁piece	-9.86814
▁internal	-9.86835
ham	-9.86991
▁promote	-9.87115
▁windows	-9.87265
haps	-9.87417
▁seriously	-9.87608
▁table	-9.87626
▁stress	-9.87635
▁favor	-9.87672
▁export	-9.87672
▁fashion	-9.87687
▁simpson	-9.87695
▁nobel	-9.87703
▁audience	-9.87708
▁tournament	-9.87711
▁concert	-9.87719
▁detail	-9.87734
▁tight	-9.87739
▁boycott	-9.87815
▁44	-9.8789
▁transition	-9.87896
▁gang	-9.87922
▁closer	-9.87924
▁sound	-9.87942
▁canceled	-9.87963
▁43	-9.88014
▁modern	-9.88192
▁condemned	-9.88208
▁reasons	-9.88219
▁threats	-9.88249
▁nepal	-9.88308
▁provinc	-9.88542
▁dan	-9.88551
▁fish	-9.88598
▁goods	-9.88606
▁broad	-9.88671
itarian	-9.8869
▁mahmoud	-9.88695
▁abroad	-9.88698
▁karzai	-9.88698
▁memorial	-9.88698
▁offensive	-9.88698
▁assassination	-9.88699
▁relay	-9.88715
▁oscar	-9.8874
▁51	-9.88743
▁speaker	-9.88823
▁books	-9.88884
▁meant	-9.88913
▁announce	-9.88951
▁pledge	-9.89068
▁completely	-9.89267
ne	-9.89462
▁offices	-9.89614
▁indicate	-9.89638
▁identify	-9.89718
▁status	-9.8972
▁insurance	-9.89721
▁milan	-9.89723
▁daniel	-9.89726
▁jackson	-9.89726
▁cbs	-9.89745
▁content	-9.89753
▁walking	-9.89775
▁treaty	-9.89876
▁freed	-9.90199
▁looks	-9.9026
▁meters	-9.90307
▁rome	-9.90309
▁diplomats	-9.90353
▁haven	-9.90453
▁watched	-9.90505
▁52	-9.90549
▁alaska	-9.90563
ch	-9.90607
til	-9.90656
▁relatives	-9.90724
▁ten	-9.90735
▁sheriff	-9.90749
▁strategy	-9.90749
▁suspicion	-9.90749
▁dubai	-9.90749
▁presidency	-9.9075
▁babies	-9.90751
▁pound	-9.90831
▁putting	-9.90844
▁travelers	-9.90961
do	-9.90962
▁yes	-9.90985
▁miss	-9.90994
▁farmers	-9.91003
▁colombian	-9.91007
▁doubt	-9.91106
▁attract	-9.91226
▁perform	-9.91259
▁regular	-9.91475
▁stations	-9.91499
▁killings	-9.91504
▁forum	-9.91525
▁extended	-9.91548
▁ally	-9.91581
▁roads	-9.91596
▁exports	-9.91746
▁movies	-9.91763
▁maca	-9.91777
▁advantage	-9.91791
▁casualties	-9.91794
▁berlin	-9.91796
▁gunmen	-9.91798
▁nbc	-9.91841
▁danger	-9.91843
▁catch	-9.91857
▁champion	-9.91877
▁upon	-9.91905
▁organizers	-9.91957
▁aboard	-9.92042
▁cents	-9.92112
▁manch	-9.92153
ner	-9.92233
▁none	-9.92319
▁lay	-9.92427
▁mile	-9.9247
▁aide	-9.9252
▁limited	-9.92555
▁reporter	-9.92615
▁calm	-9.92776
▁coup	-9.92785
▁kingdom	-9.92845
▁plot	-9.92865
▁walked	-9.92865
▁ranking	-9.92895
▁pilot	-9.9296
▁appointed	-9.9305
▁100000	-9.93057
▁cited	-9.93096
▁resign	-9.93188
▁65	-9.93509
▁watching	-9.93718
▁venezuela	-9.93735
it	-9.93895
▁anonymity	-9.93907
▁sydney	-9.93907
▁unemployment	-9.93908
▁lady	-9.93911
▁cheney	-9.93912
▁princess	-9.9393
▁detention	-9.93943
▁commitment	-9.94012
▁weapon	-9.94013
▁heading	-9.94037
▁recovery	-9.9409
▁standard	-9.94125
▁survivors	-9.94205
▁strongly	-9.9425
▁edge	-9.94302
▁lake	-9.94378
▁clearly	-9.94411
▁landing	-9.94516
▁prepar	-9.9461
▁maker	-9.9462
▁guards	-9.94756
▁iraqis	-9.94789
rew	-9.94843
▁standards	-9.94869
▁th	-9.94884
▁dark	-9.9494
▁smoking	-9.94982
▁mohammed	-9.94983
▁simple	-9.94983
▁entertainment	-9.94983
▁diego	-9.94987
▁bought	-9.95012
▁strain	-9.95014
▁task	-9.95067
▁visa	-9.95082
▁johnson	-9.95089
▁sister	-9.95104
▁narrow	-9.95174
▁agent	-9.95194
▁3000	-9.95241
▁gets	-9.95325
▁fly	-9.95329
▁revealed	-9.95453
▁dong	-9.95582
▁worse	-9.95754
▁benefits	-9.95789
▁muslims	-9.9599
▁toys	-9.96025
▁widespread	-9.96069
▁easy	-9.9607
▁technical	-9.9607
▁buried	-9.9607
▁tomorrow	-9.9607
▁hilton	-9.9607
▁nadal	-9.96076
▁else	-9.9608
▁engag	-9.96109
▁example	-9.96165
▁electronic	-9.96183
▁license	-9.96216
ling	-9.96225
▁sport	-9.96289
▁describe	-9.96305
▁weekly	-9.96343
▁10000	-9.96372
▁contest	-9.96419
▁wolf	-9.96652
▁ang	-9.96853
▁equal	-9.96865
▁die	-9.97053
▁te	-9.97053
▁sit	-9.97101
▁negative	-9.97168
▁potter	-9.97169
▁delta	-9.97171
▁destruction	-9.97174
▁electora	-9.97178
ta	-9.97186
▁cutting	-9.97191
▁monks	-9.97239
▁catholic	-9.97295
▁passenger	-9.97316
▁color	-9.97328
▁j	-9.97389
▁mount	-9.97401
▁newspapers	-9.97413
▁suit	-9.97426
dai	-9.97517
▁insisted	-9.97561
▁creat	-9.97801
▁split	-9.97865
way	-9.97933
▁awards	-9.98134
▁agree	-9.98196
▁simply	-9.98279
▁canadian	-9.98279
▁agenda	-9.98281
▁debut	-9.98282
▁renew	-9.98282
▁electricity	-9.98286
▁mention	-9.98292
▁lowest	-9.9835
▁continuing	-9.9838
▁resources	-9.98448
▁document	-9.98467
▁extend	-9.98539
ional	-9.98564
▁eyes	-9.98602
▁acknowledged	-9.98619
▁alexand	-9.98633
▁governments	-9.98798
▁mad	-9.98873
▁tear	-9.98884
▁patrol	-9.98908
▁quick	-9.99004
▁bureau	-9.99131
▁strip	-9.9921
▁malaysia	-9.99254
▁woo	-9.99299
▁jersey	-9.99403
▁thomas	-9.99403
▁begun	-9.99405
▁unclear	-9.99405
▁soccer	-9.99409
▁apology	-9.99419
▁tested	-9.99465
▁trapped	-9.99536
▁percentage	-9.99536
▁choose	-9.99545
▁medicine	-9.9956
▁mr	-9.99608
▁drinking	-9.9986
▁rooms	-9.99937
▁triggered	-10.0001
▁era	-10.0032
▁investigate	-10.0032
▁judges	-10.0048
ma	-10.0049
▁decline	-10.0049
▁chelsea	-10.0054
▁ukraine	-10.0054
▁liverpool	-10.0054
▁2010	-10.0055
▁valley	-10.0055
▁plus	-10.0057
▁restrictions	-10.0066
▁auction	-10.0069
▁motor	-10.0072
▁generation	-10.0081
▁koreas	-10.0107
▁landed	-10.0109
▁loans	-10.0116
▁link	-10.0118
▁communications	-10.0136
▁learned	-10.0137
ious	-10.014
▁birds	-10.0143
ier	-10.0155
▁enemy	-10.0169
▁nature	-10.0169
▁conspiracy	-10.0169
▁overnight	-10.0169
▁atlanta	-10.0171
▁basis	-10.0172
▁trail	-10.018
▁indiana	-10.0185
▁attended	-10.0186
▁dream	-10.0189
▁grow	-10.019
▁cultur	-10.0195
▁debt	-10.0197
▁assets	-10.0202
▁wait	-10.0211
▁fill	-10.0244
▁differences	-10.0246
▁successful	-10.0253
▁surface	-10.0263
▁discussed	-10.0272
ha	-10.0273
ca	-10.028
▁unusual	-10.0285
▁closing	-10.0285
▁standoff	-10.0286
▁yongbyon	-10.0286
▁rescuers	-10.0286
▁diamond	-10.0287
▁legislation	-10.0287
▁burned	-10.0288
▁writing	-10.0291
producing	-10.0292
▁exit	-10.0302
▁en	-10.0302
▁lawsuit	-10.0303
▁favorite	-10.0305
▁tourist	-10.0309
▁regulations	-10.031
▁deployed	-10.0316
▁fewer	-10.0329
▁listen	-10.0332
▁exist	-10.0334
▁offering	-10.0335
▁targets	-10.0336
▁46	-10.0342
▁respond	-10.0366
▁humans	-10.0372
▁di	-10.0379
▁gains	-10.0389
▁marked	-10.039
no	-10.0395
▁frank	-10.0401
▁bangkok	-10.0403
▁clinic	-10.0403
▁maryland	-10.0403
▁khan	-10.041
▁pushing	-10.0417
▁wen	-10.0422
▁concluded	-10.0422
▁vessel	-10.0425
▁professional	-10.0431
▁wins	-10.0441
▁provinces	-10.0442
▁warm	-10.0458
▁learn	-10.0465
▁interests	-10.047
▁bi	-10.0475
▁permanent	-10.0488
▁filled	-10.0492
▁reduced	-10.0493
▁planes	-10.0494
▁herself	-10.0522
▁preliminar	-10.0522
▁mccann	-10.0522
▁bilateral	-10.0522
▁dramatic	-10.0522
▁federer	-10.0522
▁proud	-10.0523
▁abdullah	-10.0523
▁lifted	-10.0524
▁shrine	-10.0525
▁frozen	-10.0526
▁hole	-10.0526
▁knows	-10.0527
▁homeland	-10.0529
▁repeated	-10.053
▁slightly	-10.0533
▁advance	-10.0534
▁acting	-10.0535
▁path	-10.0537
▁album	-10.0543
▁suburb	-10.0543
se	-10.0543
▁exercise	-10.0544
▁ticket	-10.0545
▁aides	-10.0548
▁breaking	-10.0548
▁powers	-10.0551
▁thank	-10.0573
▁limit	-10.0582
▁liberal	-10.0595
▁fit	-10.0595
▁organiz	-10.0605
▁teachers	-10.0607
▁wealth	-10.0622
▁remove	-10.0628
▁questioning	-10.0633
▁chances	-10.0637
▁controversy	-10.0642
▁tsunami	-10.0642
▁yellow	-10.0642
▁fayed	-10.0642
▁edition	-10.0643
▁hwang	-10.0643
▁practice	-10.0644
▁pace	-10.0646
▁digital	-10.0647
▁invited	-10.0648
▁inflation	-10.0649
▁rivals	-10.065
▁boats	-10.0651
▁wear	-10.0658
▁recover	-10.0659
▁location	-10.0669
▁inspectors	-10.0675
▁edwards	-10.0676
▁64	-10.0679
▁spy	-10.0683
▁opponents	-10.0687
▁healthy	-10.0694
▁effects	-10.0708
▁ability	-10.0714
▁rail	-10.0714
beth	-10.0728
▁plants	-10.073
▁entering	-10.0735
▁strikes	-10.0737
▁allows	-10.0745
▁runs	-10.0749
▁darfur	-10.0764
▁hezbollah	-10.0764
▁miami	-10.0764
▁radical	-10.0765
▁palin	-10.0766
▁unification	-10.0767
▁kang	-10.0767
▁chrysler	-10.0771
▁subject	-10.0788
▁guns	-10.0797
▁willing	-10.08
▁guy	-10.0802
▁suggests	-10.0813
▁fate	-10.0814
▁min	-10.0819
ory	-10.0821
▁reading	-10.0824
▁shar	-10.0825
▁hub	-10.0828
azir	-10.0847
▁stores	-10.0848
▁focused	-10.0872
▁bird	-10.0882
▁southwest	-10.0884
▁campus	-10.0887
▁journey	-10.0888
▁assist	-10.0889
▁bottom	-10.0891
▁hospitalized	-10.0892
▁firefighters	-10.0897
▁x	-10.0903
▁leads	-10.0906
▁venezuelan	-10.0908
▁arrival	-10.0914
▁sponsor	-10.0915
▁centers	-10.0919
▁refugee	-10.0921
▁materials	-10.0923
▁profile	-10.0941
▁ill	-10.0953
▁recall	-10.0953
▁bottle	-10.0962
▁islands	-10.0963
▁41	-10.0979
▁39	-10.0984
v	-10.0993
▁boom	-10.1003
▁lama	-10.1009
▁falling	-10.1009
▁strength	-10.1011
▁convoy	-10.1013
▁yonhap	-10.1013
▁pretty	-10.1013
▁gulf	-10.1014
▁drew	-10.1016
▁retired	-10.1017
▁fallen	-10.1018
▁emissions	-10.1024
▁seconds	-10.1035
▁presented	-10.1036
▁cleric	-10.1039
▁62	-10.1041
▁outbreak	-10.1042
▁rockets	-10.1058
▁boys	-10.1061
▁failing	-10.1063
ting	-10.1077
▁flooding	-10.1083
▁hospitals	-10.1092
▁pop	-10.1096
▁options	-10.11
▁beating	-10.1101
ov	-10.1126
▁desert	-10.113
▁ka	-10.1133
▁northwest	-10.1137
▁captain	-10.1139
▁youtube	-10.1139
▁shopping	-10.114
▁gunman	-10.1143
▁formed	-10.115
dalai	-10.1151
▁palm	-10.1153
▁findings	-10.1156
▁larger	-10.1161
▁zealand	-10.1162
▁yang	-10.1165
▁restaurant	-10.1171
▁sector	-10.1171
▁expert	-10.1171
rs	-10.1172
▁repeatedly	-10.1174
▁predicted	-10.1181
▁54	-10.1186
▁roman	-10.1186
▁holy	-10.1187
▁delivery	-10.1192
▁osam	-10.1192
▁lying	-10.1203
▁neighbors	-10.1212
ad	-10.1217
▁sony	-10.1235
▁truth	-10.1238
▁resigned	-10.1246
▁tim	-10.125
▁800	-10.1255
▁mars	-10.126
▁riot	-10.1261
▁invest	-10.1266
▁warnings	-10.1267
▁gasoline	-10.1268
▁innocent	-10.1268
▁neither	-10.1268
▁immigration	-10.1268
▁compete	-10.1268
▁vacation	-10.1268
▁colorado	-10.1268
▁girlfriend	-10.1268
▁older	-10.128
ept	-10.1284
▁celebrate	-10.1297
▁corner	-10.1299
▁gap	-10.1299
▁benefit	-10.1301
▁label	-10.1303
▁tree	-10.1305
▁temperatures	-10.1311
▁featur	-10.1318
▁requested	-10.1346
▁staying	-10.1355
▁accus	-10.1356
▁sean	-10.136
▁escape	-10.1377
▁61	-10.1378
▁trains	-10.1389
ant	-10.1393
▁drove	-10.1397
▁vatican	-10.1397
▁vladimir	-10.1397
▁boston	-10.1398
▁stability	-10.1398
▁atmosphere	-10.1399
▁couples	-10.1403
▁erupted	-10.1405
▁boe	-10.1411
▁destroy	-10.1417
▁testing	-10.1419
▁escaped	-10.1421
▁compound	-10.143
▁degree	-10.1432
▁farm	-10.1434
▁patient	-10.1435
▁aids	-10.1441
▁enjoy	-10.1442
▁remember	-10.1443
▁changing	-10.1448
▁individuals	-10.1487
ard	-10.1488
▁supported	-10.1497
▁offers	-10.15
▁ideas	-10.1501
▁electric	-10.1514
▁grave	-10.1516
▁length	-10.1527
▁knowledge	-10.1529
▁argentina	-10.1529
▁enforcement	-10.1529
▁scott	-10.1529
▁sarah	-10.1529
▁reporting	-10.1531
▁islamist	-10.1532
▁reality	-10.1533
▁grew	-10.1533
▁import	-10.1541
▁prospect	-10.1542
▁fires	-10.1547
▁kyo	-10.1547
▁reflect	-10.1564
▁producer	-10.1571
▁younger	-10.1575
▁survived	-10.1576
▁weak	-10.158
sen	-10.1581
▁68	-10.1588
▁lock	-10.1594
▁pursu	-10.1601
ez	-10.1603
▁friendly	-10.161
tiny	-10.1612
▁kick	-10.1618
▁shock	-10.162
▁fatal	-10.1622
▁recovered	-10.1623
▁jailed	-10.1625
ism	-10.1639
▁thanks	-10.164
▁abc	-10.1643
▁banking	-10.166
▁scotland	-10.1662
▁wildlife	-10.1662
▁madeleine	-10.1663
▁ultimate	-10.1663
▁drivers	-10.1663
▁bigger	-10.1664
▁vast	-10.1664
▁1994	-10.1664
▁ar	-10.1664
▁inches	-10.1667
▁atlantic	-10.1668
▁funding	-10.1668
▁fox	-10.1673
▁observers	-10.1675
▁estimate	-10.168
zo	-10.1692
▁knee	-10.1698
▁wedding	-10.1699
▁globe	-10.1699
▁astronaut	-10.1701
▁communication	-10.1701
▁63	-10.1709
▁accord	-10.171
▁earned	-10.1712
▁flames	-10.1717
ural	-10.1717
▁signal	-10.1722
▁treat	-10.1724
upper	-10.1725
▁mate	-10.1726
ol	-10.1731
ehud	-10.1745
▁adults	-10.1746
▁astronauts	-10.1759
▁responded	-10.1761
▁rang	-10.1764
▁restaurants	-10.1764
▁pose	-10.1767
nd	-10.1775
▁typical	-10.1798
▁connect	-10.1798
▁jesus	-10.1799
itting	-10.1803
▁expectations	-10.1817
▁ja	-10.1819
▁tied	-10.1833
▁counterpart	-10.1836
▁reduction	-10.1837
▁teacher	-10.1839
▁runner	-10.1844
▁managed	-10.1848
▁messages	-10.1853
▁indonesian	-10.1865
▁bond	-10.1872
ong	-10.1881
▁add	-10.1896
▁stretch	-10.1901
▁20000	-10.1902
▁col	-10.1913
▁promot	-10.1925
▁closely	-10.1925
▁disarmament	-10.1934
▁knock	-10.1934
▁plastic	-10.1934
▁eliza	-10.1935
▁delhi	-10.1935
▁numer	-10.1935
▁beef	-10.1948
et	-10.1948
▁matches	-10.1951
▁broadcasting	-10.1956
▁pirates	-10.1961
▁helicopters	-10.1966
▁artist	-10.1967
▁deployment	-10.197
▁affiliate	-10.1974
▁hundred	-10.1977
▁suspend	-10.1987
▁philippines	-10.1992
▁option	-10.2
ah	-10.2009
▁papers	-10.2014
▁reforms	-10.2016
by	-10.202
▁par	-10.2021
▁skin	-10.2036
▁firms	-10.2036
▁maxim	-10.2046
▁orders	-10.205
▁statements	-10.2056
▁serbia	-10.2059
▁58	-10.207
▁publicly	-10.207
▁abdul	-10.2073
▁petraeus	-10.2073
▁pregnant	-10.2073
▁barcelona	-10.2073
▁memory	-10.2073
▁birthday	-10.2074
▁squad	-10.2074
▁duty	-10.2074
▁lights	-10.2076
▁neck	-10.2077
▁established	-10.2079
pped	-10.2079
▁surrounded	-10.2085
▁250	-10.2088
▁ones	-10.2089
▁divided	-10.2095
▁introduced	-10.2097
▁lab	-10.2098
▁individual	-10.2117
▁sort	-10.2119
▁firing	-10.212
▁machine	-10.2127
▁unity	-10.2131
w	-10.2132
▁gore	-10.214
▁jim	-10.214
▁corps	-10.2152
▁gathering	-10.2165
▁dis	-10.2169
ba	-10.2174
raising	-10.2179
▁contests	-10.2197
▁direction	-10.2201
▁shanghai	-10.2214
▁surrender	-10.2214
▁jordan	-10.2214
▁federation	-10.2214
▁buddhist	-10.2214
▁punishment	-10.2215
▁stories	-10.2215
▁stole	-10.2215
▁brazilian	-10.2217
▁blocked	-10.2217
▁regions	-10.2219
▁beaten	-10.222
▁stepp	-10.2233
▁views	-10.2235
▁positions	-10.2239
▁shared	-10.2239
▁flag	-10.224
▁counts	-10.2242
▁fan	-10.2251
▁stronger	-10.2254
▁representative	-10.2261
▁ride	-10.227
ak	-10.2272
▁adopted	-10.2282
▁accounts	-10.2299
da	-10.2317
▁feeling	-10.2324
▁moderate	-10.2326
▁illegally	-10.2326
▁participate	-10.2336
field	-10.2345
▁civi	-10.2346
▁apologize	-10.235
cy	-10.2352
▁televis	-10.2356
▁49	-10.2356
▁ahmadinejad	-10.2357
▁ghazni	-10.2357
▁rallies	-10.2357
▁michel	-10.2357
▁routine	-10.2357
▁arsenal	-10.2357
▁uh	-10.2366
▁jew	-10.2367
▁marks	-10.2374
▁30000	-10.238
▁infected	-10.2381
▁challenges	-10.2394
▁championship	-10.2405
▁difference	-10.2405
▁villages	-10.2413
▁abandon	-10.2415
▁registered	-10.2416
▁wood	-10.2434
▁character	-10.2436
evin	-10.2437
▁note	-10.2439
▁dur	-10.2446
▁trees	-10.2465
▁expand	-10.2471
▁threaten	-10.248
▁lt	-10.2489
▁hampshire	-10.2502
▁jakarta	-10.2502
▁hawaii	-10.2502
▁primaries	-10.2502
▁morgan	-10.2502
▁watchdog	-10.2502
▁basra	-10.2502
▁strict	-10.2502
▁enrichment	-10.2502
▁peak	-10.2503
▁2012	-10.2503
▁kerry	-10.2506
▁sensitive	-10.2507
▁successor	-10.251
▁veto	-10.2514
▁hail	-10.2524
▁striker	-10.2533
ter	-10.2537
▁colleagues	-10.2544
▁economist	-10.2552
▁sharply	-10.2552
▁scientist	-10.2553
▁highlight	-10.2555
▁bell	-10.256
▁engineers	-10.2568
▁monitoring	-10.2576
▁metal	-10.2584
▁slow	-10.2592
▁commit	-10.2597
▁metropoli	-10.2598
rd	-10.2609
▁hunt	-10.2613
▁effective	-10.2618
mi	-10.262
▁somali	-10.2623
▁recorded	-10.2625
▁bob	-10.2635
▁farc	-10.2642
▁cease	-10.2649
▁capacity	-10.2649
▁manhattan	-10.2649
▁reagan	-10.2649
▁scientific	-10.2649
▁disappointed	-10.265
▁text	-10.2651
▁stance	-10.2651
▁mph	-10.2652
▁comedy	-10.2652
▁patrick	-10.2654
▁expensive	-10.2655
▁abducted	-10.266
▁unlikely	-10.267
▁crowds	-10.2676
ney	-10.2691
▁bo	-10.2694
▁alternative	-10.2699
▁demonstration	-10.2702
▁violation	-10.2702
▁string	-10.2714
▁deeply	-10.2728
▁eating	-10.2732
ical	-10.2733
▁owners	-10.2735
▁floods	-10.2738
the	-10.2742
▁u	-10.2746
▁sets	-10.2752
bbed	-10.2758
▁ca	-10.2768
▁photo	-10.2772
▁cleared	-10.2776
▁stressed	-10.2777
▁purchase	-10.2778
▁maj	-10.2785
go	-10.2786
▁fa	-10.2787
▁boss	-10.2795
▁worker	-10.2795
▁columbia	-10.2798
▁manufacturing	-10.2798
▁midnight	-10.2798
▁moham	-10.2799
▁switch	-10.2799
▁everybody	-10.28
▁caucuses	-10.28
▁portugal	-10.2803
▁capable	-10.2807
▁waste	-10.2808
▁cool	-10.2809
led	-10.2809
▁chosen	-10.2809
▁fame	-10.2813
▁chile	-10.2821
▁begins	-10.2826
▁arrive	-10.2828
▁bombers	-10.2831
▁bowl	-10.2836
▁acts	-10.2841
▁bound	-10.2843
▁understanding	-10.2844
▁comfort	-10.2846
▁initiative	-10.2849
▁mortgage	-10.2851
▁warrant	-10.2877
▁features	-10.2889
▁loved	-10.2891
▁briefing	-10.2906
▁sam	-10.2906
owitz	-10.2924
▁causes	-10.2943
▁cyclone	-10.295
▁dispatch	-10.295
▁funeral	-10.295
▁intense	-10.295
▁surveillance	-10.295
▁operator	-10.295
▁dinner	-10.295
▁harsh	-10.295
▁mental	-10.2951
▁1996	-10.2952
▁egyptian	-10.2952
▁congo	-10.2954
▁ronaldo	-10.2955
▁detonated	-10.2956
▁circumstances	-10.2956
▁deny	-10.2959
▁su	-10.2959
▁faster	-10.2961
▁56	-10.2963
▁bu	-10.2968
▁worried	-10.2969
▁restore	-10.2982
▁grown	-10.2983
▁ordinar	-10.2984
▁oh	-10.2988
▁revolutionar	-10.2994
▁drama	-10.3
▁obtained	-10.3002
▁pump	-10.3003
▁profit	-10.3003
▁militia	-10.3006
▁hiv	-10.3006
▁emerged	-10.3006
▁implement	-10.3015
▁scores	-10.3023
▁design	-10.3037
▁sir	-10.3038
▁spott	-10.3058
▁imports	-10.3061
▁letters	-10.3073
▁airports	-10.3075
olar	-10.3094
▁depend	-10.3097
▁coffee	-10.3104
▁kibaki	-10.3104
▁mexican	-10.3104
▁mississippi	-10.3104
▁whaling	-10.3104
▁entry	-10.3104
▁native	-10.3104
▁supposed	-10.3104
▁crown	-10.3105
▁bitter	-10.3107
▁po	-10.3112
▁ages	-10.3114
▁dominated	-10.3117
aimed	-10.3125
▁factory	-10.3125
▁directed	-10.3125
▁unions	-10.3135
▁sand	-10.3136
▁nominated	-10.3138
▁600	-10.3151
▁guests	-10.3153
▁bail	-10.3157
▁chun	-10.3159
▁diplomat	-10.3162
▁bullet	-10.3162
▁adult	-10.3163
water	-10.3164
ler	-10.3164
▁camps	-10.3165
▁prepare	-10.3166
▁engineering	-10.3167
▁discussion	-10.3167
▁intend	-10.3174
▁rescued	-10.3184
▁moves	-10.3186
▁stands	-10.3209
▁margin	-10.3211
▁videos	-10.3217
▁steven	-10.323
lin	-10.3246
▁bright	-10.3256
▁blagojevich	-10.326
▁breakthrough	-10.326
▁debris	-10.326
▁multiple	-10.326
▁henry	-10.326
▁false	-10.326
▁charity	-10.3262
▁superdelegates	-10.3271
▁apologiz	-10.3273
▁ji	-10.3275
▁joe	-10.328
▁rapidly	-10.3282
▁pos	-10.3304
▁citizen	-10.3322
▁theater	-10.3322
▁section	-10.3325
ological	-10.3327
ei	-10.3333
▁replaced	-10.3335
▁leaves	-10.3338
▁chemical	-10.3338
▁et	-10.334
▁accuse	-10.3342
▁meaning	-10.3346
▁ha	-10.3348
▁sustain	-10.3367
▁resident	-10.3374
▁teen	-10.3397
▁aware	-10.3398
▁welcom	-10.34
▁recognize	-10.3412
▁disney	-10.3418
▁benedict	-10.3419
▁commerce	-10.3419
▁identity	-10.3419
▁iaea	-10.3419
▁battling	-10.3419
▁nasdaq	-10.3419
▁gross	-10.3419
▁concrete	-10.3419
▁occupation	-10.3419
▁aren	-10.3422
▁glass	-10.3422
▁agriculture	-10.3425
▁devices	-10.3429
▁participants	-10.343
▁castro	-10.3432
▁chong	-10.3445
▁musical	-10.3446
▁eat	-10.345
▁talked	-10.3458
▁jo	-10.3466
▁factor	-10.3466
▁towns	-10.3468
▁flood	-10.3468
▁120	-10.3477
▁sick	-10.3479
▁collection	-10.3483
▁hopeful	-10.3484
▁diet	-10.349
▁dealing	-10.3491
▁pursue	-10.3492
ford	-10.3493
▁trigger	-10.3493
▁shops	-10.3515
▁shop	-10.3523
▁pc	-10.3531
▁ends	-10.3534
▁tend	-10.3537
▁hills	-10.3537
ors	-10.355
▁fun	-10.3555
▁tradition	-10.3556
▁divorce	-10.3558
▁succeed	-10.3558
▁historical	-10.3558
▁conservation	-10.3561
▁hotels	-10.3563
▁capture	-10.3564
▁balance	-10.3578
▁greece	-10.358
▁poverty	-10.358
▁tobacco	-10.358
▁verdict	-10.358
▁benchmark	-10.358
▁depression	-10.358
▁underground	-10.358
▁unknown	-10.358
▁fierce	-10.358
▁confident	-10.3581
▁faith	-10.3582
▁urban	-10.3583
▁1950	-10.3583
▁1991	-10.3583
▁apply	-10.3584
▁1995	-10.3584
▁mainland	-10.3585
▁chad	-10.3599
▁vi	-10.3603
▁sri	-10.3612
▁complained	-10.3621
▁schedule	-10.3621
▁survive	-10.3623
▁explain	-10.363
▁ford	-10.3632
▁gul	-10.364
▁normally	-10.3642
▁distance	-10.3642
▁error	-10.3645
▁explosive	-10.3647
▁parent	-10.3648
▁feared	-10.3665
▁59	-10.367
▁yi	-10.3674
▁brothers	-10.3675
▁jon	-10.3682
▁aged	-10.3697
▁sh	-10.3697
▁inspir	-10.3711
▁thinking	-10.3714
▁nam	-10.3721
▁fields	-10.373
▁leak	-10.3732
▁easi	-10.3737
▁makers	-10.3743
▁category	-10.3744
▁stimulus	-10.3744
▁phoenix	-10.3744
▁airbus	-10.3744
▁communities	-10.3744
▁testimony	-10.3744
▁motion	-10.3745
▁overwhelming	-10.3748
▁twin	-10.3751
▁steel	-10.376
▁partners	-10.3764
▁cameras	-10.3773
▁somalia	-10.3774
quo	-10.3781
▁authorized	-10.3783
▁pr	-10.3785
▁paint	-10.3786
▁file	-10.3793
▁chris	-10.3796
▁barr	-10.3796
▁corporation	-10.3812
▁shelter	-10.3813
▁window	-10.3814
▁write	-10.3816
▁sung	-10.3818
▁condemn	-10.3823
▁argued	-10.3831
▁hang	-10.3852
▁tall	-10.3854
ron	-10.3858
▁bills	-10.3866
▁slipp	-10.3873
▁classic	-10.388
▁denounc	-10.3881
▁links	-10.3884
▁crack	-10.3886
▁austria	-10.3894
▁handle	-10.3895
▁fix	-10.3902
▁retail	-10.3903
▁czech	-10.391
▁joseph	-10.391
▁plutonium	-10.391
▁striking	-10.3911
▁reconciliation	-10.3911
▁clark	-10.3911
▁stern	-10.3911
▁sheikh	-10.3911
▁sweep	-10.3912
▁cargo	-10.3915
▁pitt	-10.3915
▁bolt	-10.3918
▁rebuild	-10.3919
▁66	-10.3928
▁toxic	-10.3936
▁substantial	-10.3941
▁investigations	-10.3951
▁peru	-10.3951
▁tak	-10.3952
ll	-10.3953
▁decisions	-10.3954
▁carlo	-10.3957
▁sons	-10.3959
▁specialist	-10.3962
▁pitch	-10.3968
ka	-10.3974
▁temple	-10.3981
▁runway	-10.3984
▁chain	-10.3985
▁bags	-10.4001
▁violated	-10.4001
▁stephen	-10.401
▁dick	-10.4019
▁mi	-10.4025
▁wor	-10.4028
liest	-10.4032
io	-10.4053
j	-10.4059
▁larr	-10.4064
▁worrie	-10.4069
▁pkk	-10.408
▁legend	-10.408
▁boyfriend	-10.408
▁typhoon	-10.408
▁otherwise	-10.4081
▁petition	-10.4081
▁negotiators	-10.4082
▁ray	-10.4082
▁familiar	-10.4085
▁tackle	-10.4088
▁transferred	-10.4091
▁yong	-10.4094
▁reference	-10.4103
▁attending	-10.4106
▁ski	-10.4118
▁payments	-10.4126
▁coordinat	-10.4133
▁busy	-10.4143
▁cloud	-10.4154
▁wonder	-10.416
ted	-10.4162
▁contained	-10.4173
▁marines	-10.4177
▁degrees	-10.4207
▁locations	-10.4217
▁solve	-10.4231
▁fishing	-10.4232
▁cave	-10.4242
▁celebrity	-10.4252
▁compensation	-10.4252
▁privacy	-10.4252
▁referendum	-10.4252
▁tennessee	-10.4252
▁administrative	-10.4252
▁swiss	-10.4252
▁romney	-10.4252
▁relocation	-10.4253
▁priority	-10.4253
▁1960	-10.4254
▁1993	-10.4256
▁feature	-10.4256
▁vital	-10.4257
▁mouth	-10.4259
▁announc	-10.426
▁dust	-10.426
▁absolutely	-10.4263
▁defendants	-10.4282
▁jae	-10.4291
▁hitt	-10.4293
ng	-10.4294
▁doors	-10.4296
▁newly	-10.4299
▁institutions	-10.4301
▁ryan	-10.4304
der	-10.4314
▁genetic	-10.4315
▁kid	-10.4316
▁pan	-10.432
▁monitor	-10.4329
▁tiger	-10.433
▁4000	-10.4349
▁shots	-10.4353
▁sang	-10.4355
▁alex	-10.4375
▁responding	-10.4385
▁turki	-10.439
▁shoot	-10.4402
▁electronics	-10.4407
▁achieve	-10.4412
▁except	-10.4418
ny	-10.4419
▁ronald	-10.4422
▁afford	-10.4425
▁aggressive	-10.4428
▁erdogan	-10.4428
▁sentiment	-10.4428
▁temporary	-10.4428
▁uefa	-10.4428
▁odinga	-10.4428
▁receiving	-10.4428
▁gambari	-10.4428
▁float	-10.4429
▁baseball	-10.4429
▁zero	-10.4429
▁rio	-10.4429
▁turnout	-10.443
▁hug	-10.4433
▁essential	-10.4433
▁slamm	-10.4434
▁carter	-10.4435
▁pet	-10.444
▁kate	-10.4441
▁soo	-10.4442
▁combined	-10.4446
il	-10.4447
dy	-10.4447
▁increases	-10.445
▁cha	-10.4451
▁appropriate	-10.4452
▁outrage	-10.4452
▁urge	-10.4455
▁paulo	-10.4459
▁stable	-10.4461
nancy	-10.4463
▁mary	-10.4463
ville	-10.4471
▁130	-10.4473
▁improved	-10.4475
▁advanced	-10.4479
▁operate	-10.4487
▁oldest	-10.4487
▁borders	-10.449
▁golf	-10.4491
▁mistake	-10.4494
▁engine	-10.4499
▁writers	-10.4504
▁editor	-10.4505
▁appointment	-10.4506
▁veteran	-10.4509
▁greet	-10.4513
▁loan	-10.4514
▁bases	-10.452
▁uses	-10.4525
▁teens	-10.4536
ok	-10.4557
▁bag	-10.4564
▁sole	-10.4567
▁structure	-10.4581
▁libya	-10.459
▁jack	-10.4603
▁mumbai	-10.4606
▁switzerland	-10.4606
▁rifle	-10.4606
▁antonio	-10.4606
▁athens	-10.4607
▁breach	-10.4607
▁assessment	-10.4608
▁poland	-10.4608
▁1992	-10.4609
▁negotiate	-10.4611
erry	-10.4611
▁networks	-10.4612
▁promotion	-10.4613
▁soil	-10.4615
▁ch	-10.4619
▁isolated	-10.4619
▁raids	-10.462
▁yen	-10.4624
▁athletes	-10.4625
handling	-10.4625
▁advertising	-10.4627
▁apart	-10.464
▁storms	-10.4643
▁stag	-10.4644
▁mac	-10.4646
▁saved	-10.4655
▁barrels	-10.4657
▁revolution	-10.4664
▁oppose	-10.4671
mo	-10.4682
▁rafa	-10.4689
▁mal	-10.4691
▁carrier	-10.4691
▁purpose	-10.4691
▁household	-10.4691
▁delegate	-10.4692
▁beer	-10.4696
▁settlement	-10.4699
▁adopt	-10.47
▁cable	-10.4705
een	-10.4707
▁campaigning	-10.4714
▁profits	-10.472
que	-10.4735
▁legislati	-10.4743
▁rep	-10.4745
▁1500	-10.4756
▁virgin	-10.4776
▁chiefs	-10.4781
▁lobby	-10.4788
▁amnesty	-10.4788
▁pelosi	-10.4788
▁retain	-10.4788
▁mccormack	-10.4788
▁advice	-10.4788
▁roger	-10.4788
▁donald	-10.4788
▁sovereignty	-10.4788
▁clock	-10.4788
▁unrest	-10.4789
▁timor	-10.4791
▁slump	-10.4794
▁stroke	-10.4794
▁fleet	-10.4794
▁clothes	-10.4796
▁villagers	-10.4797
▁copy	-10.4798
▁nowak	-10.4798
▁phase	-10.4799
▁tsv	-10.4801
▁endangered	-10.4802
▁chest	-10.4806
▁moore	-10.4809
▁violat	-10.4812
▁disappeared	-10.4813
▁villa	-10.4816
forced	-10.4819
▁fat	-10.4819
▁ousted	-10.4819
▁banner	-10.4826
▁wounds	-10.4829
▁gonzales	-10.4832
ni	-10.4837
▁associate	-10.4846
▁69	-10.4852
▁shortages	-10.4852
▁mixed	-10.4853
▁ni	-10.4866
▁plays	-10.4868
▁gallon	-10.4875
▁rod	-10.4876
▁thousand	-10.4877
▁complaint	-10.4879
▁dump	-10.4883
▁founded	-10.4891
▁wish	-10.4892
▁ga	-10.4906
bo	-10.4919
▁v	-10.492
▁che	-10.4923
▁nav	-10.4937
▁shootings	-10.4939
li	-10.4945
▁bangladesh	-10.495
▁agents	-10.4953
▁settle	-10.4954
▁torture	-10.4954
▁noted	-10.4957
▁pat	-10.4965
▁legs	-10.4971
▁spill	-10.4973
▁dictator	-10.4973
▁capitol	-10.4973
▁detroit	-10.4973
▁welfare	-10.4973
▁improving	-10.4973
▁darwin	-10.4973
▁mohammad	-10.4973
▁beauty	-10.4973
▁ireland	-10.4973
▁submit	-10.4974
▁orange	-10.4974
▁pollution	-10.4974
▁hamid	-10.4974
▁submitted	-10.4974
▁strategic	-10.4974
▁curb	-10.4974
▁huck	-10.4974
▁impose	-10.4974
▁extraordinar	-10.4976
▁ro	-10.4979
▁airways	-10.498
▁easier	-10.4981
▁freeze	-10.4981
▁retailer	-10.4982
▁strengthen	-10.4986
▁miners	-10.4986
irai	-10.4991
▁troubl	-10.4994
drawn	-10.4996
▁extremists	-10.5007
▁surprised	-10.5014
▁whale	-10.5019
min	-10.5021
▁units	-10.5024
▁successfully	-10.5026
▁volunteers	-10.5028
▁indicat	-10.503
▁seventh	-10.5035
▁syrian	-10.504
▁amounts	-10.5044
▁negotiat	-10.5045
▁chair	-10.5062
▁root	-10.5065
▁tropica	-10.5065
▁wine	-10.5066
▁employee	-10.5066
▁crossed	-10.5069
▁weigh	-10.5073
▁dry	-10.5077
▁weaken	-10.5077
▁appealed	-10.508
▁85	-10.508
▁deals	-10.5086
▁brun	-10.5089
▁producers	-10.5111
▁ge	-10.5116
▁walls	-10.5128
▁missed	-10.5131
▁motors	-10.5132
▁controls	-10.5134
▁del	-10.5135
▁lanka	-10.5145
▁feed	-10.5147
ko	-10.5149
▁confrontation	-10.5155
▁portug	-10.5156
▁illness	-10.5159
▁argue	-10.5161
▁ambush	-10.5162
▁exposure	-10.5162
▁netherlands	-10.5162
▁philadelphia	-10.5162
▁twenty	-10.5162
▁securities	-10.5162
▁summon	-10.5162
▁seattle	-10.5162
▁impossible	-10.5162
▁greenhouse	-10.5163
▁sweet	-10.5163
▁copies	-10.5164
▁pointed	-10.5164
▁variety	-10.5164
▁runoff	-10.5165
▁documentary	-10.5165
▁wireless	-10.5165
▁davis	-10.5166
▁incidents	-10.5168
▁thin	-10.5174
▁lin	-10.5177
▁eighth	-10.5179
▁convert	-10.5183
▁portion	-10.5184
▁accusations	-10.5191
▁samples	-10.5192
▁mor	-10.5198
▁50000	-10.5205
▁values	-10.5208
▁detected	-10.521
▁pleaded	-10.5213
▁worsen	-10.5218
▁guarantee	-10.5234
▁declare	-10.5239
▁photographs	-10.5252
▁revenue	-10.5256
▁politician	-10.5258
▁bed	-10.5259
▁react	-10.526
▁complaints	-10.5262
▁actors	-10.5266
sa	-10.5268
▁print	-10.5274
▁trained	-10.5285
▁economists	-10.5288
▁km	-10.529
▁arrests	-10.5291
▁recalled	-10.5294
▁brutal	-10.5299
▁chi	-10.5301
▁starr	-10.5307
▁provides	-10.5319
▁mer	-10.5324
▁flat	-10.5349
▁eve	-10.5354
▁elsewhere	-10.5354
▁orleans	-10.5354
▁swimming	-10.5354
▁bankruptcy	-10.5355
▁centre	-10.5356
▁95	-10.5357
q	-10.5357
▁popularity	-10.5358
▁dawn	-10.5359
berg	-10.5359
▁classified	-10.5366
▁executed	-10.5371
▁intention	-10.5373
▁convince	-10.5379
▁hasn	-10.5384
▁informed	-10.5384
▁sailors	-10.5388
▁dean	-10.539
▁approached	-10.5405
▁core	-10.5413
▁concept	-10.5413
▁attorneys	-10.5423
▁rough	-10.5431
▁turns	-10.5443
▁ac	-10.5446
▁contribute	-10.5447
▁trend	-10.5451
▁spirit	-10.5451
▁whales	-10.5455
▁5000	-10.5456
▁tension	-10.5457
▁recruit	-10.5457
▁clash	-10.546
▁backing	-10.5461
▁nak	-10.5469
▁abandoned	-10.5471
▁wal	-10.5473
fer	-10.5484
▁tie	-10.5485
▁learning	-10.5504
ichuan	-10.5515
▁kuwait	-10.5537
ck	-10.5548
▁arriving	-10.555
▁giuliani	-10.555
▁minimum	-10.555
▁missouri	-10.555
▁testify	-10.555
▁wimbledon	-10.555
▁anchor	-10.5551
▁merkel	-10.5551
▁panama	-10.5551
▁inauguration	-10.5551
▁spacecraft	-10.5551
▁chaos	-10.5551
▁stuff	-10.5551
▁timetable	-10.5553
▁richardson	-10.5555
▁fever	-10.5555
▁yangon	-10.5556
▁nur	-10.5556
ts	-10.5556
▁map	-10.556
▁reveal	-10.5561
▁feb	-10.5562
▁abus	-10.5563
▁warner	-10.557
▁emotional	-10.557
ul	-10.5577
▁suddenly	-10.5579
▁annan	-10.558
▁trick	-10.558
▁homeless	-10.5582
▁returns	-10.5584
▁laid	-10.5588
▁symbol	-10.5602
line	-10.5608
▁winners	-10.561
▁upset	-10.5621
▁spoken	-10.5626
▁divers	-10.5636
▁euros	-10.5643
▁wrapp	-10.5643
▁81	-10.5644
▁contrast	-10.5646
▁departure	-10.5647
▁attitude	-10.565
▁blaze	-10.5651
▁collect	-10.5652
▁senators	-10.5652
▁experiment	-10.5653
▁conversation	-10.5653
▁purposes	-10.5656
▁flash	-10.566
identified	-10.5662
▁contracts	-10.5662
▁wire	-10.5664
▁broadcaster	-10.5669
▁nice	-10.5675
▁prais	-10.5679
▁lu	-10.5693
▁legally	-10.5701
tic	-10.5712
▁cap	-10.5721
▁undermine	-10.5738
▁engage	-10.5742
▁aside	-10.5743
▁clinch	-10.575
▁consecutive	-10.575
▁murray	-10.575
▁louisiana	-10.5751
▁inquest	-10.5751
▁greek	-10.5751
hdi	-10.5751
▁cloning	-10.5751
▁disappearance	-10.5751
▁jerry	-10.5751
▁1989	-10.5752
▁gray	-10.5754
▁torn	-10.5756
▁defending	-10.5757
▁mart	-10.5761
▁proof	-10.5763
▁object	-10.5764
▁maria	-10.5764
▁yoon	-10.5765
abee	-10.5769
▁viewers	-10.5771
▁passing	-10.5783
iya	-10.5787
un	-10.5789
▁injur	-10.5791
▁bars	-10.58
▁youth	-10.5802
▁interested	-10.5812
▁resumed	-10.5813
▁shoes	-10.5815
▁disputed	-10.5816
opec	-10.5821
ut	-10.5828
▁82	-10.5831
▁granted	-10.5835
de	-10.5845
▁residence	-10.5849
▁client	-10.5857
▁worry	-10.586
▁teenager	-10.586
▁crews	-10.5861
▁punish	-10.5866
km	-10.5866
▁jin	-10.5869
▁ron	-10.587
▁violations	-10.5883
▁flags	-10.5889
▁correct	-10.5889
▁vessels	-10.5916
▁polling	-10.5918
▁behalf	-10.5955
▁rumsfeld	-10.5955
▁sharapova	-10.5955
▁technologies	-10.5955
▁spiritual	-10.5955
▁constant	-10.5955
▁landmark	-10.5955
▁hint	-10.5955
▁colonial	-10.5955
▁pending	-10.5955
▁momentum	-10.5958
▁frontier	-10.5961
▁yuan	-10.5963
▁cooperate	-10.5963
▁followers	-10.5964
▁photograph	-10.5968
▁indicted	-10.5968
▁detainees	-10.5972
▁gear	-10.5972
▁waves	-10.5972
▁blasts	-10.5973
▁grant	-10.5978
▁rumors	-10.5984
▁missions	-10.5984
▁investigated	-10.5994
▁addressed	-10.5994
▁posts	-10.5998
▁cards	-10.5999
▁chen	-10.6001
▁icon	-10.6005
▁selected	-10.6008
▁au	-10.6018
▁ta	-10.6021
▁pen	-10.6046
▁shape	-10.6047
▁score	-10.605
50	-10.605
▁equit	-10.6053
hi	-10.6054
▁argu	-10.6054
▁outcome	-10.6058
lie	-10.6062
▁inspection	-10.6066
▁investigator	-10.6066
ehouse	-10.6072
▁continent	-10.6083
▁wheel	-10.6083
▁rocks	-10.6092
▁woods	-10.6093
▁jews	-10.6094
▁mountains	-10.6096
roughly	-10.6098
ju	-10.6108
▁albert	-10.6109
▁tickets	-10.6122
▁rains	-10.6135
▁inch	-10.6135
▁dec	-10.6139
▁latin	-10.6145
▁generate	-10.615
▁prohibit	-10.616
▁prior	-10.6163
▁chapter	-10.6163
▁houston	-10.6163
▁instance	-10.6163
▁ioc	-10.6163
▁ballistic	-10.6163
▁suspicious	-10.6163
▁withdrew	-10.6163
▁powell	-10.6163
▁testified	-10.6164
▁barbara	-10.6164
▁blanket	-10.6164
▁inquiry	-10.6164
▁employment	-10.6164
▁eric	-10.6167
▁thick	-10.617
▁meat	-10.6171
stein	-10.6172
▁happening	-10.6174
▁wales	-10.6177
▁classes	-10.6179
▁opens	-10.6182
▁exposed	-10.6183
▁gm	-10.6184
▁slaves	-10.6185
▁matters	-10.6188
▁malaysian	-10.6191
▁rudd	-10.6196
▁earnings	-10.6199
▁kun	-10.623
▁coal	-10.6235
mar	-10.6242
▁influ	-10.6251
po	-10.6252
▁studying	-10.6254
am	-10.626
▁interviews	-10.6263
▁criminals	-10.6264
body	-10.6266
▁sees	-10.6267
▁releas	-10.6274
▁conclusion	-10.6276
▁seal	-10.6281
wood	-10.6281
▁reduc	-10.6294
ade	-10.6313
▁notice	-10.6315
▁visits	-10.6319
▁moral	-10.6339
▁pilots	-10.6357
▁chose	-10.6363
▁cheap	-10.6369
▁confess	-10.6374
▁secular	-10.6375
▁devastating	-10.6376
▁jintao	-10.6376
▁kansas	-10.6376
▁turmoil	-10.6376
▁universal	-10.6376
▁lahore	-10.6376
▁spray	-10.6376
▁karachi	-10.6376
▁expansion	-10.6376
▁fulfill	-10.6376
▁denies	-10.6376
▁trafficking	-10.6376
▁prominent	-10.6377
▁starts	-10.6378
▁robbery	-10.6379
▁arabic	-10.6381
▁plunged	-10.6388
▁drawing	-10.639
os	-10.6391
▁buses	-10.6393
▁ok	-10.6399
arctic	-10.64
▁clothing	-10.641
▁presumpti	-10.6411
▁shoulder	-10.6412
▁nominations	-10.6416
▁crops	-10.6423
▁statue	-10.6423
▁sao	-10.6447
▁risks	-10.6455
▁bones	-10.646
▁andrew	-10.6467
▁approve	-10.6471
▁trucks	-10.6471
named	-10.6477
▁cow	-10.6483
▁guide	-10.6485
▁tunnel	-10.6491
▁dvd	-10.6494
▁ke	-10.65
▁resolved	-10.6501
▁advisor	-10.6502
▁safely	-10.6504
▁stepping	-10.6504
▁praise	-10.6504
▁shore	-10.6504
▁theme	-10.6506
▁factors	-10.6508
▁tracks	-10.6518
▁characters	-10.652
▁socialist	-10.6527
▁chan	-10.6528
▁kenyan	-10.6529
▁hat	-10.653
▁signals	-10.6531
▁hee	-10.6543
▁prisoner	-10.6546
▁accidents	-10.6554
▁efficient	-10.6558
▁quiet	-10.656
▁meter	-10.6563
▁decid	-10.6568
▁oversee	-10.6569
▁loyal	-10.6577
▁iron	-10.6581
▁revive	-10.6582
▁raided	-10.6585
▁pieces	-10.6587
▁volcano	-10.6588
▁promis	-10.6591
▁celebrities	-10.6593
▁centuries	-10.6593
▁massacre	-10.6593
▁oklahoma	-10.6593
▁respondents	-10.6593
▁taylor	-10.6593
▁unprecedented	-10.6593
▁ecuador	-10.6593
▁hudson	-10.6593
▁tragedy	-10.6593
▁vienna	-10.6593
▁cleveland	-10.6593
▁steady	-10.6593
▁mosul	-10.6593
▁utah	-10.6593
▁industries	-10.6593
▁dropping	-10.6593
▁omar	-10.6595
▁urgent	-10.6595
▁empty	-10.6595
▁louis	-10.6595
▁ibrahim	-10.6596
▁mbc	-10.6596
▁wright	-10.6597
▁warren	-10.6597
▁laboratory	-10.6597
▁telecom	-10.6598
▁monet	-10.6598
▁prevention	-10.6599
▁pour	-10.6599
▁hide	-10.66
▁fake	-10.6601
▁inde	-10.6603
ning	-10.6606
▁proceedings	-10.6607
▁load	-10.6613
▁harm	-10.6614
▁nk	-10.6618
▁delays	-10.6619
▁drink	-10.6625
▁reject	-10.6626
▁models	-10.6634
▁engineer	-10.6637
▁pleased	-10.6637
▁recommended	-10.6637
▁shaped	-10.6638
▁maintained	-10.6639
▁effectively	-10.6642
▁ju	-10.6645
▁dealers	-10.6668
gen	-10.6674
▁rivers	-10.6682
▁masters	-10.6685
▁ms	-10.669
▁objects	-10.6699
▁burst	-10.6714
▁passport	-10.6717
▁studio	-10.6718
▁indication	-10.6718
▁principle	-10.6719
▁execution	-10.6719
▁hunting	-10.6726
▁mar	-10.6729
▁personally	-10.6743
▁conservatives	-10.6744
▁designat	-10.6746
▁adds	-10.6749
▁gate	-10.6761
cal	-10.6762
▁198	-10.6763
▁persuade	-10.677
▁imagine	-10.6778
▁frequent	-10.6782
▁scheme	-10.679
clusive	-10.6791
▁mon	-10.6791
▁marking	-10.6792
▁yemen	-10.6808
▁ahmadi	-10.681
▁luxur	-10.6813
▁ads	-10.6814
▁chirac	-10.6815
▁disorder	-10.6815
▁evolution	-10.6815
▁extensive	-10.6815
▁wisconsin	-10.6815
▁yeltsin	-10.6815
▁lewis	-10.6815
▁pepper	-10.6815
▁cocaine	-10.6815
▁evil	-10.6815
▁rodriguez	-10.6815
▁impeachment	-10.6816
▁amazon	-10.6816
▁unfair	-10.6817
kovic	-10.6817
▁sweden	-10.6819
▁gu	-10.6822
ral	-10.6822
▁hye	-10.6823
▁dragg	-10.6828
▁grass	-10.6829
▁vitamin	-10.683
▁soaring	-10.6831
▁beneath	-10.6832
▁tougher	-10.6834
▁anticipated	-10.6841
▁tomb	-10.6846
▁endorsed	-10.6848
▁carries	-10.6852
▁abuses	-10.6862
▁acres	-10.6863
slated	-10.6865
▁examin	-10.6866
▁fail	-10.6868
nke	-10.6891
che	-10.6892
▁stationed	-10.6892
iest	-10.69
▁sect	-10.6903
▁moments	-10.6912
▁billions	-10.6914
▁philip	-10.6916
▁acknowledge	-10.6917
ship	-10.6918
▁teenagers	-10.6923
▁kitt	-10.6926
▁contribut	-10.6931
▁medal	-10.6936
▁duck	-10.6944
5000	-10.6948
▁writer	-10.6951
▁stick	-10.6957
▁reverse	-10.696
▁dam	-10.696
day	-10.6972
▁geologic	-10.6973
▁cuban	-10.698
▁pool	-10.698
▁sentences	-10.6986
▁prov	-10.6994
▁reiterat	-10.6997
▁launching	-10.7007
▁sudden	-10.7009
▁attribut	-10.7017
▁agreements	-10.7028
▁transform	-10.7033
house	-10.7034
▁beirut	-10.7043
▁extension	-10.7043
▁kentucky	-10.7043
▁koizumi	-10.7043
▁religion	-10.7043
▁tabloid	-10.7043
▁universities	-10.7043
▁outlook	-10.7043
▁stranded	-10.7043
▁sgt	-10.7043
▁entrance	-10.7043
▁economies	-10.7043
▁aviation	-10.7043
▁wreckage	-10.7043
▁permission	-10.7043
▁snake	-10.7043
▁accompani	-10.7043
▁importance	-10.7044
▁consensus	-10.7044
▁idol	-10.7044
▁rowling	-10.7044
▁membership	-10.7045
▁consistent	-10.7046
▁hunger	-10.7046
▁milk	-10.7047
▁displaced	-10.7047
▁creation	-10.7051
▁ambitions	-10.7053
▁concessions	-10.7053
▁legitimate	-10.7054
▁titles	-10.7055
ir	-10.7062
▁wars	-10.7065
ga	-10.7068
▁suggestion	-10.7076
▁crossing	-10.7077
▁repair	-10.7081
▁sight	-10.7081
▁chip	-10.7084
▁gar	-10.7102
25	-10.7105
▁songs	-10.7106
▁plent	-10.711
onna	-10.7117
▁protected	-10.7118
▁chang	-10.7134
▁rapid	-10.7139
▁15000	-10.7139
▁rat	-10.7139
▁clashed	-10.7145
▁marketing	-10.7163
▁earn	-10.7165
▁graduate	-10.717
▁hybrid	-10.7173
ball	-10.7175
▁explosions	-10.7178
▁philippine	-10.7178
▁proceed	-10.7179
dollars	-10.7186
▁master	-10.7196
▁ya	-10.7201
▁yo	-10.7208
nell	-10.7213
off	-10.7216
▁gerr	-10.7217
▁je	-10.7221
▁mounting	-10.723
▁experienc	-10.7235
▁ph	-10.7243
▁unlike	-10.7244
▁proper	-10.7245
▁clip	-10.7256
▁diseases	-10.7258
▁realize	-10.7259
▁nigeria	-10.726
▁touched	-10.7266
▁teenage	-10.7272
▁ambulance	-10.7275
▁galaxy	-10.7275
▁goalkeep	-10.7275
▁impoverished	-10.7275
▁mandatory	-10.7275
▁suspension	-10.7275
▁volume	-10.7275
▁fault	-10.7275
▁overcome	-10.7275
▁slowdown	-10.7275
▁jolie	-10.7276
▁steep	-10.7276
▁insurgency	-10.7276
▁resistance	-10.7276
▁possession	-10.7277
▁heritage	-10.7277
▁fta	-10.7279
▁pardon	-10.7279
▁phil	-10.7281
▁berna	-10.7281
ya	-10.7285
ua	-10.7286
▁advised	-10.7287
▁attached	-10.7289
▁kyu	-10.7289
▁vision	-10.7291
▁elderly	-10.7293
▁consequences	-10.7297
▁campaigns	-10.7301
▁cats	-10.7303
▁frequently	-10.731
▁88	-10.7312
▁pu	-10.7313
▁fi	-10.7316
▁shareholders	-10.7318
▁longest	-10.7324
light	-10.7331
mer	-10.7332
▁signing	-10.7334
▁manufacturers	-10.7334
▁recognized	-10.7338
▁resist	-10.7346
▁angel	-10.7347
▁riding	-10.7348
▁nazi	-10.7355
▁principles	-10.7378
▁lies	-10.7382
▁bang	-10.7382
▁happens	-10.7401
▁deficit	-10.7408
▁140	-10.7409
▁robot	-10.7412
▁railway	-10.7415
▁method	-10.7416
▁flame	-10.7418
▁garden	-10.7419
out	-10.742
▁reward	-10.7422
▁alarm	-10.7424
▁arrang	-10.7424
▁register	-10.7427
▁trips	-10.7431
▁tower	-10.7451
▁40000	-10.7459
▁israelis	-10.7471
▁jobless	-10.7474
▁badly	-10.7482
▁hits	-10.7489
▁commanders	-10.7497
▁yoo	-10.7505
▁pe	-10.7507
judicial	-10.7513
▁enemies	-10.7513
▁everywhere	-10.7513
▁harvard	-10.7513
▁infrastructure	-10.7513
▁medvedev	-10.7513
▁mideast	-10.7513
▁myself	-10.7513
▁peacekeeping	-10.7513
▁penalties	-10.7513
▁pilgrims	-10.7513
▁temporarily	-10.7513
▁diplomacy	-10.7513
▁videotape	-10.7513
▁aftermath	-10.7513
▁vermont	-10.7513
▁maritime	-10.7514
▁rubble	-10.7514
▁genocide	-10.7514
▁desperate	-10.7514
▁truce	-10.7514
vi	-10.7515
▁outstanding	-10.7515
▁kyung	-10.7515
▁courts	-10.7516
▁confirmation	-10.7516
▁statistical	-10.7516
▁burden	-10.7517
▁chancell	-10.7519
▁brigade	-10.7521
▁fortune	-10.7523
▁habitat	-10.7524
▁brook	-10.7531
▁mall	-10.7541
▁dc	-10.7541
▁covering	-10.7549
▁customs	-10.755
▁cor	-10.7556
ke	-10.756
▁christians	-10.7573
▁nicole	-10.7578
▁insist	-10.7579
▁lung	-10.7583
▁sail	-10.7583
▁gather	-10.7586
▁procedures	-10.7607
▁insists	-10.7612
▁broker	-10.7619
▁purchas	-10.762
▁ker	-10.7628
▁parking	-10.7628
▁christ	-10.7631
ated	-10.7636
▁flooded	-10.7644
▁ky	-10.7655
▁abduction	-10.7656
▁rounds	-10.7657
▁abortion	-10.7657
▁automaker	-10.766
▁yard	-10.766
▁shirt	-10.766
▁shark	-10.7663
▁mix	-10.7667
▁crush	-10.7669
▁saving	-10.7669
▁shocked	-10.767
stone	-10.7678
▁dat	-10.7682
▁button	-10.7688
▁fighter	-10.7709
▁shell	-10.772
▁fl	-10.772
▁hostil	-10.773
▁spa	-10.7741
▁theory	-10.7741
▁chat	-10.7747
▁discussing	-10.7748
▁totally	-10.7751
▁absence	-10.7757
▁asylum	-10.7757
▁excited	-10.7757
▁judiciary	-10.7757
▁katrina	-10.7757
▁marathon	-10.7757
▁regain	-10.7757
▁roddick	-10.7757
▁kandahar	-10.7757
▁legislature	-10.7757
▁dioxide	-10.7757
▁shutdown	-10.7758
▁vulnerable	-10.7758
▁minority	-10.7759
▁steal	-10.776
▁personality	-10.7761
▁principal	-10.7762
▁charter	-10.7763
▁guan	-10.7763
denuclearization	-10.7763
▁remarkable	-10.7764
refore	-10.7765
▁puert	-10.7767
▁craft	-10.777
ek	-10.777
teen	-10.7776
▁obviously	-10.778
bu	-10.778
▁offenders	-10.7784
▁yu	-10.779
▁shi	-10.7815
▁bears	-10.7832
▁jets	-10.7845
▁checks	-10.7845
▁anderson	-10.7854
▁tire	-10.7855
▁tanker	-10.7858
▁orchestra	-10.7866
▁roma	-10.7866
hook	-10.7871
▁taxi	-10.7878
ja	-10.7887
▁recording	-10.789
▁raped	-10.7893
▁declar	-10.7904
ac	-10.7905
▁drill	-10.7906
▁slam	-10.7908
▁platform	-10.7908
▁conviction	-10.7908
▁landslide	-10.791
▁procedure	-10.7911
back	-10.7912
▁flee	-10.7912
▁militias	-10.7914
▁obtain	-10.792
▁repeat	-10.7921
▁detain	-10.7921
ily	-10.7943
▁riots	-10.7945
▁rac	-10.7946
▁limits	-10.7957
▁125	-10.7969
▁chase	-10.7982
▁hero	-10.7989
nt	-10.7989
▁hack	-10.7993
latter	-10.7994
▁alabama	-10.8007
▁analysis	-10.8007
▁applied	-10.8007
▁curfew	-10.8007
▁distress	-10.8007
▁gradual	-10.8007
▁kidnappers	-10.8007
▁toyota	-10.8007
▁superior	-10.8007
▁spaniard	-10.8007
▁consumption	-10.8007
▁combination	-10.8007
▁liberation	-10.8007
▁dirt	-10.8007
▁oct	-10.8007
▁ahmed	-10.8008
▁wilson	-10.8008
▁nin	-10.8008
▁mirror	-10.8008
▁passage	-10.8009
▁fda	-10.801
▁gaz	-10.8011
▁graham	-10.8011
▁statistics	-10.8011
▁midfielder	-10.8011
▁unique	-10.8012
▁mir	-10.8012
▁emirates	-10.8013
▁output	-10.8017
▁uncovered	-10.8017
▁henin	-10.8017
▁unfortunately	-10.8024
▁laundering	-10.8029
▁landscape	-10.8029
▁libyan	-10.8031
▁rev	-10.8032
▁operated	-10.8038
▁properly	-10.8043
▁ri	-10.8055
▁simon	-10.8057
▁partial	-10.8061
▁exhibit	-10.8066
▁wash	-10.8077
▁hearts	-10.8084
▁tool	-10.8085
▁alan	-10.8085
▁regularly	-10.8088
▁consult	-10.8111
▁daughters	-10.8113
▁regret	-10.8116
▁disputes	-10.8123
▁stages	-10.8127
▁bone	-10.8128
▁har	-10.8129
▁sad	-10.8132
ari	-10.8132
▁compromise	-10.8137
wa	-10.8137
▁mistakes	-10.8146
▁fred	-10.8151
▁victoria	-10.8156
▁terminal	-10.8163
▁vaccine	-10.8165
▁venue	-10.8166
▁restrict	-10.8175
▁lunch	-10.8175
▁leftist	-10.8176
▁championships	-10.8178
▁br	-10.8188
▁os	-10.8189
▁killer	-10.8196
▁sectors	-10.8201
port	-10.8208
▁stops	-10.8212
▁parks	-10.8217
vili	-10.8236
▁ram	-10.8238
▁canal	-10.8239
▁brad	-10.8251
tar	-10.8253
▁generat	-10.8255
ett	-10.8256
▁branch	-10.826
▁fe	-10.826
▁introduce	-10.8261
▁afraid	-10.8264
▁anywhere	-10.8264
▁gesture	-10.8264
▁interpol	-10.8264
▁opportunities	-10.8264
▁pittsburgh	-10.8264
▁bacteria	-10.8264
▁guild	-10.8264
▁enormous	-10.8264
▁enrich	-10.8264
▁prestig	-10.8264
▁composite	-10.8264
▁kelly	-10.8264
▁biologist	-10.8264
▁geneva	-10.8264
▁unacceptable	-10.8264
▁burial	-10.8264
▁ramos	-10.8264
▁distribution	-10.8264
▁wonderful	-10.8264
▁mice	-10.8266
▁singh	-10.8266
▁coverage	-10.8267
▁expell	-10.8269
▁refusal	-10.8269
▁sorry	-10.8271
▁keb	-10.8271
▁brian	-10.8273
▁minds	-10.8276
▁battery	-10.8277
▁fift	-10.8283
▁everest	-10.8283
geun	-10.8288
▁thus	-10.8299
▁suk	-10.83
▁elements	-10.8303
▁hiding	-10.8307
▁shipping	-10.8308
▁skills	-10.8313
▁transactions	-10.8313
▁cheong	-10.8314
▁sink	-10.8315
▁zoe	-10.8322
▁traders	-10.8322
▁silence	-10.8328
▁mere	-10.8328
▁remark	-10.8335
▁refuse	-10.8342
▁sing	-10.8349
▁lie	-10.8351
ably	-10.8359
▁methods	-10.837
▁studios	-10.8377
ists	-10.8385
▁tru	-10.8387
▁lists	-10.8392
me	-10.8401
▁plea	-10.8405
▁giants	-10.8418
▁centered	-10.842
▁shah	-10.842
▁tribute	-10.8422
▁admission	-10.8425
▁uniform	-10.8428
▁infection	-10.8429
▁airstrike	-10.8429
▁opponent	-10.843
▁insurgent	-10.843
▁serves	-10.8434
▁shield	-10.8439
▁battles	-10.8439
long	-10.8442
▁pole	-10.8449
▁regulator	-10.846
▁forget	-10.8471
▁predict	-10.8471
▁mood	-10.8483
▁managers	-10.8487
▁86	-10.8489
anamo	-10.8497
up	-10.8502
war	-10.8507
▁uganda	-10.8507
ize	-10.8509
▁slip	-10.8511
▁nurse	-10.8518
▁escort	-10.8527
▁belgium	-10.8527
▁encouraging	-10.8527
▁kaesong	-10.8527
▁nairobi	-10.8527
▁oxygen	-10.8527
▁prophet	-10.8527
▁surprising	-10.8527
▁thirty	-10.8527
▁zardari	-10.8527
▁dolphin	-10.8527
▁mutual	-10.8527
▁craig	-10.8527
▁optimistic	-10.8527
▁campbell	-10.8527
▁smart	-10.8527
▁guess	-10.8527
▁elite	-10.8527
▁examination	-10.8528
▁subway	-10.8528
▁romantic	-10.8528
▁scrambl	-10.8528
▁swine	-10.8528
▁teeth	-10.8529
▁engagement	-10.8529
ee	-10.8529
▁doping	-10.853
▁populated	-10.8531
▁mom	-10.8532
▁gender	-10.8532
▁deepen	-10.8535
▁respectively	-10.854
ev	-10.8551
▁500000	-10.8551
▁visible	-10.8554
inho	-10.8555
▁noticed	-10.8556
▁serbian	-10.8556
▁eggs	-10.8559
▁sept	-10.8566
▁lending	-10.8567
▁guerrillas	-10.8567
▁publicist	-10.8568
▁cape	-10.857
▁mis	-10.857
▁paintings	-10.8578
ot	-10.8587
▁harder	-10.8593
tada	-10.8597
nce	-10.8597
ap	-10.8599
▁ballot	-10.8606
▁danc	-10.8614
ions	-10.8615
▁surg	-10.8623
▁ne	-10.8628
▁sum	-10.8636
ns	-10.8638
▁executions	-10.8644
▁separated	-10.8655
▁emerg	-10.8665
▁desire	-10.8669
▁hanging	-10.8671
▁veterans	-10.8673
work	-10.8678
▁counsel	-10.8687
▁remov	-10.8687
▁telescope	-10.8694
▁resolv	-10.8695
well	-10.8697
▁aired	-10.8698
▁laptop	-10.8699
▁separatist	-10.8699
▁affair	-10.8701
▁jungle	-10.8701
▁activist	-10.8701
▁peer	-10.8706
residential	-10.871
▁futures	-10.8713
▁artists	-10.8716
▁actual	-10.8764
nba	-10.8767
▁clubs	-10.8767
▁swing	-10.8772
▁micro	-10.8772
▁dismantle	-10.8774
prom	-10.8777
▁usa	-10.8778
▁movements	-10.8781
▁refuge	-10.8781
▁venture	-10.8782
▁der	-10.8785
▁agricultur	-10.8786
▁sat	-10.8789
▁manufacture	-10.8793
▁opera	-10.8795
rk	-10.8795
▁presum	-10.8795
▁swor	-10.8796
▁benjamin	-10.8797
▁burmese	-10.8797
▁competing	-10.8797
▁elaborate	-10.8797
▁incumbent	-10.8797
▁intervention	-10.8797
▁kremlin	-10.8797
▁zawahiri	-10.8797
▁citigroup	-10.8797
▁universe	-10.8797
▁ibm	-10.8797
▁oregon	-10.8797
▁beautiful	-10.8797
▁denver	-10.8797
▁knight	-10.8797
▁twel	-10.8797
▁bahamas	-10.8797
▁probation	-10.8797
▁harbor	-10.8797
▁talent	-10.8797
▁reconstruction	-10.8797
waz	-10.8797
▁excessive	-10.8798
▁luis	-10.8798
▁radar	-10.8798
▁myspace	-10.8798
▁deadlock	-10.8798
▁acid	-10.8798
▁elevator	-10.8798
▁1986	-10.8799
▁manipulation	-10.8799
▁awareness	-10.8799
▁selection	-10.8799
den	-10.88
▁proliferation	-10.8801
▁dying	-10.8801
▁audio	-10.8802
▁postponed	-10.8802
▁comply	-10.8802
▁regardless	-10.8803
▁hitler	-10.8803
▁castle	-10.8803
▁miller	-10.8808
our	-10.881
lg	-10.8811
▁dallas	-10.8812
▁complicated	-10.8817
▁25000	-10.8817
em	-10.8817
▁armor	-10.8819
▁chant	-10.882
▁interviewed	-10.8827
▁grounds	-10.8828
▁300000	-10.8829
▁falls	-10.8837
▁distributed	-10.885
▁contenders	-10.885
▁160	-10.8854
▁scrap	-10.886
▁1988	-10.8869
▁buyers	-10.8872
▁achieved	-10.8878
▁stan	-10.8878
▁reserved	-10.8885
ran	-10.8889
▁scenes	-10.8891
▁laugh	-10.8894
▁shim	-10.8894
▁landslides	-10.8903
▁theft	-10.8911
▁mud	-10.8912
gi	-10.8927
pa	-10.8939
lar	-10.8946
▁ranch	-10.8962
▁novel	-10.8974
▁chamber	-10.8974
▁replacement	-10.8975
▁amendment	-10.8976
▁checkpoint	-10.8976
▁argument	-10.8979
▁enjoyed	-10.898
▁shortage	-10.8982
▁policeman	-10.8986
prime	-10.8986
▁92	-10.8993
▁publication	-10.8994
▁reflects	-10.8999
▁waited	-10.9004
▁admit	-10.9021
▁mu	-10.9039
aro	-10.9051
▁rent	-10.9052
▁trace	-10.9053
▁cambodia	-10.9057
he	-10.9059
▁portray	-10.9068
▁matt	-10.9072
▁basket	-10.9075
▁academic	-10.9075
▁argentine	-10.9075
▁bolster	-10.9075
▁comprehensive	-10.9075
▁crocodile	-10.9075
▁dakota	-10.9075
▁minnesota	-10.9075
▁prostitution	-10.9075
▁rooney	-10.9075
▁unpopular	-10.9075
▁yourself	-10.9075
▁ankara	-10.9075
▁fossett	-10.9075
▁reputation	-10.9075
▁eligib	-10.9075
▁surf	-10.9075
▁kidney	-10.9075
▁rhetoric	-10.9076
▁rallied	-10.9076
▁stalin	-10.9077
▁bold	-10.9077
▁con	-10.9077
▁competitive	-10.9078
▁yield	-10.9079
▁embrace	-10.9082
▁grabb	-10.9086
▁silver	-10.9091
▁juan	-10.9093
bc	-10.9093
▁springs	-10.9097
▁guidelines	-10.9098
shi	-10.9104
▁rulers	-10.9104
▁83	-10.9108
▁revised	-10.9112
▁manner	-10.9113
▁rash	-10.9113
▁realized	-10.912
▁wealthy	-10.9124
▁operational	-10.9129
▁immigrants	-10.9131
▁panic	-10.9136
▁sch	-10.9146
▁preparations	-10.9148
athrow	-10.9149
▁tae	-10.9151
▁barriers	-10.9151
▁ripp	-10.9153
▁ratings	-10.9156
▁undergoing	-10.9159
▁tip	-10.9166
▁photographers	-10.9171
▁tea	-10.9173
▁fees	-10.9174
▁rocky	-10.9177
ho	-10.9182
▁forecaster	-10.919
▁racial	-10.9193
▁joy	-10.9194
▁manage	-10.9198
▁ak	-10.9205
▁contacted	-10.9212
▁peacefully	-10.9217
▁dad	-10.9221
▁forms	-10.9224
▁tigers	-10.9232
king	-10.9234
▁rays	-10.9237
▁shed	-10.9239
▁critically	-10.9242
▁84	-10.9248
op	-10.9251
▁gi	-10.9251
▁warrants	-10.9257
▁registration	-10.9257
▁occur	-10.9257
▁knowing	-10.9258
▁background	-10.9258
▁hindu	-10.926
▁toilet	-10.9261
▁temperature	-10.9264
ent	-10.9264
▁bargain	-10.9266
▁muscle	-10.9268
▁roof	-10.9271
▁machines	-10.9271
went	-10.9272
▁brit	-10.9279
▁twist	-10.9282
ves	-10.9285
▁rad	-10.9288
how	-10.9291
ana	-10.9302
▁requests	-10.9305
▁instant	-10.9319
▁tears	-10.9321
▁fundamental	-10.9324
▁spur	-10.9325
▁cult	-10.9332
ani	-10.9333
▁musa	-10.9335
hal	-10.9337
▁parade	-10.9337
gged	-10.9341
▁freez	-10.9341
▁rob	-10.9346
going	-10.9347
▁aims	-10.9348
ay	-10.9352
▁tornado	-10.9356
▁fort	-10.936
▁animated	-10.936
▁connecticut	-10.936
▁dismantling	-10.936
▁diyala	-10.936
▁eager	-10.936
▁episode	-10.936
▁greenpeace	-10.936
▁mercury	-10.936
▁mogadishu	-10.936
▁primarily	-10.936
▁ransom	-10.936
▁schwarzenegger	-10.936
▁somewhere	-10.936
▁thompson	-10.936
▁motorcycle	-10.936
▁piracy	-10.936
▁ultra	-10.936
▁opposite	-10.936
▁crocker	-10.9361
▁approximate	-10.9361
▁strategist	-10.9361
▁madoff	-10.9361
▁rampage	-10.9361
▁observation	-10.9362
▁cdc	-10.9362
▁extinction	-10.9362
▁disable	-10.9363
▁revision	-10.9363
▁communicate	-10.9363
▁factories	-10.9363
▁exciting	-10.9364
▁taste	-10.9365
▁comfortable	-10.937
▁tries	-10.9371
▁astronomers	-10.9374
▁investments	-10.9375
▁appearances	-10.9379
▁2500	-10.9379
▁nikk	-10.938
▁fee	-10.9386
▁challenger	-10.9398
▁teaching	-10.9401
▁blocks	-10.9404
▁nose	-10.9404
▁bal	-10.9406
▁notes	-10.9408
▁solid	-10.941
▁honored	-10.9412
▁smashed	-10.9413
▁manag	-10.9413
fi	-10.9419
gan	-10.9426
▁sens	-10.9427
▁scoring	-10.9428
▁represented	-10.9436
▁scandals	-10.9441
▁installed	-10.9443
▁challenged	-10.9444
▁ignored	-10.945
ential	-10.9454
▁fleeing	-10.9465
▁ku	-10.9468
aw	-10.9468
▁doubled	-10.9474
ack	-10.9474
▁jane	-10.948
500	-10.9487
▁sealed	-10.9491
▁severely	-10.9492
▁fisher	-10.9494
tor	-10.9495
▁damages	-10.9496
▁amy	-10.9497
▁accounting	-10.9502
▁rid	-10.9505
ization	-10.9506
▁allen	-10.952
▁scar	-10.9522
▁supports	-10.9529
▁preserve	-10.9537
▁expanding	-10.954
▁billionaire	-10.9552
▁mandate	-10.9552
▁discount	-10.9553
les	-10.9554
▁evacuation	-10.9556
▁cafe	-10.9558
▁publish	-10.9559
▁customer	-10.9561
▁fin	-10.9567
▁photographer	-10.9567
▁surveys	-10.9578
front	-10.9582
▁noon	-10.9584
▁guys	-10.9592
▁performing	-10.9597
▁opt	-10.9617
▁dates	-10.963
▁disclose	-10.9635
ano	-10.9641
ega	-10.9643
▁please	-10.9644
llied	-10.9645
▁antarctic	-10.9648
▁cooper	-10.9648
▁magic	-10.9648
▁prevented	-10.9648
▁coincide	-10.9654
▁grace	-10.9654
▁cyber	-10.9655
▁atlantis	-10.9655
▁carpet	-10.9655
▁ceremonies	-10.9655
▁crunch	-10.9655
▁epicenter	-10.9655
▁equivalent	-10.9655
▁johndroe	-10.9655
▁spectacular	-10.9655
▁denmark	-10.9655
▁foster	-10.9655
▁toronto	-10.9655
▁strait	-10.9655
▁bedroom	-10.9655
▁ppp	-10.9655
sterol	-10.9655
▁hidden	-10.9655
▁revenge	-10.9655
▁exploit	-10.9655
▁tripoli	-10.9655
▁2011	-10.9656
▁bernard	-10.9656
▁adoption	-10.9656
▁detective	-10.9657
▁pronounce	-10.9657
fa	-10.9658
▁pride	-10.9658
▁fastest	-10.9661
▁anybody	-10.9663
▁taiwanese	-10.9664
▁ethiopian	-10.9665
▁participating	-10.9667
▁marry	-10.967
ze	-10.9671
▁pages	-10.9674
▁assured	-10.9675
▁slaughter	-10.9677
▁automatic	-10.9679
▁stones	-10.9679
▁islets	-10.9679
▁carefully	-10.9681
▁utilit	-10.9684
▁shouted	-10.9688
380	-10.9691
▁wu	-10.9692
ud	-10.9701
▁ash	-10.9707
ngela	-10.9708
▁qualifying	-10.971
▁employed	-10.9711
▁gases	-10.9711
lo	-10.9713
▁checked	-10.9719
ston	-10.9721
▁measur	-10.9722
▁prayers	-10.9728
▁odds	-10.9729
▁rely	-10.9742
definitely	-10.9744
▁refus	-10.9748
▁applications	-10.975
▁nov	-10.9752
▁entirely	-10.9756
▁spin	-10.9759
▁parker	-10.976
▁ballots	-10.9763
▁automakers	-10.9774
▁ken	-10.9781
▁criticiz	-10.9795
▁withdrawn	-10.98
▁coin	-10.9802
▁secured	-10.9811
▁lots	-10.983
▁expanded	-10.9834
▁satellites	-10.9834
▁aig	-10.9839
▁theaters	-10.984
tarian	-10.9849
▁ramp	-10.9851
▁closure	-10.9853
▁tale	-10.9853
▁tissue	-10.9856
▁examine	-10.9857
ate	-10.9858
▁infant	-10.9858
▁mortar	-10.9859
▁technique	-10.9859
▁gift	-10.986
▁iphone	-10.986
▁application	-10.986
▁guest	-10.9864
▁shoe	-10.9868
▁install	-10.9869
▁bonds	-10.987
▁tighten	-10.9871
▁dun	-10.9873
▁holes	-10.9902
nder	-10.9911
▁mrs	-10.9915
▁polar	-10.9919
▁remind	-10.9921
ini	-10.9928
▁gus	-10.9935
▁honest	-10.9936
▁cook	-10.9944
▁adapt	-10.9957
▁assess	-10.9958
▁accompany	-10.9958
▁ambitious	-10.9958
▁brussels	-10.9958
▁cathedral	-10.9958
▁ferguson	-10.9958
▁financing	-10.9958
▁horta	-10.9958
▁imminent	-10.9958
▁incursion	-10.9958
▁istanbul	-10.9958
▁pavarotti	-10.9958
▁pyramid	-10.9958
▁rawalpindi	-10.9958
▁shinawatra	-10.9958
▁subsequent	-10.9958
▁volatile	-10.9958
▁winfrey	-10.9958
▁ivory	-10.9958
▁overhaul	-10.9958
▁murphy	-10.9958
▁wrongdoing	-10.9958
▁sevilla	-10.9958
▁anthem	-10.9958
▁caracas	-10.9958
▁participation	-10.9958
▁duties	-10.9958
▁saint	-10.9958
▁random	-10.9958
▁elementary	-10.9958
▁leap	-10.9959
oprah	-10.9959
▁eruption	-10.9959
▁lisa	-10.9959
▁broadway	-10.9959
▁uribe	-10.9963
▁hometown	-10.9963
▁branches	-10.9963
▁pure	-10.9967
▁occupied	-10.9967
▁captors	-10.9968
▁boxes	-10.9972
▁rings	-10.9975
▁mourning	-10.9976
▁ear	-10.9976
▁tired	-10.9985
▁lucky	-10.9988
▁tours	-10.9997
ster	-11
▁shak	-11.0001
▁obligations	-11.0005
▁donations	-11.0005
▁lure	-11.001
▁intent	-11.0011
▁supporter	-11.003
▁shooter	-11.0034
▁celebrating	-11.0036
▁hired	-11.004
▁developer	-11.0051
▁provider	-11.0054
ged	-11.0056
▁bow	-11.0061
▁restricted	-11.0066
▁inmates	-11.0077
▁stopp	-11.008
▁wage	-11.0087
ger	-11.0087
▁sha	-11.0089
▁collected	-11.0092
arian	-11.0098
▁nationalist	-11.0098
▁directors	-11.0101
▁finals	-11.0106
▁celebrat	-11.0117
▁180	-11.012
▁fixed	-11.0122
▁households	-11.0123
bi	-11.0126
▁sciences	-11.0126
▁patroll	-11.0126
▁hui	-11.0129
▁hosts	-11.0129
▁sympath	-11.0138
sley	-11.0142
cious	-11.0145
iling	-11.0147
▁sued	-11.0148
▁101	-11.0151
▁kicked	-11.016
ola	-11.0161
▁occasion	-11.0162
▁hike	-11.0166
▁liquid	-11.0167
▁transplant	-11.0168
▁interrogation	-11.0169
▁predecessor	-11.017
▁belief	-11.0171
▁offense	-11.0171
ail	-11.0173
ou	-11.0176
▁disrupt	-11.0181
▁cancel	-11.0183
▁mining	-11.0187
▁linds	-11.0195
▁ty	-11.0195
▁cent	-11.0202
▁involve	-11.0202
▁hate	-11.0205
ess	-11.0208
▁lion	-11.0228
▁swift	-11.0236
▁professors	-11.0243
▁enable	-11.0246
▁prefer	-11.0252
▁loud	-11.0257
▁emphasiz	-11.0258
▁jenni	-11.0258
▁jihad	-11.0262
▁depict	-11.0265
▁territori	-11.0266
▁plate	-11.0266
▁hip	-11.0266
▁haiti	-11.0268
▁hydro	-11.0269
▁demonstrate	-11.0269
▁rove	-11.0269
▁breakfast	-11.027
▁caribbean	-11.027
▁chaudhry	-11.027
▁invitation	-11.027
▁mammoth	-11.027
▁outskirts	-11.027
▁physician	-11.027
▁pichushkin	-11.027
▁smuggling	-11.027
▁tragic	-11.027
▁travolta	-11.027
▁unsuccessful	-11.027
▁betancourt	-11.027
▁empire	-11.027
▁nixon	-11.027
▁depth	-11.027
▁bloomberg	-11.027
▁surpass	-11.027
▁pusan	-11.027
▁helmand	-11.027
▁montana	-11.027
▁crater	-11.027
▁denial	-11.0271
▁haul	-11.0271
▁echo	-11.0271
▁8000	-11.0271
▁candidacy	-11.0271
▁expedition	-11.0271
▁merger	-11.0271
▁facebook	-11.0271
▁manila	-11.0271
▁norway	-11.0272
▁tribunal	-11.0272
▁tampa	-11.0272
ft	-11.0272
▁punch	-11.0272
▁briton	-11.0274
▁pregnancy	-11.0274
akash	-11.0274
▁buzz	-11.0275
▁symptoms	-11.0275
▁consideration	-11.0275
▁petrole	-11.0276
▁ahmad	-11.0277
nold	-11.0282
▁wayne	-11.0286
▁somebody	-11.0289
▁fisc	-11.029
▁clues	-11.0292
ura	-11.0292
▁counted	-11.0295
▁collide	-11.0296
▁matsu	-11.0297
▁grade	-11.0301
head	-11.0302
▁demonstrated	-11.0305
▁lane	-11.0305
▁electrical	-11.0315
▁350	-11.0317
▁medics	-11.0325
▁bae	-11.0328
▁cautioned	-11.0333
▁proposals	-11.034
▁emi	-11.0341
▁roles	-11.0344
▁glaciers	-11.0344
▁ze	-11.0349
▁screening	-11.0352
▁shia	-11.0357
▁89	-11.0358
▁restored	-11.036
bani	-11.036
▁pad	-11.0361
▁drunk	-11.0363
▁sp	-11.0367
▁attacker	-11.0368
▁nud	-11.037
▁yan	-11.0371
ped	-11.0371
▁violate	-11.0373
tt	-11.0375
▁arguments	-11.0381
▁airstrikes	-11.0388
▁bath	-11.0393
▁preserv	-11.0397
▁slim	-11.0404
raul	-11.0414
▁98	-11.0415
yman	-11.0419
▁attackers	-11.0431
▁guarantees	-11.0432
▁engines	-11.0445
▁monitors	-11.0448
▁explained	-11.0453
▁08	-11.0471
▁nominees	-11.0473
ium	-11.0479
▁coat	-11.0489
▁gunshot	-11.049
▁lit	-11.0491
▁endorsement	-11.0492
▁q	-11.0493
▁deserve	-11.0494
▁lord	-11.0494
▁embryo	-11.0494
▁substance	-11.0494
▁1800	-11.0496
▁publisher	-11.05
▁height	-11.0502
▁confront	-11.0503
world	-11.0504
▁deploy	-11.0506
won	-11.0514
▁afterward	-11.0515
▁assume	-11.0526
▁formula	-11.053
▁plead	-11.0533
▁provision	-11.0533
▁mc	-11.0535
▁indians	-11.0536
pe	-11.054
▁sin	-11.0545
▁bc	-11.0547
▁finds	-11.0562
mus	-11.057
▁evacuate	-11.0574
over	-11.0576
mao	-11.0579
▁gangs	-11.0581
▁brave	-11.0581
▁strange	-11.0589
▁extinct	-11.059
▁divide	-11.0592
▁triumph	-11.0592
▁alzheimer	-11.0593
▁aquarium	-11.0593
▁automotive	-11.0593
▁diabetes	-11.0593
▁endeavour	-11.0593
▁existence	-11.0593
▁explanation	-11.0593
▁margaret	-11.0593
▁norwegian	-11.0593
▁shepherd	-11.0593
▁unicef	-11.0593
▁belgian	-11.0593
▁ebay	-11.0593
▁pact	-11.0593
▁silent	-11.0593
▁orlando	-11.0593
▁thanksgiving	-11.0593
▁reunit	-11.0593
▁tentative	-11.0593
▁copyright	-11.0593
▁optimism	-11.0593
▁fortified	-11.0593
▁lynch	-11.0593
▁framework	-11.0593
▁quell	-11.0593
▁fifa	-11.0593
▁bruce	-11.0593
▁citizenship	-11.0593
▁cristian	-11.0593
▁jeong	-11.0594
▁pursuit	-11.0594
station	-11.0594
▁painful	-11.0595
abao	-11.0595
▁beside	-11.0596
▁kimchi	-11.0596
▁survival	-11.0597
▁researcher	-11.0598
▁outpost	-11.0598
▁counties	-11.0599
▁legislators	-11.0601
▁murders	-11.0602
▁useful	-11.0603
▁difficulties	-11.0603
▁warehouse	-11.0603
▁favorable	-11.0603
▁jr	-11.0603
▁chart	-11.0605
▁amin	-11.0607
▁aero	-11.0607
▁clay	-11.0612
▁practical	-11.0614
▁250000	-11.0615
▁ranks	-11.0617
▁lifetime	-11.0617
▁foods	-11.0617
▁mitt	-11.0618
▁passes	-11.0618
▁spots	-11.0619
nic	-11.0621
▁overturned	-11.0629
▁lev	-11.0629
▁mega	-11.0634
▁contractors	-11.0635
rc	-11.0635
▁cla	-11.064
▁musicians	-11.064
▁mines	-11.0646
▁93	-11.0651
▁factions	-11.0651
▁breathing	-11.0654
▁captives	-11.0656
▁forests	-11.0656
▁belonged	-11.0662
tz	-11.0674
▁jay	-11.0695
▁covers	-11.0701
wai	-11.0702
▁undergo	-11.0703
▁tips	-11.0706
▁involves	-11.0716
▁bon	-11.0726
▁tools	-11.0727
▁volunteer	-11.0734
▁inspections	-11.0747
▁deck	-11.0748
▁congratulat	-11.0749
▁va	-11.075
rich	-11.0755
▁jam	-11.076
▁spat	-11.0784
▁files	-11.0788
▁maine	-11.0797
▁nationals	-11.0805
▁tap	-11.0805
▁wrap	-11.0807
▁joon	-11.0808
▁posting	-11.0812
tion	-11.0813
ti	-11.0821
▁airplane	-11.0826
▁skull	-11.0826
▁precaution	-11.0827
▁pipeline	-11.0827
▁serb	-11.0828
▁99	-11.0828
▁colleague	-11.0829
▁investor	-11.0833
▁select	-11.0835
▁farms	-11.0841
▁rider	-11.0844
bs	-11.0853
▁shutt	-11.0855
va	-11.0858
▁hearings	-11.0861
▁asset	-11.0865
▁sec	-11.0866
▁mill	-11.0867
▁trails	-11.0872
▁bans	-11.0895
rin	-11.0897
▁bur	-11.0906
▁audit	-11.091
▁user	-11.0912
▁refer	-11.0913
▁sounds	-11.0914
▁decrease	-11.0917
▁aging	-11.0924
▁artificial	-11.0926
▁damaging	-11.0926
▁epidemic	-11.0926
▁mercedes	-11.0926
▁okinawa	-11.0926
▁prescription	-11.0926
▁psychology	-11.0926
▁recognition	-11.0926
▁restructuring	-11.0926
▁verify	-11.0926
▁irbil	-11.0926
▁mitchell	-11.0926
▁bathroom	-11.0926
▁judgment	-11.0926
▁spell	-11.0926
▁retirement	-11.0926
▁samarra	-11.0927
▁fishermen	-11.0927
▁kofi	-11.0927
▁polish	-11.0927
▁devastated	-11.0927
▁bride	-11.0927
▁geit	-11.0927
▁reluctant	-11.0928
▁bryan	-11.0928
▁dedicated	-11.0929
▁1981	-11.0929
▁scatter	-11.093
▁modest	-11.093
▁takeover	-11.0932
▁keen	-11.0933
▁chole	-11.0933
▁pornography	-11.0933
▁sprawling	-11.0934
▁sideline	-11.0934
▁equipp	-11.0934
▁tennis	-11.0935
▁purported	-11.0936
▁brush	-11.0937
▁assassinated	-11.0938
▁beatles	-11.0939
▁rita	-11.0939
▁owns	-11.0941
▁defectors	-11.0943
▁desk	-11.0943
▁humanity	-11.0945
▁wheat	-11.0946
▁solutions	-11.0948
▁soared	-11.0948
▁prolonged	-11.0951
ging	-11.0953
▁supervisor	-11.0954
▁shattered	-11.096
▁rating	-11.0966
zi	-11.0968
▁planets	-11.0969
▁assert	-11.0971
▁sway	-11.098
▁bever	-11.098
▁burns	-11.098
▁quarters	-11.0981
▁advisers	-11.0982
▁epic	-11.0987
▁routes	-11.0991
▁slowly	-11.1003
erald	-11.1012
▁arts	-11.1024
rry	-11.1031
▁luc	-11.1042
▁mini	-11.1044
▁regulators	-11.1051
we	-11.1069
ick	-11.1079
▁enhance	-11.1081
▁complain	-11.1088
▁clients	-11.1089
▁110	-11.1109
▁format	-11.1112
▁pray	-11.1117
▁visual	-11.1121
▁meteor	-11.1123
▁manipulat	-11.1137
▁blog	-11.115
▁stamp	-11.1151
cha	-11.116
▁ignor	-11.1164
▁institution	-11.1167
▁luna	-11.1171
llo	-11.1171
▁secur	-11.1172
▁partnership	-11.1172
▁enterprise	-11.1172
ware	-11.1173
▁monkey	-11.1173
▁download	-11.1174
▁edward	-11.1175
▁panda	-11.1175
▁survivor	-11.1175
signed	-11.1178
▁detect	-11.1178
most	-11.1179
ea	-11.118
▁kiss	-11.1182
▁designer	-11.1188
▁hunter	-11.1189
▁qa	-11.1197
▁transit	-11.1199
▁donor	-11.1205
▁sprint	-11.1209
▁dave	-11.121
▁nick	-11.1213
dr	-11.122
rafa	-11.1226
att	-11.1227
▁cautious	-11.1236
▁unexpected	-11.1237
har	-11.1238
▁widow	-11.1239
thur	-11.124
▁stripp	-11.1241
mond	-11.1242
▁voter	-11.1243
▁warn	-11.1262
▁slight	-11.1264
▁fernand	-11.1265
▁caucus	-11.1266
▁sleeping	-11.1266
▁vigil	-11.127
▁patriot	-11.127
▁kidnap	-11.1271
▁ammunition	-11.1271
▁consortium	-11.1271
▁grandfather	-11.1271
▁grandmother	-11.1271
▁kurdistan	-11.1271
▁legacy	-11.1271
▁nervous	-11.1271
▁stuck	-11.1271
▁substitute	-11.1271
▁convey	-11.1271
▁declining	-11.1271
▁nfl	-11.1271
▁sierra	-11.1271
▁consent	-11.1271
▁hazard	-11.1271
▁chairwoman	-11.1271
▁capability	-11.1271
▁peacekeepers	-11.1271
▁nelson	-11.1271
▁determination	-11.1271
▁waving	-11.1271
▁gunfire	-11.1271
▁05	-11.1271
▁humor	-11.1271
▁susan	-11.1272
▁dignity	-11.1272
gibbons	-11.1273
▁implementation	-11.1273
▁autopsy	-11.1273
▁intensified	-11.1273
▁ethan	-11.1273
▁heighten	-11.1273
▁perino	-11.1273
▁uprising	-11.1274
▁impression	-11.1274
▁1982	-11.1274
▁creative	-11.1275
▁arson	-11.1275
▁territories	-11.1276
▁sandp	-11.1276
▁fernando	-11.1277
▁setback	-11.1277
▁ethical	-11.1278
▁dense	-11.1279
ren	-11.1279
▁ferry	-11.1279
▁removal	-11.1279
▁midst	-11.1282
▁canne	-11.1287
▁marie	-11.1288
▁shipman	-11.1288
▁sank	-11.1292
▁steer	-11.1293
▁antibiotics	-11.1294
▁amazing	-11.1295
▁devote	-11.1297
eta	-11.1297
▁counterfeiting	-11.1298
▁symbolic	-11.1301
▁wang	-11.1302
▁guin	-11.1302
▁austrian	-11.1304
▁shouting	-11.1311
▁z	-11.132
▁linda	-11.1324
▁anne	-11.1325
▁dissidents	-11.1326
▁folks	-11.1328
▁authors	-11.1329
▁gwan	-11.1333
▁mild	-11.1335
ik	-11.1338
▁informal	-11.1338
▁pastor	-11.1351
▁patterns	-11.1352
▁rig	-11.1353
▁organs	-11.1354
ge	-11.1359
▁bulls	-11.1364
▁disrupted	-11.1368
▁tala	-11.137
▁pf	-11.1371
rish	-11.1382
▁ham	-11.1385
▁cal	-11.1397
▁holidays	-11.1398
▁swed	-11.1399
▁matte	-11.1401
▁yards	-11.1411
▁fines	-11.1414
▁breaks	-11.1418
▁hs	-11.143
▁ward	-11.1436
cantil	-11.1439
▁feeding	-11.144
▁stream	-11.144
▁youths	-11.1445
▁les	-11.1457
▁roots	-11.1462
▁caps	-11.1463
ward	-11.1473
▁shelters	-11.1478
▁slowed	-11.1481
▁arena	-11.1481
ell	-11.1481
▁petro	-11.149
▁generals	-11.1495
▁raw	-11.1502
erial	-11.1509
▁protested	-11.1509
ber	-11.1509
▁dance	-11.1517
▁hun	-11.152
▁lieutenant	-11.1526
▁destination	-11.1529
▁brick	-11.153
▁contribution	-11.153
▁barrier	-11.1531
▁exceed	-11.1534
▁retreat	-11.1537
▁payment	-11.154
▁sessions	-11.1545
▁sponsors	-11.1548
▁melt	-11.1551
▁laser	-11.1554
▁defender	-11.1554
▁practices	-11.1557
▁inspector	-11.1575
▁smile	-11.1583
▁stabilize	-11.1591
▁anonymous	-11.1592
▁obvious	-11.1595
▁commitments	-11.1595
▁exclusive	-11.1596
▁cab	-11.16
▁dated	-11.1601
▁loose	-11.1604
▁doubts	-11.1605
▁enforce	-11.1609
▁swap	-11.1609
▁lance	-11.1626
▁niger	-11.1627
manuel	-11.1627
▁voluntar	-11.1628
▁artillery	-11.1628
▁baquba	-11.1628
▁captivity	-11.1628
▁clooney	-11.1628
▁collision	-11.1628
▁condolence	-11.1628
▁douglas	-11.1628
▁entitl	-11.1628
▁laureate	-11.1628
▁lopez	-11.1628
▁nebraska	-11.1628
▁phenomenon	-11.1628
▁pistol	-11.1628
▁plummet	-11.1628
▁propaganda	-11.1628
▁protocol	-11.1628
▁reaffirm	-11.1628
▁spokesperson	-11.1628
▁transparent	-11.1628
▁waziristan	-11.1628
▁mystery	-11.1628
▁stewart	-11.1628
▁chosun	-11.1628
▁melbourne	-11.1628
▁trash	-11.1628
▁salmonella	-11.1628
▁aziz	-11.1628
▁ankle	-11.1628
▁throne	-11.1628
▁glori	-11.1628
▁gyeonggi	-11.1628
▁happiness	-11.1628
▁mcdonald	-11.1628
▁rehabilitation	-11.1628
▁fatalities	-11.1628
▁railroad	-11.1628
aught	-11.1629
▁predominant	-11.1629
▁imf	-11.1629
▁ownership	-11.1629
▁mdc	-11.1629
▁deutsch	-11.163
▁phillip	-11.163
▁oak	-11.1631
▁greenland	-11.1632
▁sophisticated	-11.1633
▁eliminate	-11.1634
▁hwan	-11.1634
▁bali	-11.1634
▁1945	-11.1636
▁prefecture	-11.1638
viel	-11.1638
▁aggression	-11.164
▁cheaper	-11.164
▁implications	-11.1641
▁pants	-11.1644
▁kh	-11.1646
▁reasonable	-11.1647
▁propell	-11.165
▁cambodian	-11.1651
▁filing	-11.1651
thy	-11.1651
▁nigerian	-11.1654
▁hardest	-11.1655
▁stemm	-11.1662
▁locals	-11.1662
gotten	-11.1665
▁rick	-11.1671
▁archaeologists	-11.1673
▁trans	-11.1673
▁inner	-11.1673
▁outlaw	-11.1677
▁handled	-11.1681
▁neighborhoods	-11.1684
▁jacque	-11.169
▁helps	-11.1693
▁hassan	-11.1707
▁celebrations	-11.1709
▁java	-11.1711
▁wildfires	-11.1712
▁stunning	-11.1713
▁hawking	-11.1716
▁comb	-11.1721
red	-11.1721
her	-11.1727
▁donors	-11.1738
▁mothers	-11.1743
suf	-11.1743
▁easter	-11.1744
▁bull	-11.1747
▁shame	-11.1748
▁imp	-11.1751
lene	-11.1754
pi	-11.1763
▁venues	-11.1767
▁performances	-11.1771
▁shirts	-11.1774
▁interesting	-11.1774
mon	-11.1776
▁rak	-11.1784
town	-11.1789
▁drinks	-11.179
▁capt	-11.18
▁rebound	-11.1804
ig	-11.1815
▁chairs	-11.1818
▁persons	-11.1848
apping	-11.1851
▁cub	-11.1859
▁96	-11.1862
▁replac	-11.1863
▁impos	-11.1867
▁acquire	-11.187
▁annually	-11.1877
▁circle	-11.1877
▁gonn	-11.188
▁slum	-11.1882
▁runners	-11.1891
▁asteroid	-11.1896
▁chicken	-11.1899
tta	-11.19
▁creature	-11.19
▁medication	-11.1901
▁kilometer	-11.1902
▁preparation	-11.1904
baradei	-11.1905
▁reopen	-11.1909
▁relationships	-11.1909
▁ag	-11.191
▁gaining	-11.191
▁pun	-11.1913
enos	-11.1926
si	-11.1939
▁jointly	-11.1942
▁hawk	-11.1947
▁suits	-11.1953
▁choices	-11.1958
▁characteriz	-11.1959
nati	-11.196
ima	-11.1961
▁careful	-11.197
▁steam	-11.1975
▁oscars	-11.1983
▁silv	-11.1983
▁135	-11.1985
▁possess	-11.1995
ullah	-11.1995
▁rais	-11.1997
▁blind	-11.1997
▁tayyi	-11.1998
▁grim	-11.1998
▁applicants	-11.1998
▁challenging	-11.1998
▁frustrate	-11.1998
▁glasgow	-11.1998
▁hariri	-11.1998
▁intensive	-11.1998
▁jirga	-11.1998
▁mastermind	-11.1998
▁patience	-11.1998
▁stearns	-11.1998
▁harvey	-11.1998
▁junior	-11.1998
▁pioneer	-11.1998
▁refrain	-11.1998
▁thwart	-11.1998
▁ftse	-11.1998
▁historian	-11.1998
▁logistic	-11.1998
▁domain	-11.1998
▁embezzlement	-11.1998
▁fujimori	-11.1998
▁oath	-11.1998
▁simultaneous	-11.1998
▁studied	-11.1998
▁shelves	-11.1998
▁indictment	-11.1999
▁janeiro	-11.1999
▁liberty	-11.1999
▁holland	-11.1999
▁lodge	-11.1999
▁cinc	-11.1999
▁decree	-11.1999
▁bosnia	-11.1999
▁stanley	-11.1999
▁milestone	-11.1999
▁victories	-11.2
▁slush	-11.2
▁friendship	-11.2
▁2014	-11.2
▁circuit	-11.2
▁sentencing	-11.2
▁editorial	-11.2
gar	-11.2001
▁fu	-11.2001
▁exhibition	-11.2001
▁weakness	-11.2001
80	-11.2002
▁respirator	-11.2003
▁restraint	-11.2003
▁mediator	-11.2003
▁comeback	-11.2003
▁constitute	-11.2004
▁hormone	-11.2005
▁dug	-11.2005
▁antarctica	-11.2007
▁ignore	-11.2007
▁layoffs	-11.2008
▁formation	-11.2008
▁ethics	-11.2008
▁spitz	-11.201
▁passion	-11.2011
▁unanimously	-11.2012
▁neil	-11.2019
▁900	-11.2021
▁goldman	-11.2021
▁julie	-11.2022
▁reserves	-11.2022
▁beaches	-11.2023
▁tactics	-11.2026
▁fre	-11.2027
▁inspire	-11.2036
▁consumed	-11.2037
▁meals	-11.2045
▁retaliati	-11.2047
soo	-11.2048
▁qu	-11.2054
ato	-11.2063
▁carl	-11.2067
▁issu	-11.2071
▁shipments	-11.2071
▁ab	-11.2074
▁tribes	-11.2075
▁settled	-11.2075
▁roy	-11.2078
▁hy	-11.2087
lan	-11.2089
▁60000	-11.2092
▁quarterfinals	-11.2094
▁complaining	-11.2098
ow	-11.2098
▁popp	-11.21
▁oppos	-11.2111
▁languages	-11.2117
och	-11.2124
▁dominica	-11.2132
sian	-11.2134
hn	-11.2136
lateral	-11.2137
▁discover	-11.2146
convinced	-11.2153
ki	-11.2165
let	-11.2177
▁function	-11.2183
▁await	-11.2184
▁experiments	-11.2184
▁strengthening	-11.2184
ario	-11.2184
▁scor	-11.2204
▁sk	-11.221
▁anna	-11.2227
▁critic	-11.2264
▁conclude	-11.2266
sumption	-11.2266
▁surviv	-11.2272
▁scenario	-11.2279
▁pension	-11.2281
▁motive	-11.2281
down	-11.2282
▁elephant	-11.2285
▁quarterfinal	-11.2285
▁odd	-11.2286
▁negotiation	-11.2289
▁fingerprint	-11.2289
▁stated	-11.2289
▁restart	-11.229
▁manufacturer	-11.2291
disclosed	-11.2292
chang	-11.2296
▁stunn	-11.2302
ito	-11.2306
▁cry	-11.2307
▁batter	-11.234
▁answered	-11.2344
▁smooth	-11.2348
ji	-11.2355
lick	-11.2356
▁intervene	-11.2361
▁plunge	-11.2361
▁monarch	-11.2362
▁stud	-11.2366
▁ranger	-11.2367
▁thoughts	-11.2369
▁choos	-11.2369
▁concerts	-11.2371
▁exchanges	-11.2374
▁hir	-11.2375
▁interpret	-11.2375
dwin	-11.2376
hner	-11.2377
▁acquisition	-11.2383
▁arkansas	-11.2383
▁brilliant	-11.2383
▁cairo	-11.2383
▁dokdo	-11.2383
▁franchise	-11.2383
▁holocaust	-11.2383
▁kazakhstan	-11.2383
▁kcna	-11.2383
▁monica	-11.2383
▁peanut	-11.2383
▁psychologist	-11.2383
▁rhode	-11.2383
▁smell	-11.2383
▁starbucks	-11.2383
▁sunshine	-11.2383
▁transcript	-11.2383
▁transparency	-11.2383
▁vacuum	-11.2383
▁vershbow	-11.2383
▁shadow	-11.2383
▁drastic	-11.2383
▁flexible	-11.2383
▁cousin	-11.2383
▁memories	-11.2383
▁premium	-11.2383
▁cattle	-11.2383
▁leonard	-11.2383
▁nightclub	-11.2383
▁isolation	-11.2383
▁extent	-11.2383
▁terrible	-11.2383
▁curious	-11.2383
▁awake	-11.2383
▁downturn	-11.2383
▁emba	-11.2383
▁petersburg	-11.2384
▁ourselves	-11.2384
▁xvi	-11.2384
van	-11.2384
▁parole	-11.2384
▁garage	-11.2384
▁harmful	-11.2384
▁1953	-11.2384
▁segment	-11.2384
▁faithful	-11.2384
▁afp	-11.2384
▁consist	-11.2385
▁batteries	-11.2385
▁pageant	-11.2385
▁couch	-11.2385
▁sensitivity	-11.2385
▁swim	-11.2385
▁kwon	-11.2385
▁knife	-11.2385
▁robotic	-11.2386
▁1984	-11.2386
▁romance	-11.2387
▁pink	-11.2387
▁minus	-11.2387
▁representation	-11.2387
gravity	-11.2388
▁decisive	-11.2388
▁lima	-11.239
▁gyeong	-11.2391
▁tuck	-11.2391
▁kara	-11.2392
▁motivated	-11.2394
chenko	-11.2396
▁rein	-11.2396
▁progressive	-11.2396
▁shoppers	-11.2397
▁busan	-11.2397
▁knut	-11.2397
▁imprisoned	-11.2399
▁drowned	-11.2399
▁usfk	-11.24
▁pois	-11.24
▁bribes	-11.2401
▁incentives	-11.2412
▁roar	-11.2416
▁flare	-11.2422
air	-11.2423
▁prostitutes	-11.2424
▁binding	-11.2425
▁deeper	-11.2428
▁jiang	-11.243
▁pile	-11.2431
ities	-11.2433
▁speeches	-11.2433
▁grenades	-11.2448
▁releases	-11.2448
▁recommendations	-11.2451
▁sheets	-11.2453
ver	-11.246
▁sooner	-11.2462
▁reviewed	-11.2462
egu	-11.2464
▁yush	-11.2465
▁cigarettes	-11.247
▁cartoons	-11.2473
▁christi	-11.2474
▁aftershocks	-11.2474
▁bearing	-11.2476
▁creatures	-11.2486
▁fal	-11.2487
▁94	-11.2502
▁incheon	-11.2503
▁zan	-11.2514
▁mess	-11.2518
ux	-11.2524
▁sharks	-11.2541
▁scare	-11.2544
▁cu	-11.2554
▁aires	-11.2557
▁spice	-11.2557
▁cit	-11.2561
16	-11.2562
▁weakened	-11.2566
▁weighed	-11.2566
▁115	-11.2571
rmal	-11.2579
ita	-11.2581
▁tropic	-11.2586
tv	-11.2587
▁encounter	-11.2592
top	-11.2594
put	-11.2594
▁bann	-11.2595
▁implemented	-11.2608
▁91	-11.2609
ara	-11.2616
▁choi	-11.2616
els	-11.2621
▁im	-11.2627
▁quote	-11.2629
▁kil	-11.263
▁justices	-11.2631
ipped	-11.2633
▁bio	-11.2642
▁cd	-11.2643
▁nest	-11.2651
▁container	-11.2654
▁sacrifice	-11.2656
▁uncertaint	-11.2661
▁feelings	-11.2663
can	-11.2665
▁1200	-11.2667
▁abused	-11.2669
▁gro	-11.2672
▁website	-11.2679
▁casino	-11.2682
▁outdoor	-11.2683
▁disruption	-11.2684
▁chas	-11.2685
▁gonzale	-11.2686
▁secrets	-11.2686
space	-11.2686
▁ver	-11.2688
▁russians	-11.2692
▁abolish	-11.2693
▁prayer	-11.2694
▁chips	-11.2694
▁shake	-11.2701
▁poses	-11.2702
▁horse	-11.2702
▁rap	-11.2703
▁pipe	-11.2707
▁finger	-11.2708
▁murdered	-11.2709
otic	-11.2718
▁cop	-11.272
yang	-11.2724
res	-11.2726
▁medicines	-11.2727
▁races	-11.2732
▁fence	-11.2739
▁networking	-11.2741
▁adam	-11.2743
▁fueled	-11.2746
ala	-11.2758
▁frame	-11.276
▁yea	-11.276
▁contents	-11.2763
▁bother	-11.2766
▁surplus	-11.2778
▁char	-11.278
▁excess	-11.2782
▁pyeong	-11.2783
▁acquitted	-11.2783
▁anthony	-11.2783
▁contingent	-11.2783
▁espionage	-11.2783
▁frankfurt	-11.2783
▁ghraib	-11.2783
▁inappropriate	-11.2783
▁irresponsible	-11.2783
▁lincoln	-11.2783
▁mccartney	-11.2783
▁psychological	-11.2783
▁sufficient	-11.2783
▁tremendous	-11.2783
▁johannesburg	-11.2783
▁tattoo	-11.2783
▁intensity	-11.2783
▁irregularities	-11.2783
▁notorious	-11.2783
▁overthrow	-11.2783
▁vista	-11.2783
▁ravag	-11.2783
▁confusion	-11.2783
▁libby	-11.2783
▁imprisonment	-11.2783
▁disgrace	-11.2783
▁tenure	-11.2783
▁excuse	-11.2783
▁premature	-11.2783
▁rift	-11.2783
▁monster	-11.2783
▁sugar	-11.2783
▁paparazzi	-11.2783
▁muq	-11.2783
▁radiation	-11.2783
▁extradition	-11.2783
▁austin	-11.2783
▁streak	-11.2784
▁easing	-11.2784
▁plotting	-11.2785
▁orthodox	-11.2785
▁courtroom	-11.2786
▁grammy	-11.2787
▁pearl	-11.2787
▁attractive	-11.2788
▁holder	-11.2789
▁eta	-11.2789
▁slash	-11.279
▁zimbabwean	-11.2793
▁diagnosed	-11.2793
▁mechanical	-11.2794
▁devil	-11.2795
▁slain	-11.2798
▁gala	-11.2799
▁bloc	-11.2801
▁viruses	-11.2803
▁mong	-11.2806
▁amend	-11.2808
▁underway	-11.281
▁safer	-11.2811
▁employers	-11.2827
▁mikh	-11.2831
▁anbar	-11.2831
▁sensor	-11.2832
aker	-11.2832
▁ashore	-11.284
▁sars	-11.2846
▁cole	-11.2846
▁outlets	-11.2849
▁liter	-11.2855
▁191	-11.2861
▁flowers	-11.2868
▁outfit	-11.2872
▁semifinals	-11.2874
▁tam	-11.2875
tten	-11.2882
▁acknowledg	-11.2883
▁lenders	-11.2884
▁beam	-11.2884
▁salt	-11.2885
▁suv	-11.2896
▁inaugura	-11.2898
dale	-11.291
▁karl	-11.2912
▁wages	-11.2915
▁ideal	-11.2918
▁browne	-11.292
mann	-11.2921
▁disclosed	-11.2921
ram	-11.2926
▁scared	-11.2926
per	-11.2929
▁organ	-11.2929
tti	-11.293
▁populations	-11.2932
ab	-11.2939
▁savings	-11.2947
▁lungs	-11.2949
▁widen	-11.2949
▁difficulty	-11.2953
▁vo	-11.2956
rod	-11.2957
▁wi	-11.2966
▁till	-11.2967
▁fitt	-11.2967
▁boris	-11.2971
ttled	-11.2972
▁pl	-11.2998
▁belong	-11.2998
ada	-11.2999
qualified	-11.3002
▁sim	-11.3007
▁um	-11.3008
▁credits	-11.3008
▁pets	-11.301
▁insult	-11.3016
▁negotiated	-11.3025
▁earthquakes	-11.3034
▁heir	-11.3044
dana	-11.3048
▁sincere	-11.3048
▁cartoon	-11.3051
▁103	-11.3053
▁permit	-11.3058
anda	-11.306
▁kar	-11.3066
▁qar	-11.3072
▁thi	-11.3073
▁reductions	-11.3079
▁globes	-11.3083
▁tumor	-11.3097
▁presentation	-11.3097
▁expense	-11.3099
▁migrant	-11.3101
▁aftershock	-11.3102
▁objective	-11.3102
▁wildfire	-11.3102
▁glacier	-11.3103
▁priest	-11.3104
▁allegation	-11.3104
▁improvement	-11.3104
old	-11.3104
▁pattern	-11.3106
▁1400	-11.3109
cliff	-11.311
▁indefinitely	-11.3111
▁relax	-11.3112
esco	-11.3115
val	-11.3115
▁soul	-11.3118
▁johnsto	-11.3121
▁bil	-11.3122
▁belt	-11.3127
▁farmer	-11.3131
▁dreams	-11.3133
▁1600	-11.3146
bar	-11.315
▁pressures	-11.3164
▁genes	-11.3168
▁225	-11.3172
▁reign	-11.3178
▁ana	-11.3183
jo	-11.3184
▁incredibl	-11.3188
▁deposit	-11.319
▁pav	-11.3191
▁fantas	-11.3196
chi	-11.3197
▁falluja	-11.3198
▁midwest	-11.3198
▁roug	-11.3199
▁brig	-11.3199
▁andpound	-11.32
▁armistice	-11.32
▁bizarre	-11.32
▁bmw	-11.32
▁damascus	-11.32
▁embassies	-11.32
▁genuine	-11.32
▁hawass	-11.32
▁intellectual	-11.32
▁interfax	-11.32
▁misdemeanor	-11.32
▁phillies	-11.32
▁profound	-11.32
▁reckless	-11.32
▁relevant	-11.32
▁rogge	-11.32
▁satisfie	-11.32
▁schneider	-11.32
▁smiling	-11.32
▁subsidiary	-11.32
▁superintendent	-11.32
▁vault	-11.32
▁kashmir	-11.32
▁laurean	-11.32
▁maradona	-11.32
▁trophy	-11.32
▁coroner	-11.32
▁qassam	-11.32
▁venus	-11.32
▁introduction	-11.32
▁woolmer	-11.32
▁farewell	-11.32
▁stumbl	-11.32
▁zhang	-11.32
▁inhabit	-11.32
▁beloved	-11.32
▁atrocities	-11.32
▁ismail	-11.32
▁sheep	-11.32
▁tamil	-11.32
▁earliest	-11.32
▁prosperity	-11.32
▁bonuses	-11.32
▁infantry	-11.32
▁jamie	-11.3201
▁addiction	-11.3201
▁colonel	-11.3201
▁dili	-11.3202
▁slot	-11.3202
▁maoist	-11.3202
▁laura	-11.3202
▁havana	-11.3202
▁iceland	-11.3204
▁collective	-11.3204
▁soft	-11.3206
▁basement	-11.3207
▁hammer	-11.3208
▁explorer	-11.3208
▁bulgarian	-11.3209
▁garb	-11.3211
▁liu	-11.3211
▁barak	-11.3214
▁brothels	-11.3214
▁counterterroris	-11.3216
▁lean	-11.3217
▁honda	-11.3218
▁watchers	-11.3219
▁portable	-11.3222
▁span	-11.3223
▁projections	-11.3225
▁strapp	-11.3226
▁dire	-11.3227
▁spurr	-11.3229
▁cac	-11.323
▁propose	-11.323
ospi	-11.3233
▁channels	-11.3233
26	-11.3233
ula	-11.3235
▁walker	-11.3235
▁facts	-11.3246
▁produces	-11.3251
▁rear	-11.3252
▁pave	-11.3253
▁luck	-11.3253
ego	-11.3256
ue	-11.3262
▁apartments	-11.3263
▁headlines	-11.3265
fc	-11.3277
▁pill	-11.328
▁cheering	-11.3281
gm	-11.3282
▁participated	-11.3282
▁directing	-11.3282
▁grabs	-11.3286
▁countryside	-11.3287
▁relaxed	-11.3288
▁bodyguards	-11.329
▁disabled	-11.3294
▁raj	-11.3296
▁criticize	-11.3299
▁crying	-11.3299
▁belongs	-11.3301
▁horses	-11.3304
▁elephants	-11.3307
ore	-11.3309
▁cle	-11.331
▁monkeys	-11.332
▁hunters	-11.3326
▁holders	-11.3334
▁tense	-11.3336
▁gifts	-11.3337
▁semi	-11.3344
▁ross	-11.3363
▁sequence	-11.337
00000	-11.3375
▁conflicts	-11.3377
▁asks	-11.3388
▁economics	-11.34
▁unite	-11.3401
30	-11.3407
▁nominat	-11.3411
▁nurs	-11.3418
▁marr	-11.3423
▁leaked	-11.3427
▁enhanc	-11.3435
▁450	-11.3436
▁independently	-11.344
▁tally	-11.3446
▁recommend	-11.3447
▁zones	-11.345
▁prizes	-11.3453
▁chemicals	-11.3465
▁sections	-11.3466
▁bullets	-11.347
▁hae	-11.347
▁fortress	-11.347
ook	-11.3473
▁shari	-11.3475
▁khali	-11.348
▁nori	-11.3487
rosa	-11.3487
▁shocking	-11.349
▁cleaner	-11.3494
oo	-11.3499
▁counterparts	-11.3509
▁emerge	-11.351
▁elder	-11.351
▁afghans	-11.3515
▁mob	-11.352
hood	-11.3528
▁crystal	-11.3529
▁semifinal	-11.353
▁throat	-11.3531
▁fossil	-11.3532
▁stronghold	-11.3533
▁administrator	-11.3534
▁toddler	-11.3534
▁alleg	-11.3535
▁filling	-11.3535
▁fruit	-11.3535
▁193	-11.3536
▁cigarette	-11.3536
▁torre	-11.3538
▁celebration	-11.3538
▁walter	-11.3539
hmer	-11.3539
▁mask	-11.3539
▁slide	-11.3541
▁dismiss	-11.3541
▁cage	-11.3543
▁caution	-11.3547
▁appoint	-11.3549
▁bobb	-11.3555
bank	-11.3559
▁blues	-11.3559
▁cy	-11.3559
▁penn	-11.356
▁retrieve	-11.357
▁hell	-11.3571
▁presid	-11.3572
▁sounded	-11.3578
▁farming	-11.359
▁112	-11.3593
▁buyer	-11.3593
▁eventual	-11.3602
▁drag	-11.3612
▁mil	-11.3621
▁districts	-11.3621
▁item	-11.3624
▁belonging	-11.3629
▁210	-11.3633
▁courage	-11.3633
▁wreck	-11.3634
▁francis	-11.3634
▁recep	-11.3634
▁arroyo	-11.3634
▁avenue	-11.3634
▁baltimore	-11.3634
▁caretaker	-11.3634
▁chocolate	-11.3634
▁cricket	-11.3634
▁deposed	-11.3634
▁glimpse	-11.3634
▁idaho	-11.3634
▁innocence	-11.3634
▁karbala	-11.3634
▁minneapolis	-11.3634
▁mysterious	-11.3634
▁reunification	-11.3634
▁sacramento	-11.3634
▁santiago	-11.3634
▁stomach	-11.3634
▁subsidies	-11.3634
▁tomatoes	-11.3634
▁umbrella	-11.3634
▁array	-11.3634
▁fidel	-11.3634
▁definition	-11.3634
▁extremism	-11.3634
▁whistle	-11.3634
▁jeffrey	-11.3634
▁osaka	-11.3634
▁oversight	-11.3634
▁powder	-11.3634
▁unchanged	-11.3634
▁uncle	-11.3634
▁siege	-11.3634
▁blunt	-11.3635
▁apec	-11.3635
▁squid	-11.3635
▁adequate	-11.3635
▁kitchen	-11.3635
▁bulk	-11.3635
▁alfred	-11.3635
▁mummy	-11.3635
▁atandt	-11.3635
▁contrary	-11.3635
▁harper	-11.3635
▁nasr	-11.3635
▁exploration	-11.3635
▁bbk	-11.3635
▁hatred	-11.3635
▁mouse	-11.3635
▁cluster	-11.3635
▁wives	-11.3636
▁healthcare	-11.3636
▁comedian	-11.3636
▁harrison	-11.3636
▁offshore	-11.3636
▁contentious	-11.3636
▁fallout	-11.3637
▁coordination	-11.3637
▁drunken	-11.3638
▁ufo	-11.3638
▁measurement	-11.3638
▁ledger	-11.3639
▁gibb	-11.3639
▁distan	-11.3639
▁rejection	-11.3639
▁voluntarily	-11.3641
▁dorm	-11.3641
▁guardian	-11.3641
▁aug	-11.3641
gb	-11.3642
▁deem	-11.3643
nintend	-11.3644
▁delight	-11.3644
▁chin	-11.3645
▁concentrated	-11.3647
▁cloned	-11.3647
▁organic	-11.3647
▁prodi	-11.3647
chum	-11.3649
▁bread	-11.3649
▁yankees	-11.365
allah	-11.3652
▁impass	-11.3652
▁chunk	-11.3653
▁autonomy	-11.3654
▁rico	-11.3655
▁koo	-11.3656
▁permitt	-11.3656
▁bible	-11.3659
▁crop	-11.3659
▁drain	-11.3659
▁toppled	-11.3659
▁bicycle	-11.366
▁deliberately	-11.3666
▁dual	-11.3671
▁highways	-11.3674
▁forever	-11.3678
▁gil	-11.3682
held	-11.3685
▁slogans	-11.3685
▁nu	-11.3693
▁divorced	-11.3694
▁barry	-11.3695
▁examiner	-11.3696
au	-11.3698
▁breeding	-11.3699
▁bout	-11.3702
▁wings	-11.3705
▁scholars	-11.3712
▁taxpayers	-11.3712
▁commemorate	-11.3716
▁tortured	-11.3716
▁prisons	-11.3719
▁forecasts	-11.372
▁rahm	-11.3721
▁priests	-11.3738
▁trials	-11.3741
▁12000	-11.3745
▁kam	-11.3756
▁hd	-11.3757
amount	-11.3757
▁hadley	-11.3759
▁pandas	-11.376
nan	-11.3761
▁troubles	-11.3769
▁ah	-11.3771
▁provok	-11.3791
▁consulting	-11.3792
▁opinions	-11.3794
▁arrange	-11.38
▁endorse	-11.3805
▁origin	-11.3805
ria	-11.3816
▁processing	-11.3817
ski	-11.3818
▁kenyans	-11.3837
▁bridges	-11.3847
▁skinn	-11.385
▁conversations	-11.3854
▁baker	-11.3855
bn	-11.3864
▁dig	-11.3867
sif	-11.3875
hen	-11.3878
▁smoker	-11.3879
▁explaining	-11.3883
▁committees	-11.3886
▁jun	-11.3888
▁zi	-11.3891
▁guarded	-11.3916
▁independents	-11.3921
▁pra	-11.3924
eng	-11.3926
▁vers	-11.3929
▁highlights	-11.3935
▁junichi	-11.395
▁organizing	-11.3955
▁arch	-11.3966
▁digit	-11.3972
▁bark	-11.3981
▁ic	-11.3982
▁exam	-11.3986
▁ceiling	-11.3986
▁protein	-11.3987
▁graphic	-11.3988
▁transmission	-11.3988
▁component	-11.399
▁bodyguard	-11.3991
▁employ	-11.3991
wi	-11.3992
▁regulation	-11.3993
▁acre	-11.3994
▁appreciate	-11.3995
▁vest	-11.3997
▁boast	-11.3999
shift	-11.4
▁lag	-11.4
▁hank	-11.4003
ms	-11.4009
▁wip	-11.401
▁compos	-11.4013
▁195	-11.4014
olo	-11.4017
▁declines	-11.4022
▁woode	-11.4027
▁jean	-11.4033
▁dot	-11.4042
▁190	-11.4052
▁basin	-11.4056
▁menu	-11.4059
▁pond	-11.4061
▁guatemala	-11.4064
▁reli	-11.4065
▁frost	-11.4066
▁romania	-11.4072
▁estonia	-11.4072
▁pin	-11.4072
▁spare	-11.4074
▁developments	-11.4076
▁booked	-11.4079
▁tapes	-11.4079
▁explore	-11.408
▁column	-11.4085
napolis	-11.4087
▁recess	-11.4087
itz	-11.4089
▁abrupt	-11.4089
responsibilities	-11.4089
▁database	-11.4089
▁diminish	-11.4089
▁fahrenheit	-11.4089
▁frustration	-11.4089
▁handgun	-11.4089
▁harvest	-11.4089
▁identities	-11.4089
▁illicit	-11.4089
▁immune	-11.4089
▁lhasa	-11.4089
▁lpga	-11.4089
▁ministries	-11.4089
▁multinational	-11.4089
▁negroponte	-11.4089
▁pharmaceutical	-11.4089
▁polaroid	-11.4089
▁portrait	-11.4089
▁recount	-11.4089
▁suharto	-11.4089
▁sumatra	-11.4089
▁taipei	-11.4089
▁ukrainian	-11.4089
▁undecided	-11.4089
▁venice	-11.4089
▁anxious	-11.4089
▁identification	-11.4089
▁disappointment	-11.4089
▁depriv	-11.4089
▁provocative	-11.4089
▁dwindl	-11.4089
▁sachs	-11.4089
▁quartet	-11.4089
▁federline	-11.4089
▁fitzg	-11.4089
▁gambling	-11.4089
▁properties	-11.4089
▁frontrunner	-11.4089
▁priorities	-11.4089
▁collins	-11.4089
▁discrimination	-11.4089
▁perception	-11.4089
▁greenspan	-11.4089
▁jewelry	-11.4089
▁masri	-11.4089
▁dependent	-11.4089
▁levinson	-11.409
▁supervision	-11.409
▁gps	-11.409
▁reception	-11.409
▁batch	-11.409
▁informant	-11.409
▁unconscious	-11.409
▁interstate	-11.409
▁click	-11.409
▁hover	-11.4091
▁solomon	-11.4091
▁condemnation	-11.4091
▁midday	-11.4091
▁stunt	-11.4092
▁yale	-11.4092
▁duke	-11.4092
▁lennon	-11.4092
▁fantastic	-11.4093
▁slavery	-11.4093
▁steadily	-11.4093
▁mccon	-11.4093
▁rehab	-11.4093
▁ugly	-11.4093
▁answers	-11.4094
▁showdown	-11.4094
▁overweight	-11.4096
▁serena	-11.4096
lam	-11.4097
▁bidding	-11.4102
▁sharon	-11.4102
▁conceded	-11.4106
▁hire	-11.4107
lecommunications	-11.4109
▁dominate	-11.4109
▁neal	-11.4109
▁superb	-11.4112
▁colony	-11.4113
aid	-11.4116
▁barely	-11.4116
▁hung	-11.4117
▁leone	-11.4118
▁gorillas	-11.4119
▁procession	-11.4126
xel	-11.4129
▁bp	-11.4132
▁monte	-11.4135
▁topic	-11.4137
▁economically	-11.414
▁arrangements	-11.4142
▁addresses	-11.4144
▁debates	-11.4145
ai	-11.4151
▁preferr	-11.4153
▁installations	-11.4156
▁committ	-11.4164
▁goh	-11.4165
ility	-11.4165
uri	-11.4184
▁mat	-11.4186
▁reliev	-11.4186
▁defined	-11.4186
▁cheers	-11.419
▁pills	-11.4194
▁elders	-11.4195
▁bombed	-11.4195
▁campaigners	-11.4195
▁ferrer	-11.4201
oka	-11.4203
▁bees	-11.4206
izing	-11.421
▁migrants	-11.4213
▁bore	-11.4217
▁cooking	-11.4227
▁designers	-11.4228
▁speaks	-11.423
▁holed	-11.423
▁uncertain	-11.423
▁ears	-11.4238
▁honors	-11.4242
▁iranians	-11.4245
▁muscles	-11.4249
▁acquir	-11.425
▁treasure	-11.4252
▁tag	-11.4256
▁screens	-11.4258
▁laptops	-11.4258
▁uniforms	-11.4263
tina	-11.4263
▁deliberate	-11.4275
kov	-11.4288
▁gmt	-11.429
▁126	-11.429
▁tone	-11.429
▁casualt	-11.4292
▁rats	-11.4294
▁neo	-11.4294
cover	-11.4299
▁strengthened	-11.4309
▁seeming	-11.4311
▁buck	-11.4311
▁edg	-11.4314
▁jur	-11.432
apped	-11.4321
▁compil	-11.4324
▁marriages	-11.4326
▁impressi	-11.4327
▁tan	-11.4327
▁wat	-11.4352
sburg	-11.4353
▁avoided	-11.4354
uki	-11.4372
▁val	-11.4374
▁pcs	-11.4375
▁hopefuls	-11.4376
▁triple	-11.4377
▁em	-11.4378
▁poison	-11.4383
ification	-11.4385
▁cheer	-11.4386
▁contacts	-11.4389
▁breath	-11.4404
▁controll	-11.4408
▁organize	-11.4413
▁bust	-11.4413
▁compare	-11.4414
▁lap	-11.4418
▁timing	-11.4422
▁greg	-11.4423
▁corn	-11.443
uda	-11.4433
ise	-11.4443
▁adventure	-11.4451
▁initiat	-11.4454
▁ny	-11.4457
▁breast	-11.446
power	-11.446
▁grab	-11.4461
▁script	-11.4461
▁climber	-11.4461
▁evaluation	-11.4462
▁outline	-11.4463
▁assertion	-11.4466
▁premiere	-11.4467
▁balloon	-11.4467
▁immigrant	-11.4468
▁tribe	-11.4468
▁filmmaker	-11.4469
specifi	-11.4469
▁lakes	-11.447
▁liver	-11.4471
▁flick	-11.4473
point	-11.4473
▁swallow	-11.4475
▁qualify	-11.4475
cheong	-11.4475
▁sanction	-11.4475
ference	-11.4476
▁smash	-11.4478
▁advances	-11.4479
▁trademark	-11.4479
ew	-11.4481
▁hom	-11.4485
▁favorites	-11.4485
aware	-11.4486
mm	-11.4489
▁lak	-11.449
▁generations	-11.4495
vin	-11.4495
▁pakistanis	-11.4495
▁drought	-11.4499
▁infiltrat	-11.4501
ill	-11.4508
scope	-11.4525
▁accurate	-11.4528
▁citi	-11.4534
▁tent	-11.4542
▁invite	-11.4544
▁autonom	-11.4545
▁grip	-11.4545
▁bet	-11.4546
▁chill	-11.4546
▁flin	-11.4547
▁ethiopia	-11.4549
ru	-11.455
▁croatia	-11.455
ino	-11.4558
▁investigati	-11.4562
▁municipal	-11.4564
▁bench	-11.4564
aiss	-11.4564
▁confine	-11.4565
▁cinema	-11.4565
▁battalion	-11.4565
▁berkeley	-11.4565
▁cosmonaut	-11.4565
▁escalating	-11.4565
▁facial	-11.4565
▁gallery	-11.4565
▁jazeera	-11.4565
▁kathmandu	-11.4565
▁merchant	-11.4565
▁miliband	-11.4565
▁millenni	-11.4565
▁quarantine	-11.4565
▁scrutiny	-11.4565
▁seafood	-11.4565
▁tycoon	-11.4565
▁zarqawi	-11.4565
▁apollo	-11.4565
▁implant	-11.4565
▁observatory	-11.4565
▁staple	-11.4565
▁luggage	-11.4565
▁wield	-11.4565
▁persistent	-11.4565
▁oxford	-11.4565
▁armstrong	-11.4565
▁malawi	-11.4565
▁poultry	-11.4565
▁unilateral	-11.4565
▁youssif	-11.4565
▁boulder	-11.4565
▁mislead	-11.4565
▁overlook	-11.4565
▁verification	-11.4565
▁broadband	-11.4565
▁glad	-11.4565
▁piano	-11.4565
▁garcia	-11.4565
▁keith	-11.4565
▁fragile	-11.4565
▁assurance	-11.4566
▁basque	-11.4566
▁claren	-11.4566
▁foley	-11.4566
▁ashle	-11.4566
▁shwe	-11.4566
▁workforce	-11.4566
▁dictatorship	-11.4566
▁dentist	-11.4566
▁blake	-11.4566
▁himalaya	-11.4566
▁terrain	-11.4566
▁flock	-11.4566
▁underwear	-11.4566
▁hick	-11.4566
▁wander	-11.4567
▁quest	-11.4567
▁fann	-11.4567
▁literally	-11.4567
▁1949	-11.4567
▁qualifier	-11.4567
▁soften	-11.4567
▁00	-11.4568
▁programming	-11.4568
▁emanuel	-11.4569
▁harmony	-11.4569
▁establishment	-11.4569
▁dragon	-11.4569
▁utter	-11.4569
▁lineup	-11.4569
▁darkness	-11.457
▁1910	-11.457
▁tainted	-11.4572
▁atleti	-11.4572
▁trader	-11.4573
▁fiction	-11.4574
▁affordable	-11.4574
▁makeup	-11.4575
▁contaminated	-11.4576
▁extract	-11.4579
▁owen	-11.4581
▁creator	-11.4585
▁upheld	-11.4585
▁biden	-11.4589
▁tender	-11.459
▁helpful	-11.4591
▁gill	-11.4592
▁anyway	-11.4592
▁paralyzed	-11.4596
yodo	-11.4596
▁fold	-11.4599
▁publicity	-11.4601
▁rever	-11.4602
▁marc	-11.4603
▁lucas	-11.4607
▁accidentally	-11.461
▁sacked	-11.4611
▁airliner	-11.4613
▁lawn	-11.4614
▁textbooks	-11.4616
▁congressman	-11.4616
▁para	-11.462
▁liais	-11.4622
▁tumbled	-11.4624
▁billy	-11.4626
▁counting	-11.4627
▁chronic	-11.4628
▁recycling	-11.463
▁requirements	-11.4631
▁exporters	-11.4632
sef	-11.4633
▁sox	-11.4635
▁sketch	-11.4647
▁pigs	-11.465
▁spike	-11.4655
▁habits	-11.4657
▁ol	-11.4657
▁balanced	-11.4658
ire	-11.4659
▁plains	-11.466
▁dell	-11.4666
1000	-11.4674
▁fier	-11.468
▁adams	-11.4684
▁educat	-11.4685
▁bash	-11.4687
▁assum	-11.4694
▁offend	-11.4701
▁cre	-11.4711
▁embryos	-11.4713
▁substances	-11.4713
▁riders	-11.4714
▁backers	-11.4723
▁winger	-11.4727
▁novels	-11.4738
▁ignit	-11.4738
▁separatists	-11.4743
▁math	-11.4748
▁tongue	-11.475
▁165	-11.4764
▁intel	-11.4767
▁photographed	-11.4774
▁seasonal	-11.478
▁passports	-11.4782
▁nah	-11.4784
▁proven	-11.4785
▁ut	-11.4798
▁fur	-11.4798
▁wheels	-11.4801
▁bok	-11.4805
aki	-11.4808
set	-11.4811
▁risky	-11.4822
fish	-11.4824
▁tut	-11.4824
▁240	-11.4826
▁rubber	-11.4829
▁fixing	-11.4832
▁cables	-11.4832
▁carriers	-11.4832
▁resemble	-11.4837
▁mori	-11.484
etic	-11.4841
▁orchestrat	-11.4843
▁bart	-11.4855
▁errors	-11.4861
▁comet	-11.4866
▁slowing	-11.487
ova	-11.4878
ique	-11.4881
▁shoulders	-11.4886
▁layer	-11.4888
hill	-11.4888
fo	-11.4889
▁remembered	-11.4896
▁shre	-11.4904
maker	-11.4913
▁experiences	-11.4914
▁rioting	-11.4915
▁plac	-11.4919
▁6000	-11.4922
▁mode	-11.4923
▁ste	-11.4927
▁hamburg	-11.4935
▁medi	-11.4946
dp	-11.495
▁outbreaks	-11.4951
35	-11.4955
▁complet	-11.4955
▁ratio	-11.4956
▁guitar	-11.4956
▁bran	-11.4957
▁achiev	-11.4959
dium	-11.4959
▁pocket	-11.4962
▁conglomerate	-11.4963
lm	-11.4964
▁classroom	-11.4967
▁transaction	-11.4968
▁massage	-11.4968
▁captive	-11.4969
▁jimm	-11.497
▁commuter	-11.497
some	-11.4973
▁contender	-11.4974
▁shipment	-11.4974
▁oust	-11.4974
▁embarrass	-11.4975
planes	-11.4975
▁infect	-11.4977
rank	-11.4979
▁debts	-11.4986
▁accelerate	-11.499
▁skill	-11.4993
away	-11.4993
▁plain	-11.4993
dis	-11.4996
▁pirate	-11.4997
▁lender	-11.4997
▁convene	-11.5002
▁agrees	-11.5003
▁catholics	-11.5007
▁colors	-11.5007
▁196	-11.5009
▁lover	-11.5015
oon	-11.5031
▁pi	-11.5031
▁unfortunate	-11.5032
▁bros	-11.5033
▁internationally	-11.504
▁victor	-11.5041
▁necessar	-11.5044
▁disperse	-11.5047
▁algeria	-11.5049
▁qui	-11.5051
▁imperial	-11.5054
nne	-11.5059
▁aborigin	-11.506
▁significan	-11.5061
▁associates	-11.5062
nprofit	-11.5065
▁abraham	-11.5065
▁albatross	-11.5065
▁applause	-11.5065
▁biofuel	-11.5065
▁calendar	-11.5065
▁canberra	-11.5065
▁categories	-11.5065
▁chapel	-11.5065
▁collapsing	-11.5065
▁commonwealth	-11.5065
▁curator	-11.5065
▁exxon	-11.5065
▁gossip	-11.5065
▁griffin	-11.5065
▁intact	-11.5065
▁juvenile	-11.5065
▁keynote	-11.5065
▁mediterranean	-11.5065
▁newcastle	-11.5065
▁prototype	-11.5065
▁scuffle	-11.5065
▁stalemate	-11.5065
▁wheelchair	-11.5065
▁wyoming	-11.5065
▁disclosure	-11.5065
▁intelligent	-11.5065
▁pretend	-11.5065
▁replied	-11.5065
▁eleven	-11.5065
▁wrist	-11.5065
▁lesbian	-11.5065
▁solidarity	-11.5065
▁spouse	-11.5065
▁cecilia	-11.5065
▁itunes	-11.5065
▁rogue	-11.5065
▁strife	-11.5065
▁zheng	-11.5065
▁franco	-11.5066
▁torrent	-11.5066
▁klein	-11.5066
▁kwang	-11.5066
▁collaboration	-11.5067
bhumi	-11.5067
▁dementia	-11.5067
▁childhood	-11.5068
▁disarm	-11.5068
▁bias	-11.5068
▁swear	-11.5068
▁cordon	-11.5068
▁disposal	-11.5069
▁referee	-11.5069
▁attendance	-11.5069
▁kiev	-11.5069
▁logo	-11.5071
▁township	-11.5071
▁acceptance	-11.5072
▁1985	-11.5072
▁fertility	-11.5073
▁discharged	-11.5074
▁gator	-11.5074
▁wii	-11.5075
▁2050	-11.5076
▁predator	-11.5076
▁thriller	-11.508
▁daylight	-11.5085
▁efficiency	-11.5087
▁poorest	-11.5087
▁justin	-11.5088
dominant	-11.5088
▁dar	-11.5089
▁accidental	-11.5095
▁observe	-11.5096
▁tenor	-11.5096
▁staffers	-11.5097
▁respects	-11.5097
▁80000	-11.5098
eb	-11.51
▁spann	-11.51
▁haniy	-11.5103
▁djo	-11.5106
▁kare	-11.5107
▁screaming	-11.511
▁evans	-11.511
▁tur	-11.5113
▁inspiration	-11.5116
iko	-11.5121
▁conservationist	-11.5124
▁rated	-11.513
▁nichol	-11.5135
▁observed	-11.5136
mmy	-11.514
▁xi	-11.5143
▁dinosaurs	-11.5144
▁attractions	-11.5145
▁expires	-11.5146
▁ros	-11.5147
▁albanians	-11.5149
▁fla	-11.5153
▁discs	-11.5155
▁rattl	-11.5156
▁com	-11.5157
▁nickname	-11.5157
▁cartel	-11.5157
▁composer	-11.5162
▁arabian	-11.5164
▁commuters	-11.5166
▁males	-11.5173
▁awaited	-11.518
understood	-11.5187
▁vincen	-11.5188
▁seasons	-11.5193
▁graves	-11.5196
ert	-11.5202
▁bands	-11.5206
▁sc	-11.521
▁enterprises	-11.5211
▁inland	-11.5212
▁dealer	-11.5216
▁serbs	-11.5216
▁cro	-11.522
arov	-11.5222
ring	-11.5223
▁chased	-11.5225
▁pri	-11.5228
▁techniques	-11.5232
▁packages	-11.5236
▁chanting	-11.5236
▁habit	-11.5237
▁cafes	-11.5238
▁donat	-11.5247
▁painting	-11.5252
▁infections	-11.5258
sky	-11.5259
▁hook	-11.5263
▁apologi	-11.5273
▁australians	-11.5277
▁towers	-11.5279
▁jeff	-11.5289
▁280	-11.5294
▁indications	-11.5294
▁claus	-11.53
▁designate	-11.5305
▁requir	-11.5307
ira	-11.5309
▁lecture	-11.531
ative	-11.531
▁brains	-11.5318
▁194	-11.5326
▁greatly	-11.5328
▁revenues	-11.533
vy	-11.5331
▁tar	-11.5331
▁governors	-11.5332
▁finances	-11.5334
▁div	-11.5336
▁bypass	-11.5342
▁lander	-11.5344
▁dumping	-11.5346
▁shipp	-11.5348
uous	-11.535
▁structures	-11.5351
▁clouds	-11.5362
▁commands	-11.5363
tel	-11.5373
mura	-11.5375
▁kay	-11.5381
▁naturally	-11.5382
▁cri	-11.5389
state	-11.5392
▁reactors	-11.5392
cc	-11.5394
▁za	-11.5398
▁si	-11.5407
▁01	-11.5414
▁erect	-11.5421
▁tri	-11.5424
▁travels	-11.5435
▁temp	-11.5446
▁kicks	-11.5449
▁nail	-11.5458
lese	-11.546
▁sai	-11.5473
▁hid	-11.5475
bound	-11.5476
lis	-11.5478
▁aspect	-11.5484
▁companion	-11.5487
▁homicide	-11.5489
▁blockbuster	-11.549
▁exercises	-11.5493
▁substanti	-11.5494
▁shareholder	-11.5494
▁extremist	-11.5494
▁inspect	-11.5498
▁mario	-11.5502
▁julia	-11.5503
cute	-11.5505
ible	-11.5508
▁seas	-11.551
▁expression	-11.5511
▁scal	-11.5517
▁pak	-11.5518
grid	-11.552
▁rem	-11.5522
▁distinct	-11.5528
▁cope	-11.5529
▁whit	-11.554
▁sisters	-11.5541
▁ensur	-11.5543
all	-11.5544
▁portal	-11.5544
map	-11.5545
▁ci	-11.5549
▁micke	-11.5553
▁sue	-11.5554
▁rankings	-11.5557
▁dangers	-11.5557
▁absolute	-11.5558
▁neutral	-11.5559
▁flower	-11.5562
▁bump	-11.5567
▁disagree	-11.5569
zz	-11.557
▁stir	-11.5572
▁jamaica	-11.5575
oli	-11.5585
▁eva	-11.5586
▁vocal	-11.5589
▁seize	-11.559
▁impeach	-11.5591
▁amsterdam	-11.5591
▁applaud	-11.5591
▁bogota	-11.5591
▁convincing	-11.5591
▁cycling	-11.5591
▁demilitariz	-11.5591
▁deputies	-11.5591
▁embargo	-11.5591
▁emperor	-11.5591
▁engulf	-11.5591
▁evangelical	-11.5591
▁excerpt	-11.5591
▁furniture	-11.5591
▁goodwill	-11.5591
▁gorbachev	-11.5591
▁kangaroo	-11.5591
▁lauterbach	-11.5591
▁library	-11.5591
▁lifestyle	-11.5591
▁mainstream	-11.5591
▁parachute	-11.5591
▁parallel	-11.5591
▁perspective	-11.5591
▁phuket	-11.5591
▁physics	-11.5591
▁retiring	-11.5591
▁robust	-11.5591
▁rwanda	-11.5591
▁unofficial	-11.5591
▁valuable	-11.5591
▁solving	-11.5591
▁unlawful	-11.5591
▁yasukuni	-11.5591
▁animation	-11.5591
▁capabilities	-11.5591
▁evasion	-11.5591
▁forensic	-11.5591
▁jacob	-11.5591
▁cameroon	-11.5591
▁destabilize	-11.5591
▁oriented	-11.5591
▁snatch	-11.5591
▁miracle	-11.5591
▁unhapp	-11.5591
▁bipartisan	-11.5592
▁fireworks	-11.5592
▁bronze	-11.5592
▁deported	-11.5592
▁drift	-11.5592
▁thunder	-11.5592
▁rhino	-11.5592
▁munich	-11.5592
▁caffeine	-11.5592
▁differ	-11.5592
▁spree	-11.5592
▁snapped	-11.5592
▁storage	-11.5592
▁external	-11.5592
▁clerk	-11.5592
▁madison	-11.5592
▁bunch	-11.5592
▁perceiv	-11.5592
▁consulate	-11.5592
▁comparison	-11.5592
▁leaf	-11.5592
▁restoration	-11.5592
▁premise	-11.5592
▁beverage	-11.5592
▁lugo	-11.5592
▁disablement	-11.5593
▁copper	-11.5593
▁cough	-11.5593
▁constructive	-11.5593
▁authorization	-11.5593
▁bribery	-11.5593
▁qala	-11.5593
▁spider	-11.5593
▁plug	-11.5593
▁salary	-11.5593
▁cholera	-11.5593
▁discoveries	-11.5594
▁confidential	-11.5594
▁1965	-11.5595
▁chadian	-11.5596
▁trump	-11.5596
▁garner	-11.5596
▁keeper	-11.5596
▁mullah	-11.5596
▁nts	-11.5596
▁1983	-11.5596
▁truman	-11.5596
▁supermarket	-11.5597
▁blitzer	-11.5597
▁coastline	-11.5597
▁1930	-11.5598
▁justified	-11.5598
▁downplay	-11.5599
▁cream	-11.5599
▁henri	-11.56
▁interpreter	-11.5601
▁lyon	-11.5601
▁trek	-11.5602
▁peterson	-11.5602
▁keating	-11.5604
▁courthouse	-11.5604
▁therapist	-11.5605
▁diversity	-11.5606
▁prop	-11.5606
▁bubble	-11.5607
▁soap	-11.5609
▁profitable	-11.561
more	-11.5611
▁bent	-11.5611
40	-11.5615
▁lyrics	-11.5616
▁kasp	-11.5616
▁snap	-11.5617
▁notified	-11.5617
▁rim	-11.5618
▁crippl	-11.5618
▁bloggers	-11.5621
▁intervened	-11.5622
▁carla	-11.5624
▁tail	-11.5628
liness	-11.5628
▁limbs	-11.5632
▁hijacked	-11.5633
▁charr	-11.5634
▁enduring	-11.5634
▁usher	-11.5635
▁joel	-11.5635
▁soda	-11.5637
▁vick	-11.5637
▁karim	-11.5637
▁departed	-11.5638
▁beck	-11.5639
▁solo	-11.564
▁bayer	-11.5645
▁emotions	-11.5648
▁zo	-11.5653
▁advocates	-11.5654
▁bamb	-11.5655
lana	-11.5656
▁diverted	-11.5661
▁lessons	-11.5664
▁scam	-11.567
▁accelerat	-11.5671
▁ltd	-11.5673
▁mammals	-11.5675
▁crist	-11.5678
▁aggravat	-11.5678
▁pledges	-11.5682
▁eliminated	-11.5685
▁surfaced	-11.5694
▁proclaim	-11.5696
▁gust	-11.5699
ability	-11.5701
▁pancreati	-11.5702
▁balloons	-11.5702
▁josh	-11.5703
▁filmmakers	-11.5703
diane	-11.5703
▁hood	-11.5704
▁clan	-11.5705
▁waged	-11.5705
▁components	-11.5707
▁06	-11.5709
▁turks	-11.5709
eira	-11.571
fire	-11.5711
▁torres	-11.5713
▁recommends	-11.5714
wick	-11.5718
▁improvements	-11.5718
▁cm	-11.5724
▁costa	-11.5728
▁dub	-11.573
45	-11.5732
▁kissing	-11.5734
ants	-11.5734
▁medications	-11.5735
▁define	-11.5746
ping	-11.5749
▁colomb	-11.5755
▁cure	-11.5759
▁gal	-11.5762
▁plates	-11.5762
▁speeding	-11.5776
▁roofs	-11.5778
▁presents	-11.5783
▁reviews	-11.5784
uff	-11.5791
elena	-11.5792
▁metro	-11.5794
▁shields	-11.5795
▁wie	-11.58
▁outlin	-11.5807
▁dim	-11.5808
▁harmed	-11.581
ico	-11.5815
rie	-11.5816
cular	-11.5836
asha	-11.5842
nom	-11.5849
▁rand	-11.5855
▁conventional	-11.5857
tis	-11.5859
▁symbols	-11.5862
▁14000	-11.5864
▁bounc	-11.5865
▁bounce	-11.5866
▁cart	-11.5872
▁promptly	-11.5875
bility	-11.588
▁gallons	-11.5882
ane	-11.5885
60	-11.5886
oni	-11.5889
burg	-11.5891
▁leaking	-11.5894
▁operates	-11.5894
▁stricke	-11.5911
ked	-11.592
ks	-11.593
ctively	-11.5939
log	-11.5941
▁faction	-11.5943
12	-11.5949
▁appealing	-11.5952
▁inform	-11.5952
▁philosoph	-11.5964
▁hoon	-11.5966
▁ark	-11.5974
▁py	-11.5979
lla	-11.598
▁exception	-11.5985
▁doo	-11.5988
▁hoi	-11.5993
▁shiites	-11.6009
▁pal	-11.6013
▁distribut	-11.6014
ries	-11.6014
rrell	-11.6019
▁scan	-11.6021
▁sampl	-11.6022
▁recalls	-11.6025
▁update	-11.6026
▁arrivals	-11.6027
▁contested	-11.6033
▁alien	-11.6034
▁disc	-11.6038
▁sau	-11.6041
▁signature	-11.6043
▁veterinarian	-11.6043
▁frog	-11.6043
play	-11.6044
▁taxpayer	-11.6049
▁colon	-11.6049
▁scholar	-11.6049
▁recommendation	-11.605
▁cycle	-11.6052
▁defendant	-11.6053
▁sailor	-11.6053
▁defi	-11.6054
▁mates	-11.6055
▁linger	-11.6055
▁cord	-11.6056
▁cloth	-11.6057
spoken	-11.6057
▁pig	-11.6058
authorized	-11.6058
una	-11.6069
▁burk	-11.6072
rative	-11.6073
▁chuck	-11.6085
▁licenses	-11.6089
▁alter	-11.609
▁squeez	-11.609
▁singles	-11.6093
ide	-11.6095
niste	-11.6101
ery	-11.6102
42	-11.6103
▁defin	-11.611
made	-11.611
▁sto	-11.6117
▁kumar	-11.6117
tted	-11.6117
▁blessing	-11.6118
afa	-11.6118
looming	-11.612
▁nationally	-11.6121
▁guilt	-11.6126
▁assure	-11.6126
▁irritat	-11.613
oun	-11.6133
▁tournaments	-11.6134
▁loya	-11.6137
▁comput	-11.6139
ken	-11.6139
▁stre	-11.6142
▁stalinis	-11.6143
▁blank	-11.6145
▁archaeologi	-11.6146
▁veterinar	-11.6146
▁prosper	-11.6146
▁inventor	-11.6147
▁infring	-11.6147
▁bahrain	-11.6147
▁burglary	-11.6147
▁compatriot	-11.6147
▁crawford	-11.6147
▁daejeon	-11.6147
▁defence	-11.6147
▁exploring	-11.6147
▁fatigue	-11.6147
▁humiliating	-11.6147
▁ideology	-11.6147
▁immense	-11.6147
▁memorabilia	-11.6147
▁memphis	-11.6147
▁messenger	-11.6147
▁pandemic	-11.6147
▁precinct	-11.6147
▁productivity	-11.6147
▁ritual	-11.6147
▁somewhat	-11.6147
▁syndrome	-11.6147
▁testosterone	-11.6147
▁tikrit	-11.6147
▁translation	-11.6147
▁translator	-11.6147
▁unbeaten	-11.6147
▁grateful	-11.6147
▁rojas	-11.6147
▁heaven	-11.6147
▁reprocess	-11.6147
▁jerem	-11.6147
▁leather	-11.6147
▁reassure	-11.6147
▁queensland	-11.6147
▁norris	-11.6147
▁spiral	-11.6147
▁owe	-11.6147
▁sacred	-11.6147
▁confederation	-11.6147
lroo	-11.6147
▁fabio	-11.6147
▁staunch	-11.6147
▁verified	-11.6147
▁baggage	-11.6147
▁wholesale	-11.6147
▁jefferson	-11.6147
▁rigging	-11.6147
▁dadullah	-11.6147
▁lottery	-11.6147
▁shaft	-11.6147
▁sergeant	-11.6147
▁gibson	-11.6147
▁lehman	-11.6147
▁landfall	-11.6147
▁capello	-11.6148
▁seminar	-11.6148
▁tokto	-11.6148
▁lavish	-11.6148
▁sadden	-11.6148
▁cruz	-11.6148
▁dodge	-11.6148
▁grandchildren	-11.6148
▁1962	-11.6148
▁feud	-11.6148
▁recruitment	-11.6149
▁gauge	-11.6149
▁brent	-11.6149
▁weird	-11.6149
▁1968	-11.6149
▁brutality	-11.6149
▁considerably	-11.6149
ologist	-11.615
▁zap	-11.615
▁anxiety	-11.615
▁embark	-11.615
▁pullout	-11.615
▁1964	-11.6151
▁horror	-11.6151
▁kn	-11.6151
▁equality	-11.6151
▁spies	-11.6151
▁hardship	-11.6152
▁swat	-11.6152
▁cigar	-11.6152
▁outrageous	-11.6152
▁salmon	-11.6153
▁newborn	-11.6153
▁vary	-11.6153
▁splash	-11.6154
▁francois	-11.6154
▁distributor	-11.6154
▁instructor	-11.6155
▁por	-11.6155
▁forbes	-11.6155
▁hak	-11.6155
▁spectators	-11.6156
▁dies	-11.6156
▁nike	-11.6157
▁alcoholic	-11.6158
▁picket	-11.6158
▁jaw	-11.616
▁jang	-11.616
▁partisan	-11.616
▁illnesses	-11.6161
▁byeon	-11.6162
▁distribute	-11.6162
▁transformation	-11.6164
▁deliveries	-11.6165
▁mel	-11.6166
▁noise	-11.6168
▁readers	-11.6169
▁biology	-11.6171
▁digging	-11.6171
ular	-11.6174
▁klo	-11.6175
▁pub	-11.6175
▁serial	-11.6175
▁lynn	-11.6178
aron	-11.618
▁qud	-11.6181
ilo	-11.6182
▁liga	-11.6182
▁chae	-11.6184
▁cliff	-11.6184
uk	-11.6185
▁acceptable	-11.6186
▁penguins	-11.619
▁traced	-11.6192
▁roller	-11.6195
▁sightings	-11.6195
▁servants	-11.6195
▁bruis	-11.6197
▁sting	-11.6198
say	-11.62
▁disturbing	-11.6202
▁archives	-11.6207
▁decorat	-11.6207
▁swiftly	-11.6208
ins	-11.6215
▁thatcher	-11.6216
▁hampered	-11.6221
▁suppliers	-11.6224
ite	-11.6224
▁freedoms	-11.6225
▁breathe	-11.6229
▁bare	-11.6231
▁programme	-11.6231
▁descended	-11.6231
lley	-11.6234
▁cardinals	-11.6235
▁objections	-11.6236
ington	-11.6242
▁fried	-11.6242
jani	-11.6246
▁searches	-11.625
▁eld	-11.625
▁adj	-11.6256
▁din	-11.6262
▁lovers	-11.6266
▁barks	-11.627
▁combine	-11.6272
▁earning	-11.6274
▁walters	-11.6277
▁todd	-11.6278
▁kyong	-11.6282
▁mps	-11.6282
▁helen	-11.6295
tra	-11.6298
ock	-11.6303
22	-11.6305
▁listing	-11.6309
▁pedr	-11.6313
▁precautions	-11.6316
▁capitalist	-11.6318
owed	-11.6319
▁kean	-11.6343
hu	-11.6345
▁checkpoints	-11.6351
▁timo	-11.6355
▁vaccines	-11.6368
▁platforms	-11.6374
▁hurting	-11.6374
▁clap	-11.6383
hart	-11.6383
▁lucian	-11.6391
bert	-11.6392
▁rud	-11.6394
▁dav	-11.6396
▁skipp	-11.6397
▁bra	-11.6399
▁dvds	-11.6409
▁prey	-11.641
▁rout	-11.6414
▁contracting	-11.6417
▁nod	-11.6425
▁360	-11.6427
▁alma	-11.6429
▁recruits	-11.6438
▁monitored	-11.6438
▁3600	-11.6443
▁prints	-11.6444
lain	-11.6446
ennis	-11.645
▁dann	-11.6459
▁regulate	-11.6459
my	-11.6469
▁ger	-11.6474
zhou	-11.6475
wn	-11.6478
▁bor	-11.6482
▁ren	-11.6484
▁chains	-11.6485
aria	-11.649
▁pas	-11.6491
▁brac	-11.6493
seong	-11.6498
▁cooling	-11.6498
▁kas	-11.6514
▁cam	-11.6522
bra	-11.6536
▁dealings	-11.6538
▁mari	-11.654
▁winston	-11.6544
▁germans	-11.6548
▁purchases	-11.6551
19	-11.6555
▁185	-11.6557
pping	-11.6561
▁dear	-11.6561
reliable	-11.6562
8000	-11.6568
▁123	-11.6571
10	-11.6578
idf	-11.6579
▁hurl	-11.6584
▁spying	-11.6584
▁polled	-11.6591
ob	-11.6593
kin	-11.6602
▁sid	-11.6605
dong	-11.6608
▁dip	-11.6609
▁disabl	-11.661
▁underscore	-11.661
▁sensation	-11.6611
print	-11.6619
ku	-11.662
▁des	-11.6626
▁slid	-11.6626
▁defect	-11.6628
▁seizure	-11.6632
▁workplace	-11.6632
▁grain	-11.6632
▁cabin	-11.6635
▁contend	-11.6635
▁operative	-11.6636
utt	-11.6636
▁instrument	-11.6636
▁tube	-11.6639
▁grenade	-11.664
▁lend	-11.664
▁porn	-11.6641
▁suicides	-11.6643
▁enact	-11.6643
▁descend	-11.6647
▁albanian	-11.6647
scale	-11.6647
1191	-11.6652
▁surgeon	-11.6659
▁boycotted	-11.6659
▁horn	-11.6659
▁lai	-11.666
▁indoor	-11.6668
▁lov	-11.667
▁hay	-11.6674
▁155	-11.6675
▁enters	-11.6682
ctic	-11.6686
▁trauma	-11.6693
▁relieve	-11.6695
▁precise	-11.67
qui	-11.6702
inous	-11.6707
sten	-11.6708
29	-11.6712
▁interfere	-11.6713
▁concede	-11.6714
▁folk	-11.6714
▁locate	-11.6715
▁sheet	-11.6717
▁jud	-11.6717
shire	-11.6719
bas	-11.6722
▁distort	-11.6726
▁clemen	-11.6731
▁feat	-11.6732
▁sci	-11.6733
▁speakers	-11.6734
▁smuggle	-11.6735
▁embezzl	-11.6735
▁amusement	-11.6735
▁antiquities	-11.6735
▁archipelag	-11.6735
▁brisbane	-11.6735
▁capsule	-11.6735
▁currencies	-11.6735
▁deteriorating	-11.6735
▁escalation	-11.6735
▁hamilton	-11.6735
▁integrity	-11.6735
▁jupiter	-11.6735
▁khartoum	-11.6735
▁litvinenko	-11.6735
▁maintenance	-11.6735
▁marijuana	-11.6735
▁mbeki	-11.6735
▁reconsider	-11.6735
▁sorenstam	-11.6735
▁technological	-11.6735
▁trafford	-11.6735
▁vancouver	-11.6735
▁armenian	-11.6735
▁quebec	-11.6735
▁commentator	-11.6735
▁plunging	-11.6735
▁whereabouts	-11.6735
▁cpl	-11.6735
▁guangdong	-11.6735
▁guangzhou	-11.6735
▁humpback	-11.6735
▁gloom	-11.6735
▁tsonga	-11.6735
▁delicate	-11.6735
▁literature	-11.6735
▁clown	-11.6735
▁sickened	-11.6735
▁complications	-11.6735
▁dmitr	-11.6735
▁tariff	-11.6735
▁dignitar	-11.6735
▁definitive	-11.6735
▁disband	-11.6735
▁lumpur	-11.6735
▁morocco	-11.6735
▁methane	-11.6735
▁precedent	-11.6735
▁slaying	-11.6735
▁hewitt	-11.6735
▁pyeongyang	-11.6735
▁fritz	-11.6735
▁rhythm	-11.6735
▁battleground	-11.6735
▁spawn	-11.6735
▁plame	-11.6735
▁occurring	-11.6736
▁sultan	-11.6736
▁filipino	-11.6736
▁globo	-11.6736
▁defiant	-11.6736
▁luft	-11.6736
▁zahi	-11.6736
▁sluggish	-11.6736
▁stint	-11.6736
▁clutch	-11.6736
▁darling	-11.6736
▁rigged	-11.6736
▁beheaded	-11.6736
▁canyon	-11.6736
▁minorities	-11.6736
▁mourners	-11.6736
▁ferraro	-11.6736
▁funny	-11.6736
▁installment	-11.6736
▁floodwater	-11.6737
▁liquidity	-11.6737
▁descent	-11.6737
▁exploitation	-11.6737
▁checkup	-11.6737
▁roland	-11.6737
▁theories	-11.6737
▁forthcoming	-11.6737
▁kaka	-11.6737
vinen	-11.6738
luster	-11.6738
▁riza	-11.6738
▁passionate	-11.6739
▁mandel	-11.6739
acent	-11.6739
▁finalize	-11.6739
▁waiver	-11.6739
▁integration	-11.674
▁reef	-11.674
▁mtv	-11.674
▁blackout	-11.6741
▁2030	-11.6741
▁carve	-11.6741
▁pollut	-11.6741
▁hutchins	-11.6742
▁cowell	-11.6742
▁canoe	-11.6742
▁ditch	-11.6743
▁magnetic	-11.6744
▁xp	-11.6744
▁alvar	-11.6744
▁unified	-11.6744
▁jacket	-11.6745
▁baton	-11.6745
▁woke	-11.6746
▁kook	-11.6746
▁wta	-11.6747
▁occasionally	-11.6747
▁heroes	-11.6747
▁samba	-11.6748
93	-11.6749
▁overwhelmed	-11.6749
▁render	-11.6749
▁kurds	-11.675
▁incredible	-11.6752
▁sochi	-11.6753
▁depressed	-11.6754
▁artifacts	-11.6756
▁viable	-11.6757
▁middleton	-11.6759
▁gene	-11.6759
▁litter	-11.6759
rasmus	-11.6759
▁raging	-11.676
▁console	-11.6762
▁sheik	-11.6763
▁usgs	-11.6764
▁cas	-11.6764
▁grandson	-11.6765
▁gripp	-11.6767
▁therapy	-11.677
▁seo	-11.6774
▁boil	-11.6774
▁bury	-11.6775
▁theatre	-11.6779
▁liberia	-11.678
▁absorb	-11.6784
▁accessible	-11.6784
▁successes	-11.6785
▁chess	-11.6786
▁gre	-11.6789
spects	-11.679
hang	-11.6792
▁launches	-11.6793
▁shrinking	-11.6794
tu	-11.6798
tech	-11.6803
▁guaranteed	-11.6805
▁disagreements	-11.6811
▁popul	-11.6813
ified	-11.6815
▁speculated	-11.6818
▁consultations	-11.6823
▁quietly	-11.6829
▁instruments	-11.6835
▁masa	-11.6835
▁blacks	-11.6839
chen	-11.6841
6000	-11.6848
▁drives	-11.6848
▁hart	-11.685
tr	-11.6853
eval	-11.6859
▁sala	-11.6869
▁butter	-11.687
▁revived	-11.687
▁assembl	-11.6871
▁masks	-11.6872
ella	-11.6881
▁feli	-11.6886
▁tu	-11.6888
ink	-11.689
▁kath	-11.6891
▁geo	-11.6894
▁perch	-11.6894
▁broadcasts	-11.6905
▁packs	-11.691
▁pipelines	-11.6915
▁candle	-11.6919
▁jams	-11.6922
▁offenses	-11.6927
▁merit	-11.6927
▁lions	-11.6928
illa	-11.6929
▁04	-11.6933
▁warns	-11.6934
▁evacuations	-11.6939
ps	-11.6945
▁lunche	-11.6945
▁toilets	-11.6946
▁christin	-11.6954
▁maure	-11.6958
veral	-11.6975
▁mak	-11.6975
▁convictions	-11.6976
▁renounce	-11.6978
cia	-11.6983
▁yun	-11.6986
▁pga	-11.6986
▁railways	-11.6989
▁kha	-11.6995
▁104	-11.6998
tha	-11.7006
coni	-11.7015
▁sla	-11.7025
▁tick	-11.7027
▁mp	-11.7027
▁cake	-11.7032
▁trainer	-11.7036
▁plagu	-11.7044
▁breed	-11.7048
▁articles	-11.705
▁posing	-11.7052
▁lighter	-11.7059
▁custom	-11.7059
ib	-11.7062
lf	-11.7066
▁cur	-11.7067
▁pett	-11.7069
▁succeeded	-11.707
▁restor	-11.707
▁kan	-11.7079
san	-11.7084
▁105	-11.7091
▁oz	-11.71
ssell	-11.71
▁corporations	-11.7101
sch	-11.7105
▁debated	-11.7114
gon	-11.7115
▁voices	-11.7117
rous	-11.7118
nderson	-11.712
64	-11.7127
ichi	-11.7128
tun	-11.7133
▁mobil	-11.7138
rat	-11.7139
ylan	-11.7142
▁pic	-11.7143
▁guid	-11.7145
▁145	-11.7147
▁dome	-11.7153
ddy	-11.7157
mmer	-11.7166
▁disappear	-11.718
gone	-11.7195
position	-11.7195
▁mint	-11.7201
▁spect	-11.7203
unt	-11.7204
▁bend	-11.7214
uso	-11.7215
bre	-11.7215
▁mann	-11.7216
▁wag	-11.722
84	-11.723
▁blade	-11.723
▁subjects	-11.7233
▁lett	-11.724
▁md	-11.7241
uring	-11.7242
▁expire	-11.7243
sized	-11.7248
▁professionals	-11.7251
fk	-11.7253
▁thrill	-11.7253
▁ye	-11.7253
82	-11.7254
▁sup	-11.7255
▁consultant	-11.7258
▁automobile	-11.7261
18	-11.7261
▁zin	-11.7262
▁dinosaur	-11.7262
▁cardinal	-11.7262
▁element	-11.7262
▁dissident	-11.7262
▁guerrilla	-11.7263
▁obligation	-11.7263
▁mammal	-11.7263
▁resource	-11.7264
▁objection	-11.7265
▁borrow	-11.7267
▁accusation	-11.7267
productive	-11.7269
▁costly	-11.7269
▁serie	-11.727
▁rover	-11.727
gue	-11.7271
▁conceal	-11.7271
hua	-11.7271
iffe	-11.7272
related	-11.7273
book	-11.7275
▁drum	-11.7276
▁550	-11.7276
▁pap	-11.7276
▁tin	-11.7277
bow	-11.7279
▁attraction	-11.7282
▁rack	-11.7288
▁headline	-11.7289
4000	-11.7294
▁corpse	-11.7296
▁donation	-11.7298
don	-11.7302
▁visas	-11.7303
anana	-11.7305
neath	-11.7312
if	-11.7317
▁freely	-11.7323
▁carrie	-11.7329
▁tackl	-11.7331
▁xian	-11.7334
▁respective	-11.7336
▁pine	-11.7339
▁heavi	-11.7342
▁speculate	-11.7347
▁audiences	-11.7347
▁favors	-11.7348
▁contradict	-11.7348
▁capita	-11.7349
uart	-11.735
▁default	-11.735
▁kt	-11.7351
▁ivan	-11.7353
▁serge	-11.7353
▁af	-11.7356
▁contemporar	-11.7358
▁treatments	-11.7359
▁homosexual	-11.7359
▁sovereign	-11.736
▁conspir	-11.736
▁absent	-11.736
▁overshadow	-11.736
unconstitutional	-11.736
▁alkatiri	-11.736
▁archbishop	-11.736
▁azerbaijan	-11.736
▁belgrade	-11.736
▁corridor	-11.736
▁davydenko	-11.736
▁defensive	-11.736
▁diarrhea	-11.736
▁eagle	-11.736
▁genome	-11.736
▁halloween	-11.736
▁livni	-11.736
▁mogul	-11.736
▁moroccan	-11.736
▁napolitano	-11.736
▁rejoin	-11.736
▁resurgen	-11.736
▁schuster	-11.736
▁skeleton	-11.736
▁standstill	-11.736
▁temblor	-11.736
▁unearth	-11.736
▁wizard	-11.736
▁zapatero	-11.736
▁amateur	-11.736
▁backlash	-11.736
▁barracks	-11.736
▁excellent	-11.736
▁leahy	-11.736
▁resuming	-11.736
▁reunion	-11.736
▁soyuz	-11.736
▁inherit	-11.736
▁portsmouth	-11.736
▁siberia	-11.736
▁allawi	-11.736
▁deterrent	-11.736
▁justify	-11.736
▁overdose	-11.736
▁estrange	-11.736
▁felon	-11.736
▁ordeal	-11.736
▁spielberg	-11.736
▁orientation	-11.736
▁pleasure	-11.736
▁crises	-11.736
▁malibu	-11.736
▁stiles	-11.736
▁fukuda	-11.736
▁padilla	-11.736
▁annul	-11.736
▁cooperative	-11.736
▁textile	-11.736
▁ancestors	-11.736
▁meltdown	-11.736
▁inquiries	-11.7361
▁dynamic	-11.7361
▁skepticism	-11.7361
▁qatar	-11.7361
▁disturbance	-11.7361
▁urgency	-11.7361
▁podium	-11.7361
▁shortfall	-11.7361
▁irna	-11.7361
▁defiance	-11.7361
▁ridiculous	-11.7361
▁separation	-11.7361
▁hungry	-11.7361
▁intimidation	-11.7361
▁consciousness	-11.7361
▁cancelled	-11.7361
▁commodities	-11.7361
▁heavyweight	-11.7361
▁situations	-11.7361
▁finland	-11.7361
▁nhk	-11.7361
▁gigg	-11.7362
▁rebuke	-11.7362
▁credible	-11.7362
▁robinson	-11.7362
▁hanaro	-11.7362
zawa	-11.7362
▁walkout	-11.7362
▁enron	-11.7362
▁gerald	-11.7362
▁ballmer	-11.7362
▁showcase	-11.7362
▁breakdown	-11.7362
▁leverage	-11.7362
▁courageous	-11.7363
▁surname	-11.7363
▁2015	-11.7363
▁busiest	-11.7363
▁notify	-11.7363
▁warfare	-11.7363
▁quarterback	-11.7363
▁supplied	-11.7364
▁disappointing	-11.7364
▁nec	-11.7364
▁handover	-11.7364
▁fisheries	-11.7364
▁dodd	-11.7364
je	-11.7364
▁stump	-11.7364
▁penh	-11.7365
▁nile	-11.7366
▁fundraising	-11.7366
▁gag	-11.7366
▁endured	-11.7367
▁anymore	-11.7368
▁frightened	-11.7369
▁patch	-11.737
▁dismissal	-11.737
▁motivation	-11.737
▁dax	-11.737
▁paramilitar	-11.737
▁chimps	-11.737
▁drinkers	-11.737
▁suz	-11.7372
▁jem	-11.7374
▁portrayal	-11.7375
▁foul	-11.7376
▁wishes	-11.7376
igat	-11.7377
▁waterway	-11.7378
▁reap	-11.7378
▁backup	-11.7379
▁compensate	-11.7379
▁simulate	-11.7379
▁bosses	-11.738
▁algerian	-11.7381
▁yemeni	-11.7383
▁collud	-11.7384
▁zambia	-11.7384
yar	-11.7385
▁teach	-11.7387
▁zay	-11.7388
illy	-11.7388
▁1300	-11.7389
▁emphasize	-11.7389
mas	-11.7389
▁reinforcements	-11.7389
▁salaries	-11.7389
▁max	-11.7389
▁wrestl	-11.7395
▁ingredients	-11.7396
zaki	-11.7396
▁translate	-11.7397
▁particles	-11.7398
▁architects	-11.7399
▁zhu	-11.7399
▁asean	-11.74
▁qara	-11.74
▁horribl	-11.7401
▁128	-11.7408
▁performers	-11.7409
▁kidnappings	-11.7411
oi	-11.7412
▁sword	-11.7413
▁slapp	-11.7414
▁admitt	-11.7418
via	-11.7418
▁exclusively	-11.742
▁divisions	-11.7424
shmi	-11.7426
▁siblings	-11.7428
▁enabl	-11.7429
▁ruins	-11.7436
▁pur	-11.7437
pr	-11.7438
▁obstacles	-11.7441
▁facto	-11.7442
▁credi	-11.7442
▁assaulted	-11.7447
has	-11.7448
▁yass	-11.7448
schle	-11.7452
▁cheon	-11.7452
▁achievements	-11.7454
nga	-11.7457
▁automobiles	-11.746
ith	-11.7462
▁productive	-11.7462
▁sample	-11.7462
▁sy	-11.7464
▁aliens	-11.7474
▁beak	-11.7476
▁cheered	-11.748
ido	-11.7483
▁classrooms	-11.7487
▁valentin	-11.7489
▁facilitate	-11.7494
▁tents	-11.7495
ci	-11.7495
▁leaning	-11.7499
hand	-11.7502
▁functioning	-11.7515
ast	-11.7518
▁veer	-11.7519
▁seeds	-11.752
▁lim	-11.7527
95	-11.7528
fraction	-11.7529
bor	-11.7529
▁wipe	-11.7531
▁praying	-11.7532
win	-11.7534
▁alike	-11.7534
▁pit	-11.7534
▁tops	-11.7535
▁destinations	-11.7539
fan	-11.7547
▁filmed	-11.7551
▁balk	-11.7556
▁sunnis	-11.7557
▁vir	-11.756
gs	-11.7565
olla	-11.7565
▁noble	-11.7567
▁valeri	-11.7569
▁const	-11.757
▁mortars	-11.7572
▁infants	-11.7572
▁sabotage	-11.7572
▁disasters	-11.7575
for	-11.7581
▁maul	-11.7582
▁exceptional	-11.7582
▁stat	-11.7584
▁debat	-11.7585
uala	-11.7588
▁rec	-11.7591
▁amendments	-11.7591
▁crushed	-11.7596
▁maru	-11.7596
▁crumbl	-11.7597
▁hilar	-11.7599
▁gran	-11.7605
sang	-11.7606
▁hon	-11.7608
ker	-11.7612
▁wells	-11.7614
enberg	-11.7615
▁intentional	-11.7621
▁soak	-11.7629
oval	-11.7632
▁ir	-11.7634
▁killers	-11.7637
▁medals	-11.7644
▁bernie	-11.7644
▁fuji	-11.7657
▁advisors	-11.7657
▁crossings	-11.7657
▁108	-11.7658
dan	-11.7663
▁reacting	-11.7671
ax	-11.7676
▁wad	-11.7677
▁dissolv	-11.768
tana	-11.7681
▁wil	-11.77
errill	-11.7717
▁sar	-11.7719
due	-11.7738
▁temples	-11.7744
kawa	-11.7746
ovic	-11.7747
▁analyze	-11.7748
▁kat	-11.775
▁maid	-11.7751
▁closet	-11.7756
osa	-11.7776
▁reads	-11.7782
▁designs	-11.7782
▁mortgages	-11.7791
ddie	-11.7798
▁beard	-11.7798
▁nis	-11.7802
▁poorly	-11.7808
take	-11.7809
▁3200	-11.7817
▁duran	-11.782
▁adjust	-11.7834
▁blackmail	-11.7849
▁op	-11.785
▁labels	-11.7865
cker	-11.7872
▁pale	-11.7876
▁recogniz	-11.7877
xis	-11.7878
▁levi	-11.788
sour	-11.7882
▁joke	-11.7886
yev	-11.7889
▁humane	-11.7902
▁mur	-11.7905
▁suburbs	-11.7905
ros	-11.791
wide	-11.7913
room	-11.7918
▁exists	-11.7919
▁fiber	-11.792
▁deportation	-11.7922
▁stockpile	-11.7923
▁gard	-11.7923
▁certificate	-11.7925
▁concentration	-11.7925
▁monument	-11.7926
▁bishop	-11.7928
▁comic	-11.7929
▁rumor	-11.793
▁achievement	-11.793
▁installation	-11.793
▁daw	-11.7932
▁consultation	-11.7932
af	-11.7938
▁ent	-11.7938
secretary	-11.7938
▁musician	-11.7944
▁hamper	-11.7944
▁skip	-11.7945
▁expectation	-11.7945
▁relation	-11.7947
48	-11.7947
▁cana	-11.7951
▁epi	-11.7951
▁mayors	-11.7953
ming	-11.7955
▁divert	-11.7957
▁outlet	-11.7958
▁dock	-11.7963
▁trailer	-11.7964
ngue	-11.7966
▁organizer	-11.7975
▁deer	-11.7975
▁recycl	-11.7979
▁samp	-11.7979
▁stabb	-11.7981
▁mos	-11.7982
▁bless	-11.7987
▁retire	-11.7988
▁respected	-11.799
▁mcc	-11.7992
drop	-11.7993
▁minded	-11.7996
▁tele	-11.7999
▁heath	-11.8001
▁relocate	-11.8009
▁bulgaria	-11.8011
▁mas	-11.8012
▁polit	-11.8017
aah	-11.8018
ffen	-11.802
diac	-11.8022
▁versions	-11.8022
inal	-11.8022
hansa	-11.8023
lihood	-11.8025
▁charisma	-11.8026
ollywood	-11.8026
▁fascinat	-11.8027
▁unleash	-11.8027
▁affidavit	-11.8027
▁barclay	-11.8027
▁bennett	-11.8027
▁birkhead	-11.8027
▁birmingham	-11.8027
▁charlotte	-11.8027
▁credentials	-11.8027
▁criteria	-11.8027
▁dynasty	-11.8027
▁excitement	-11.8027
▁explicit	-11.8027
▁hatoyama	-11.8027
▁hectare	-11.8027
▁immunity	-11.8027
▁lawrence	-11.8027
▁malfunction	-11.8027
▁motorcade	-11.8027
▁nephew	-11.8027
▁pilgrimage	-11.8027
▁punjab	-11.8027
▁radioactive	-11.8027
▁sanchez	-11.8027
▁spacewalk	-11.8027
▁ubiquitous	-11.8027
▁valencia	-11.8027
▁wembley	-11.8027
▁xinjiang	-11.8027
▁zebari	-11.8027
▁description	-11.8027
▁festivities	-11.8027
▁paraguay	-11.8027
▁warlord	-11.8027
▁goodbye	-11.8027
▁johansson	-11.8027
▁siniora	-11.8027
▁blacklist	-11.8027
▁vinci	-11.8027
▁garrison	-11.8027
▁thumb	-11.8027
▁forbidden	-11.8027
▁grocer	-11.8027
▁holmes	-11.8027
▁gorge	-11.8027
▁orphanage	-11.8027
▁irwin	-11.8027
▁quantit	-11.8027
▁influenza	-11.8027
▁redeployment	-11.8027
▁bloodshed	-11.8027
▁memoir	-11.8027
▁minimal	-11.8027
▁minimiz	-11.8027
▁email	-11.8027
▁hawkins	-11.8027
▁scout	-11.8027
▁ivanovic	-11.8027
▁rangoon	-11.8027
▁braun	-11.8027
▁omx	-11.8028
▁horrific	-11.8028
▁chopper	-11.8028
▁coffin	-11.8028
▁roam	-11.8028
▁stroll	-11.8028
▁conner	-11.8028
▁cleanup	-11.8028
▁spotlight	-11.8029
crates	-11.8029
ague	-11.8029
▁cemetery	-11.8029
▁derby	-11.8029
▁regiment	-11.8029
▁lenient	-11.8029
▁meaningful	-11.8029
▁migration	-11.803
▁competitiveness	-11.803
▁gamba	-11.803
▁farmland	-11.803
urance	-11.803
▁clamp	-11.803
▁matchup	-11.8031
▁barney	-11.8031
▁inflammat	-11.8032
▁peel	-11.8033
▁verbal	-11.8033
▁flavor	-11.8033
▁globalization	-11.8033
▁nutrition	-11.8034
▁battlefield	-11.8034
zemi	-11.8034
▁martial	-11.8035
▁confiscated	-11.8036
▁crest	-11.8036
▁renowned	-11.8036
▁fog	-11.8036
▁noodles	-11.8037
▁swamp	-11.8038
smo	-11.8038
▁homeowners	-11.8039
▁revise	-11.8039
▁outright	-11.804
▁fargo	-11.804
▁escalated	-11.804
▁pais	-11.8042
▁luther	-11.8042
▁mason	-11.8043
▁rental	-11.8043
▁transmitt	-11.8044
▁diesel	-11.8044
▁mug	-11.8044
▁cove	-11.8046
adic	-11.8046
▁hugh	-11.8047
▁pot	-11.8048
▁cheating	-11.8049
▁protective	-11.805
ieu	-11.805
▁161	-11.8051
▁3500	-11.8052
▁swarm	-11.8053
▁hinder	-11.8053
▁bleeding	-11.8056
▁fr	-11.8056
▁thoroughly	-11.8059
▁slower	-11.806
▁evolved	-11.8061
▁penny	-11.8061
▁benoi	-11.8064
▁accountable	-11.8064
▁monarchy	-11.8065
▁cull	-11.8065
▁swam	-11.8065
▁impressed	-11.8067
diaz	-11.8068
▁casp	-11.8069
▁classmate	-11.807
▁shank	-11.807
▁naf	-11.8071
▁129	-11.8074
▁jogg	-11.8074
▁ruth	-11.8074
▁tenth	-11.8075
▁meyer	-11.8077
▁spared	-11.8079
▁114	-11.808
▁nabi	-11.808
▁prescrib	-11.808
▁thorn	-11.808
▁olive	-11.8082
▁circulating	-11.8083
▁abdel	-11.8085
org	-11.8091
▁contestants	-11.8093
▁unexpectedly	-11.8094
aj	-11.8094
ology	-11.8094
▁periodic	-11.8098
▁inmate	-11.8099
▁nerves	-11.81
32	-11.8101
▁raft	-11.8101
▁freezer	-11.8105
▁carmakers	-11.8108
▁reminder	-11.811
▁frenchman	-11.8116
▁ce	-11.8119
cher	-11.8124
dated	-11.8127
▁grove	-11.8128
▁02	-11.8131
jk	-11.8133
ating	-11.8134
▁tide	-11.8135
waiting	-11.8138
▁surgeons	-11.8141
▁operatives	-11.8141
▁tier	-11.8142
▁denounce	-11.8148
▁andrea	-11.8152
▁bain	-11.8152
iq	-11.8153
▁belly	-11.8154
▁provisional	-11.8154
▁reminiscen	-11.8163
▁refiner	-11.8164
▁amber	-11.8169
▁pleas	-11.8174
▁interfer	-11.8175
con	-11.8179
▁122	-11.8187
▁vit	-11.8192
▁rode	-11.8193
▁mus	-11.8194
▁bureaucrat	-11.8195
▁papa	-11.8199
▁uni	-11.8206
▁106	-11.8208
▁barb	-11.8208
▁rust	-11.821
▁ul	-11.8211
▁confronted	-11.8216
▁bricks	-11.8218
▁contributions	-11.8219
ette	-11.8222
▁disciplin	-11.8223
▁magazines	-11.8229
dler	-11.8232
▁wraps	-11.8233
terson	-11.8233
roll	-11.8236
▁deserves	-11.8239
worth	-11.8242
▁arabs	-11.8246
▁beliefs	-11.8246
▁03	-11.8249
▁interviewer	-11.8261
▁gere	-11.8262
▁jav	-11.8265
▁accommodate	-11.8265
lyn	-11.8266
▁roses	-11.8267
py	-11.8267
▁yama	-11.8269
▁gum	-11.8275
▁quota	-11.8277
zy	-11.828
▁sta	-11.8284
▁eco	-11.8288
guided	-11.8294
dom	-11.8296
▁jewel	-11.8302
▁blend	-11.8304
bb	-11.8311
▁esta	-11.8312
▁jab	-11.8317
▁robots	-11.8317
owing	-11.8321
▁specifics	-11.8327
▁stimulate	-11.8334
ians	-11.8335
▁speeds	-11.8344
▁socialists	-11.8347
▁conclusions	-11.8353
▁stevens	-11.8373
dwell	-11.8375
lula	-11.8377
▁hal	-11.838
▁spirits	-11.8381
yeh	-11.8383
▁215	-11.8387
eigh	-11.8388
mun	-11.8391
▁113	-11.8392
▁congratulate	-11.8397
lor	-11.8402
▁scho	-11.8405
gang	-11.8408
28	-11.8408
▁bre	-11.841
▁shells	-11.8411
▁defeating	-11.8412
▁clause	-11.8415
iz	-11.8415
▁kana	-11.8418
ahn	-11.8421
▁casual	-11.8423
bola	-11.8432
▁revers	-11.8434
cheon	-11.8436
▁bern	-11.8444
▁propos	-11.8463
mes	-11.8465
fied	-11.8468
▁mit	-11.8468
▁nova	-11.8474
cent	-11.8477
die	-11.8478
ili	-11.8478
ky	-11.848
▁drops	-11.8484
oke	-11.8487
▁invade	-11.8488
▁lal	-11.8494
▁sag	-11.8496
▁alternatives	-11.8496
row	-11.8497
90	-11.8505
place	-11.8514
▁sorts	-11.8523
chai	-11.8527
▁rides	-11.853
▁finn	-11.8539
▁keys	-11.854
▁compris	-11.8542
▁provoke	-11.8548
▁lawless	-11.855
▁rotat	-11.8558
▁existed	-11.8559
▁compounds	-11.8561
▁230	-11.8562
lett	-11.8563
▁dash	-11.8578
kat	-11.8584
▁dish	-11.8595
▁abnormal	-11.8599
nes	-11.8601
tious	-11.8602
▁paths	-11.8612
▁albums	-11.8612
▁reviv	-11.8615
▁defuse	-11.8616
▁ti	-11.8622
▁mechanism	-11.8634
▁snack	-11.8634
▁meteorologist	-11.8635
▁intercept	-11.8637
▁restrain	-11.8637
▁scratch	-11.8637
▁buyout	-11.8637
▁resigning	-11.8637
ode	-11.8637
▁hispanic	-11.8638
▁barrage	-11.8639
sville	-11.8639
▁str	-11.864
▁offerings	-11.8641
▁nichols	-11.8641
▁supplier	-11.8642
rop	-11.8644
▁requirement	-11.8649
folk	-11.865
▁construct	-11.865
borne	-11.8651
model	-11.8652
morning	-11.8653
▁marco	-11.8653
▁ung	-11.8653
nson	-11.8655
igh	-11.8655
andeacute	-11.866
voi	-11.8663
▁tran	-11.8663
▁trapp	-11.8667
▁mono	-11.8667
▁deplor	-11.8675
mos	-11.8679
use	-11.8681
▁lows	-11.869
▁mt	-11.8691
onso	-11.8697
▁scrapp	-11.8701
▁builder	-11.8707
▁visitor	-11.8707
▁continuous	-11.8707
▁thorough	-11.8707
▁indefinite	-11.8708
▁qua	-11.8714
▁societ	-11.8719
▁tolerate	-11.872
satisfaction	-11.8721
ied	-11.8722
▁mour	-11.8722
▁pir	-11.8724
▁industrializ	-11.8724
▁firefight	-11.8732
▁abdulla	-11.8734
▁laund	-11.8735
▁atmospher	-11.8735
▁reluctan	-11.8736
▁potato	-11.8737
▁tables	-11.8737
▁pediatric	-11.8738
tty	-11.8739
▁wise	-11.874
▁psychiatri	-11.874
▁corrupt	-11.874
▁decent	-11.874
pplies	-11.8741
▁mathematic	-11.8741
misunderstanding	-11.8741
▁altogether	-11.8741
▁amoeba	-11.8741
▁celsius	-11.8741
▁chertoff	-11.8741
▁clarify	-11.8741
▁columbus	-11.8741
▁convenience	-11.8741
▁curtain	-11.8741
▁dupre	-11.8741
▁edinburgh	-11.8741
▁eduard	-11.8741
▁evacuees	-11.8741
▁evident	-11.8741
▁exercising	-11.8741
▁expulsion	-11.8741
▁frantic	-11.8741
▁fugitive	-11.8741
▁gabriel	-11.8741
▁gallup	-11.8741
▁gondola	-11.8741
▁jaguar	-11.8741
▁jpmorgan	-11.8741
▁jurisdiction	-11.8741
▁lithuania	-11.8741
▁machimura	-11.8741
▁meshaal	-11.8741
▁montgomery	-11.8741
▁negligence	-11.8741
▁obesity	-11.8741
▁odyssey	-11.8741
▁peruvian	-11.8741
▁physicist	-11.8741
▁pneumonia	-11.8741
▁possibilities	-11.8741
▁rainforest	-11.8741
▁ritchie	-11.8741
▁roosevelt	-11.8741
▁salvador	-11.8741
▁sanitation	-11.8741
▁shrimp	-11.8741
▁specify	-11.8741
▁spencer	-11.8741
▁surrogate	-11.8741
▁titanic	-11.8741
▁uncommon	-11.8741
▁vacant	-11.8741
▁unsafe	-11.8741
▁enlist	-11.8741
▁estrada	-11.8741
▁longoria	-11.8741
▁superstar	-11.8741
▁wfp	-11.8741
▁telegraph	-11.8741
▁ideological	-11.8741
▁instability	-11.8741
▁liberties	-11.8741
▁crazy	-11.8741
▁shunn	-11.8741
▁invention	-11.8741
▁khalaf	-11.8741
▁hajj	-11.8741
▁julio	-11.8741
▁shandong	-11.8741
▁zurich	-11.8741
▁lampard	-11.8741
▁erotic	-11.8741
▁nightmare	-11.8741
▁muhammad	-11.8741
▁wolong	-11.8741
▁thieves	-11.8741
▁throng	-11.8741
▁gilbert	-11.8741
▁nashville	-11.8741
▁emmanuel	-11.8741
▁imagination	-11.8741
▁indecent	-11.8741
▁florence	-11.8742
▁blanchett	-11.8742
▁cyberspace	-11.8742
▁ramallah	-11.8742
▁intercourse	-11.8742
▁freud	-11.8742
▁fool	-11.8742
▁seinfeld	-11.8742
▁ceasefire	-11.8742
▁lahim	-11.8742
▁imam	-11.8742
▁thigh	-11.8742
▁foment	-11.8742
▁volley	-11.8742
▁yoga	-11.8742
▁gentle	-11.8742
▁unnecessary	-11.8742
▁yoko	-11.8742
▁shootout	-11.8742
▁interactive	-11.8742
▁aisle	-11.8742
▁buffett	-11.8742
▁plaza	-11.8742
▁elbow	-11.8742
▁systematic	-11.8742
metric	-11.8743
▁interpretation	-11.8743
▁baptist	-11.8743
▁livestock	-11.8743
▁libi	-11.8743
▁preference	-11.8743
▁refineries	-11.8743
▁adaptation	-11.8743
▁uci	-11.8743
▁normalization	-11.8743
▁equalizer	-11.8744
▁pickup	-11.8744
▁exert	-11.8744
▁hungary	-11.8744
▁motel	-11.8744
▁delegations	-11.8744
▁pork	-11.8744
▁greenback	-11.8744
▁rage	-11.8744
▁sadness	-11.8744
▁ryo	-11.8744
▁ump	-11.8745
▁peta	-11.8745
▁phrase	-11.8745
▁scientology	-11.8745
▁von	-11.8746
▁fatality	-11.8746
▁hostility	-11.8746
▁authoritarian	-11.8746
▁2018	-11.8746
▁lesson	-11.8746
▁hogan	-11.8747
▁kuznetsova	-11.8747
▁nickel	-11.8748
▁reflection	-11.8748
▁hyper	-11.8749
▁dipped	-11.8749
▁contention	-11.875
▁kwan	-11.8751
▁spaceship	-11.8751
▁steelers	-11.8752
▁mot	-11.8752
▁catastrophe	-11.8752
▁mansfield	-11.8752
▁racist	-11.8752
▁chemistry	-11.8753
▁degrad	-11.8753
▁gamble	-11.8753
▁glenn	-11.8754
▁sulli	-11.8755
▁heartland	-11.8756
▁peek	-11.8756
▁succession	-11.8757
▁champ	-11.8757
▁conscious	-11.8757
▁acclaim	-11.8757
▁scorched	-11.8758
▁looting	-11.8759
▁overtake	-11.8759
▁kent	-11.8759
▁enthusiastic	-11.8759
▁firearms	-11.876
▁connections	-11.876
▁jihadist	-11.8761
▁defy	-11.8761
▁stray	-11.8762
▁jamaican	-11.8764
▁adjourned	-11.8765
▁foiled	-11.8765
▁skies	-11.8765
▁ridge	-11.8767
▁wrestler	-11.8768
▁zai	-11.8771
▁skidd	-11.8771
▁disagreed	-11.8772
▁everton	-11.8773
▁cox	-11.8775
▁saudis	-11.8775
▁slice	-11.8776
emptive	-11.8777
▁warheads	-11.8777
erous	-11.8781
▁sore	-11.8782
▁youngsters	-11.8782
▁finalists	-11.8783
▁interrupted	-11.8784
▁irra	-11.8787
▁crane	-11.879
▁whipp	-11.8792
▁donate	-11.8792
hab	-11.8792
▁intensifying	-11.8793
▁marin	-11.8793
chon	-11.8794
▁iii	-11.8795
▁billboard	-11.8797
▁adventurer	-11.8797
▁harle	-11.8803
▁141	-11.8803
nants	-11.8808
▁competitors	-11.8812
▁vegetables	-11.8812
▁lac	-11.8814
▁squeeze	-11.8815
nate	-11.8817
▁insistence	-11.8818
structed	-11.8818
▁warships	-11.8819
▁calculat	-11.8819
▁analyzed	-11.882
▁forth	-11.8822
▁shau	-11.8822
▁hog	-11.8825
▁ps	-11.8826
▁stirring	-11.8827
▁mul	-11.8827
▁conductor	-11.8829
▁constructed	-11.8831
▁excluded	-11.8831
▁scrapped	-11.8831
▁fend	-11.8831
▁thrilled	-11.8845
wind	-11.8846
▁131	-11.8847
▁bishops	-11.8849
▁moss	-11.8854
▁altered	-11.8858
▁healing	-11.886
▁floors	-11.8863
▁tibetans	-11.8863
▁molest	-11.8874
▁lied	-11.8875
▁reinforce	-11.8875
▁pier	-11.8877
lli	-11.8877
▁bucking	-11.8885
▁persuad	-11.8887
▁mona	-11.8893
▁kenne	-11.8897
▁salam	-11.8908
▁kb	-11.8912
▁slashing	-11.8913
tsu	-11.8916
▁bankers	-11.8921
99	-11.8922
▁sham	-11.8928
▁cds	-11.8929
▁melting	-11.8932
rei	-11.8932
▁envelope	-11.8932
▁advocat	-11.8938
▁circles	-11.8942
▁downloads	-11.8955
▁partnerships	-11.8955
▁blogs	-11.8955
rose	-11.8965
wal	-11.8967
▁advertis	-11.8975
▁occasions	-11.8978
iv	-11.8986
ement	-11.8989
▁lava	-11.8989
▁counseling	-11.8995
▁102	-11.9002
▁norm	-11.9003
▁hindus	-11.9006
▁departments	-11.9008
▁pools	-11.9009
911	-11.9016
▁jungles	-11.9017
▁uphold	-11.9022
▁peers	-11.9023
▁bong	-11.9032
low	-11.9032
▁franc	-11.9033
▁deb	-11.9034
▁destruct	-11.9035
▁shower	-11.904
96	-11.9052
▁gardens	-11.9053
▁bids	-11.9059
▁punished	-11.9068
▁cubans	-11.9071
▁volcan	-11.9077
63	-11.9078
▁thu	-11.908
ere	-11.9081
▁mock	-11.9081
▁jee	-11.9082
▁mediate	-11.9083
ama	-11.909
▁mag	-11.9096
itive	-11.9097
▁116	-11.9099
▁continents	-11.91
▁coo	-11.9101
▁robin	-11.9106
▁kati	-11.9111
▁blazes	-11.9115
▁integrate	-11.9117
▁sour	-11.9121
nar	-11.9122
▁intentions	-11.9127
▁dill	-11.9143
▁commons	-11.9147
▁tooth	-11.9151
▁abd	-11.9154
▁philipp	-11.9159
mat	-11.9162
era	-11.9174
▁rug	-11.9181
▁writes	-11.9194
▁ports	-11.92
eur	-11.9206
▁suppress	-11.9207
nc	-11.9211
▁modifi	-11.9213
▁mend	-11.9214
ich	-11.9226
ello	-11.9233
▁karr	-11.9243
94	-11.9244
85	-11.9244
▁inject	-11.9247
▁disguis	-11.9248
▁offset	-11.9262
▁hol	-11.9262
▁pie	-11.9272
▁148	-11.9291
▁cite	-11.9292
cus	-11.9297
▁coaster	-11.93
bur	-11.93
▁downer	-11.9301
▁webb	-11.9314
▁sca	-11.932
dica	-11.9328
▁299	-11.9328
▁claudi	-11.9335
▁shout	-11.9341
▁advanc	-11.9341
▁clo	-11.9346
▁instruct	-11.9347
▁vol	-11.935
▁eliminat	-11.936
▁dive	-11.9364
▁rocker	-11.9368
▁disk	-11.9369
▁notable	-11.9374
▁shan	-11.9384
▁lawsuits	-11.9388
▁grows	-11.9396
▁secretari	-11.9401
▁conclud	-11.9408
▁collar	-11.9408
▁cancellation	-11.9409
▁ipod	-11.9409
▁interaction	-11.941
▁manual	-11.941
▁obstacle	-11.9411
▁undermin	-11.9411
▁confession	-11.9411
▁donkey	-11.9412
▁disagreement	-11.9412
chu	-11.9414
2000	-11.9414
▁archaeologist	-11.9415
oom	-11.9415
▁fo	-11.9416
▁activat	-11.9417
court	-11.9417
▁avert	-11.9419
woman	-11.942
children	-11.942
ties	-11.9421
chemical	-11.9421
▁tit	-11.9421
life	-11.9421
around	-11.9422
jiang	-11.9422
egas	-11.9423
▁egg	-11.9424
▁overturn	-11.9425
▁5500	-11.9429
▁dai	-11.9431
▁contractor	-11.9431
▁shall	-11.9432
▁planner	-11.9437
▁underline	-11.9442
▁freight	-11.9445
▁newman	-11.9446
▁valid	-11.945
▁stirr	-11.945
▁lan	-11.9453
erber	-11.9453
▁11000	-11.9459
uman	-11.946
car	-11.9472
rian	-11.9475
▁bibl	-11.9481
▁anton	-11.9481
wc	-11.9482
▁seon	-11.9486
▁qin	-11.9487
▁privilege	-11.9487
itu	-11.9488
▁concentrate	-11.9489
▁boni	-11.9492
▁clone	-11.9494
▁catastroph	-11.9499
▁rib	-11.9502
tin	-11.9502
▁blitz	-11.9504
▁fractur	-11.9506
▁cott	-11.9506
▁harris	-11.9507
▁2100	-11.9508
▁emphasi	-11.9509
▁elegan	-11.951
▁embroi	-11.951
▁aggregate	-11.951
▁almeida	-11.951
▁altitude	-11.951
▁anglican	-11.951
▁autumn	-11.951
▁barroso	-11.951
▁bimbo	-11.951
▁bodlander	-11.951
▁ceremonial	-11.951
▁columbine	-11.951
▁compuls	-11.951
▁comrade	-11.951
▁copenhagen	-11.951
▁daewoo	-11.951
▁galaxies	-11.951
▁gansu	-11.951
▁identical	-11.951
▁insufficient	-11.951
▁intimate	-11.951
▁knox	-11.951
▁legitimacy	-11.951
▁liquor	-11.951
▁meghani	-11.951
▁mehsud	-11.951
▁onlookers	-11.951
▁overflow	-11.951
▁reconn	-11.951
▁refund	-11.951
▁rendition	-11.951
▁satisfy	-11.951
▁savvy	-11.951
▁scooter	-11.951
▁scowcroft	-11.951
▁shotgun	-11.951
▁sulawesi	-11.951
▁tarmac	-11.951
▁ultimatum	-11.951
▁upheaval	-11.951
▁viagra	-11.951
▁visibility	-11.951
▁voyage	-11.951
▁administer	-11.951
▁algiers	-11.951
▁neglect	-11.951
▁quadruple	-11.951
▁ramadi	-11.951
▁bulldozer	-11.951
▁samuel	-11.951
▁sporadic	-11.951
▁lashes	-11.951
▁reptile	-11.951
▁namdaemu	-11.951
▁quinn	-11.951
▁mixture	-11.951
▁feminin	-11.951
▁compell	-11.951
▁ladies	-11.951
▁chengdu	-11.9511
▁leopard	-11.9511
▁jalal	-11.9511
▁pricing	-11.9511
▁schult	-11.9511
▁hiking	-11.9511
▁collaborators	-11.9511
▁resemblance	-11.9511
▁analog	-11.9511
▁feast	-11.9511
▁sniff	-11.9511
▁enrollment	-11.9511
▁authenticity	-11.9511
▁faint	-11.9511
▁snowfall	-11.9511
▁delaware	-11.9511
▁erakat	-11.9511
▁sindh	-11.9511
▁vague	-11.9511
▁discard	-11.9511
▁hanoi	-11.9511
▁emory	-11.9511
▁ecosystem	-11.9511
▁harrell	-11.9511
▁calder	-11.9511
▁circulation	-11.9511
▁homosexuality	-11.9511
rg	-11.9511
▁celtic	-11.9512
▁insight	-11.9512
▁reshuffle	-11.9512
kanit	-11.9512
▁hoop	-11.9512
▁rope	-11.9512
▁psychiatrist	-11.9512
▁abdomen	-11.9512
▁dodgers	-11.9512
▁realistic	-11.9512
tikh	-11.9513
reze	-11.9513
▁workshop	-11.9513
▁hyo	-11.9513
▁choking	-11.9513
▁disneyland	-11.9513
▁purse	-11.9513
▁ober	-11.9514
▁1969	-11.9514
▁hydra	-11.9514
▁cubic	-11.9514
▁rabbit	-11.9514
▁2020	-11.9514
▁arthritis	-11.9515
ukov	-11.9515
▁sanctuary	-11.9515
caul	-11.9515
▁fetch	-11.9515
▁hallway	-11.9515
▁chef	-11.9515
▁marble	-11.9515
▁downgrade	-11.9516
▁flies	-11.9516
▁bachelor	-11.9516
guet	-11.9516
▁trev	-11.9516
▁dormitory	-11.9516
▁forestry	-11.9517
▁gown	-11.9517
▁fax	-11.9517
▁lament	-11.9517
▁frenz	-11.9518
▁salute	-11.9519
▁adolf	-11.9519
▁roche	-11.9519
unting	-11.9519
▁lari	-11.9519
▁institutes	-11.9519
▁centimeter	-11.952
▁grind	-11.952
ghazi	-11.952
▁allocated	-11.952
▁murd	-11.952
▁canister	-11.9521
▁startup	-11.9521
bel	-11.9521
▁prohibition	-11.9521
▁sake	-11.9522
▁bystanders	-11.9523
▁kennel	-11.9524
▁affection	-11.9524
▁normaliz	-11.9525
▁coward	-11.9526
▁petrol	-11.9526
▁eyewitness	-11.9527
▁assignment	-11.9528
▁void	-11.9528
▁looted	-11.9529
▁ginger	-11.9529
▁sel	-11.9529
heddin	-11.953
▁montrea	-11.953
▁roadblocks	-11.9531
▁sculptures	-11.9531
▁conceived	-11.9533
▁freeway	-11.9533
prio	-11.9534
reau	-11.9535
▁hillside	-11.9538
▁businessmen	-11.9539
▁reservations	-11.9539
▁krug	-11.954
▁wow	-11.9541
▁fabricat	-11.9541
iyah	-11.9544
▁millionaire	-11.9544
▁versa	-11.9544
▁wan	-11.9545
▁collector	-11.9547
▁viewing	-11.9547
kar	-11.9547
▁130000	-11.9548
▁dogged	-11.9552
▁coerced	-11.9552
▁execute	-11.9552
▁brakes	-11.9555
▁kilograms	-11.9555
▁policymakers	-11.9556
▁hatch	-11.9557
▁stack	-11.9557
▁bite	-11.9557
▁authorize	-11.956
▁edited	-11.956
▁smiled	-11.956
83	-11.9561
▁takers	-11.9563
▁martyrs	-11.9563
▁laborers	-11.9565
▁220	-11.9565
▁vik	-11.9568
▁deter	-11.9568
▁ripple	-11.9571
▁headaches	-11.9571
▁derailed	-11.9572
▁retaliat	-11.9572
▁bun	-11.9572
hita	-11.9573
▁gh	-11.9578
▁expired	-11.9578
rid	-11.9578
▁lars	-11.958
lept	-11.9588
nian	-11.9588
▁updated	-11.9589
▁cling	-11.9595
▁oman	-11.9596
▁giro	-11.9599
▁finalized	-11.9601
▁poster	-11.9602
▁gadgets	-11.9603
▁vent	-11.9609
▁berl	-11.9612
▁seekers	-11.9614
▁adjusted	-11.9616
lved	-11.9618
▁boards	-11.9618
▁concealed	-11.9622
▁kad	-11.9624
ose	-11.9624
▁nationality	-11.9626
▁disappearing	-11.9627
▁retriev	-11.9628
aries	-11.9628
▁corre	-11.9628
▁1961	-11.963
▁traveler	-11.9631
▁exchang	-11.9632
▁saves	-11.9633
▁drums	-11.9636
scribe	-11.9639
▁dora	-11.9641
▁wei	-11.9647
of	-11.9647
▁lind	-11.9648
▁fabr	-11.9652
▁nap	-11.9654
▁camill	-11.966
▁jeffs	-11.9663
ison	-11.9664
▁chil	-11.9664
▁lynd	-11.9666
undance	-11.9672
▁appreciat	-11.9673
▁hadn	-11.9677
▁underscor	-11.9679
ending	-11.9681
glio	-11.9683
▁ip	-11.9684
▁den	-11.9684
▁widened	-11.9685
▁origins	-11.9688
▁devi	-11.969
vani	-11.9691
▁fare	-11.9692
▁shaky	-11.9694
▁hur	-11.9696
bol	-11.9698
uted	-11.9701
▁styles	-11.9701
▁permits	-11.9702
nnie	-11.9703
▁noel	-11.9703
▁reopened	-11.9703
▁forgotten	-11.9704
▁fingers	-11.971
▁hwa	-11.9712
bun	-11.9714
▁serg	-11.9724
81	-11.9725
wf	-11.9745
▁tightening	-11.9754
▁consolidat	-11.9756
▁usage	-11.9758
▁behaviors	-11.9759
▁evaluate	-11.9761
roy	-11.9762
▁158	-11.9767
▁tian	-11.9775
sustainable	-11.9777
ruz	-11.9778
▁vera	-11.9781
▁whi	-11.9783
▁meal	-11.9786
kaya	-11.9787
▁invad	-11.979
▁maha	-11.979
istic	-11.9792
▁emm	-11.9793
▁168	-11.9802
cock	-11.9807
etz	-11.981
▁spr	-11.9812
▁predicts	-11.9815
▁mont	-11.9816
▁opener	-11.9816
rel	-11.9816
ahi	-11.9817
▁controller	-11.9818
▁alarmed	-11.9821
▁124	-11.9823
ex	-11.9825
▁mae	-11.9825
▁eun	-11.9835
▁abortions	-11.9841
▁biting	-11.9848
ats	-11.985
ema	-11.9853
▁repairs	-11.9861
bed	-11.9865
mont	-11.9866
▁jen	-11.9869
▁cate	-11.9869
▁graduates	-11.987
gie	-11.9871
▁fey	-11.9876
▁rejects	-11.9878
elhof	-11.9885
sson	-11.9887
▁preach	-11.9887
▁commando	-11.9889
▁inning	-11.9892
▁850	-11.9893
▁sal	-11.9895
table	-11.9896
▁tangib	-11.99
▁wished	-11.9902
▁pla	-11.9905
▁tvs	-11.9907
▁jos	-11.9911
pac	-11.9919
▁maps	-11.992
▁trends	-11.9925
▁dissolve	-11.9929
▁prest	-11.9929
var	-11.993
clara	-11.9931
om	-11.9938
▁broadcasters	-11.9941
▁cater	-11.9942
▁eisen	-11.9942
▁deliberat	-11.9943
azar	-11.9947
▁settlements	-11.9958
▁cracking	-11.9959
zel	-11.9961
mise	-11.9964
cation	-11.9967
▁def	-11.9971
▁dare	-11.9978
▁wonders	-11.9984
▁notion	-11.9994
▁abn	-11.9997
91	-12.0003
▁yasu	-12.0007
▁sina	-12.0011
▁traditions	-12.0013
dian	-12.0021
▁hi	-12.003
lit	-12.0037
▁ascend	-12.0043
inson	-12.0044
▁hos	-12.0049
ering	-12.0056
ndy	-12.0059
▁119	-12.006
az	-12.006
ites	-12.007
▁silic	-12.0081
▁320	-12.009
▁directions	-12.0091
gram	-12.0093
▁taj	-12.0095
▁nh	-12.0098
▁mod	-12.0099
▁affiliates	-12.0102
▁discipline	-12.0106
▁tee	-12.0106
▁treats	-12.0117
lov	-12.0122
rek	-12.0124
▁exclud	-12.0125
rou	-12.0126
bbie	-12.0129
▁lease	-12.0135
▁yeon	-12.0136
▁tumbl	-12.014
▁rafi	-12.0144
lashed	-12.0151
▁urges	-12.0158
▁cos	-12.0159
▁lah	-12.016
▁roth	-12.0162
▁facilitat	-12.0166
armed	-12.0166
▁pha	-12.0169
▁garr	-12.0177
ye	-12.0187
▁ruin	-12.0188
durable	-12.0191
38	-12.0194
▁viru	-12.0195
marked	-12.0195
stra	-12.0198
▁ec	-12.0205
43	-12.0209
▁revis	-12.0214
ibly	-12.0215
acio	-12.0222
▁intimidat	-12.0226
▁radi	-12.0227
fest	-12.0232
phone	-12.0234
▁addict	-12.0238
▁miserable	-12.0239
▁bass	-12.0241
▁barricade	-12.0241
▁speculat	-12.0242
▁gadget	-12.0244
▁russe	-12.0246
▁arrangement	-12.0247
lets	-12.0248
▁slogan	-12.0248
▁calculate	-12.025
hard	-12.025
▁carmaker	-12.0251
nutrition	-12.0252
▁accomplish	-12.0253
▁europeans	-12.0253
foot	-12.0255
reach	-12.0256
▁suite	-12.0259
vac	-12.0261
▁shatter	-12.0263
right	-12.0264
▁skeptic	-12.0267
▁26000	-12.0268
▁costume	-12.0271
▁glow	-12.0272
stair	-12.0279
▁receiver	-12.0283
▁gunn	-12.0286
rail	-12.0287
▁gam	-12.0289
▁om	-12.0291
▁plots	-12.0291
▁advoca	-12.0292
▁injection	-12.0293
ame	-12.0294
taka	-12.0298
▁beg	-12.0299
nant	-12.0299
▁dose	-12.0303
▁definite	-12.0306
▁exporter	-12.0307
▁unconditional	-12.0309
▁therap	-12.0314
▁dori	-12.0318
21	-12.0318
▁charm	-12.032
wan	-12.0321
▁reinstate	-12.0322
▁embrac	-12.0322
ff	-12.0322
▁flip	-12.0324
▁worship	-12.0324
gas	-12.0324
mpact	-12.0325
▁topple	-12.0325
leban	-12.0328
▁albania	-12.0329
▁mechanic	-12.0333
▁kuznetsov	-12.0337
▁154	-12.0337
iff	-12.0339
▁strategi	-12.034
▁clint	-12.0341
▁abdom	-12.0342
▁repress	-12.0343
▁mujah	-12.0343
▁stiff	-12.0343
▁censor	-12.0344
harmonic	-12.0344
▁rockefeller	-12.0344
▁abolition	-12.0344
▁adidas	-12.0344
▁alejandr	-12.0344
▁arlington	-12.0344
▁awkward	-12.0344
▁bollea	-12.0344
▁brawl	-12.0344
▁caesar	-12.0344
▁carnival	-12.0344
▁cheetah	-12.0344
▁cockpit	-12.0344
▁constituenc	-12.0344
▁deflect	-12.0344
▁delinquents	-12.0344
▁deterioration	-12.0344
▁devastation	-12.0344
▁discontent	-12.0344
▁eclipse	-12.0344
▁enclave	-12.0344
▁escalator	-12.0344
▁futurist	-12.0344
▁grylls	-12.0344
▁iucn	-12.0344
▁juventu	-12.0344
▁leisure	-12.0344
▁madagascar	-12.0344
▁marseille	-12.0344
▁memorandum	-12.0344
▁messaging	-12.0344
▁misconduct	-12.0344
▁munitions	-12.0344
▁ohmynews	-12.0344
▁paleontologist	-12.0344
▁palestine	-12.0344
▁pavilion	-12.0344
▁peshawar	-12.0344
▁specimen	-12.0344
▁thriving	-12.0344
▁trinidad	-12.0344
▁unavoidable	-12.0344
▁unhcr	-12.0344
▁unhurt	-12.0344
▁wachovia	-12.0344
▁zvonareva	-12.0344
▁asleep	-12.0344
▁flattened	-12.0344
▁moussa	-12.0344
▁namibia	-12.0344
▁skyrocket	-12.0344
▁thrive	-12.0344
▁thymus	-12.0344
eutic	-12.0344
▁aurora	-12.0344
▁burris	-12.0344
▁nowhere	-12.0344
▁connor	-12.0344
▁context	-12.0344
▁unify	-12.0344
▁polanski	-12.0344
▁puppy	-12.0344
▁mubarak	-12.0344
▁fertilizer	-12.0344
▁crouch	-12.0344
▁infringement	-12.0344
▁flank	-12.0344
▁forehand	-12.0344
▁morici	-12.0344
▁whitmore	-12.0344
▁superjumbo	-12.0344
▁zhe	-12.0344
▁brink	-12.0344
▁calculations	-12.0344
▁dismal	-12.0344
▁foremost	-12.0344
▁perpetrators	-12.0344
▁glory	-12.0344
▁resent	-12.0344
▁sheehan	-12.0344
▁mismanagement	-12.0344
▁harassment	-12.0344
▁suitcase	-12.0344
▁desktop	-12.0344
▁ricard	-12.0344
▁creek	-12.0344
▁rainfall	-12.0344
▁prevail	-12.0344
omaha	-12.0344
▁inevitable	-12.0345
▁stockholm	-12.0345
▁reeling	-12.0345
▁confinement	-12.0345
▁appreciation	-12.0345
▁expectancy	-12.0345
▁ayres	-12.0345
onian	-12.0345
▁patent	-12.0345
▁consolidation	-12.0345
▁sushi	-12.0345
▁gym	-12.0345
▁muddy	-12.0345
▁touchdown	-12.0345
▁liberalization	-12.0345
▁1966	-12.0345
▁mercy	-12.0346
▁boulo	-12.0346
▁bradley	-12.0346
▁architecture	-12.0346
▁batman	-12.0346
▁cement	-12.0346
▁tuning	-12.0346
▁whitson	-12.0346
▁franklin	-12.0346
▁colonies	-12.0346
elvis	-12.0346
▁lame	-12.0347
▁gins	-12.0347
▁guti	-12.0347
▁innovation	-12.0347
etcher	-12.0347
▁woodland	-12.0347
▁2013	-12.0347
▁militiamen	-12.0347
▁hoff	-12.0347
▁honey	-12.0348
▁journalism	-12.0348
▁chungchon	-12.0348
▁colorful	-12.0348
▁refrigerator	-12.0348
▁iceberg	-12.0348
▁cesar	-12.0348
▁qualification	-12.0348
▁feline	-12.0348
▁commemoration	-12.0348
▁sunny	-12.0349
▁1963	-12.0349
▁fabrication	-12.035
▁oj	-12.035
▁frig	-12.035
▁heroic	-12.0351
▁clipper	-12.0351
▁airspace	-12.0351
▁bike	-12.0351
▁marshall	-12.0351
▁revival	-12.0352
▁columnist	-12.0352
▁dimensional	-12.0352
▁hospitalization	-12.0353
▁cheese	-12.0353
▁electorate	-12.0353
▁jeon	-12.0355
▁shap	-12.0355
yung	-12.0356
▁flush	-12.0356
▁depiction	-12.0357
▁wax	-12.0357
▁tornadoes	-12.0358
▁hardline	-12.0358
▁nano	-12.0358
rt	-12.0358
▁1100	-12.0359
▁windsor	-12.036
▁couri	-12.0361
▁mountainside	-12.0363
▁som	-12.0363
▁flawed	-12.0364
▁compatible	-12.0364
▁candid	-12.0365
▁orphans	-12.0366
▁reinstated	-12.0366
▁flaws	-12.0367
▁seller	-12.0367
▁desirable	-12.0369
▁hopkin	-12.0369
▁worm	-12.0369
▁flexibilit	-12.0372
▁fou	-12.0373
▁centrifuges	-12.0375
wich	-12.0375
▁incomes	-12.0381
▁35000	-12.0382
▁purge	-12.0382
▁sniper	-12.0382
▁letterman	-12.0384
▁unfit	-12.0384
▁saber	-12.0384
▁underwater	-12.0386
▁temper	-12.0388
ix	-12.0388
igan	-12.0389
▁upward	-12.0389
▁pegg	-12.0391
▁outages	-12.0392
▁ailments	-12.0392
uchi	-12.0394
▁stok	-12.0395
cheema	-12.0396
▁shorten	-12.0397
▁wto	-12.0401
▁technicians	-12.0401
▁helmets	-12.0401
▁counselor	-12.0402
▁attendants	-12.0402
▁candy	-12.0402
▁relate	-12.0405
▁solt	-12.0405
▁lego	-12.0406
▁graduat	-12.0409
ean	-12.041
▁calories	-12.041
tting	-12.041
▁exhausted	-12.0411
▁plumes	-12.0411
▁stark	-12.0412
▁slopes	-12.0415
▁parliamentarian	-12.0416
▁brady	-12.0417
▁mistaken	-12.0417
▁indexes	-12.0421
▁skeptical	-12.0421
▁hackers	-12.0426
▁instructions	-12.0427
▁crashing	-12.0427
tics	-12.0431
gia	-12.0433
▁alleges	-12.0437
▁decreased	-12.0437
▁generators	-12.0437
gel	-12.0439
▁foes	-12.0442
loyd	-12.0444
▁booster	-12.0444
▁tossed	-12.0445
▁porter	-12.0446
▁ur	-12.0447
▁covert	-12.0448
▁intercepted	-12.045
50000	-12.0451
▁donkeys	-12.0454
▁nuts	-12.0457
▁levee	-12.0457
pache	-12.0464
▁glen	-12.0466
▁solved	-12.0466
▁indicator	-12.0466
zio	-12.0466
▁borrowing	-12.047
▁hernan	-12.0472
▁jokes	-12.0474
▁sellers	-12.048
claimed	-12.0481
▁rovers	-12.0482
▁159	-12.0482
wadd	-12.0487
lamin	-12.0491
39	-12.0496
▁embarrassed	-12.0498
▁hotte	-12.0502
▁oliver	-12.051
▁poisoning	-12.0513
soon	-12.0517
▁posters	-12.052
▁jess	-12.0522
▁assertions	-12.0526
itis	-12.0531
▁resorts	-12.0533
▁patt	-12.0538
▁encountered	-12.0539
uni	-12.055
▁dispos	-12.055
▁insults	-12.0552
▁expenses	-12.0552
▁objectives	-12.0552
▁fences	-12.0562
▁encounters	-12.0563
gye	-12.0568
▁processor	-12.0573
▁naha	-12.0574
dependence	-12.0575
▁heal	-12.0576
▁chickens	-12.0579
34	-12.0582
▁georgian	-12.0584
▁suppressi	-12.0585
▁assaults	-12.0591
uma	-12.0594
▁permanently	-12.0595
▁skulls	-12.0606
▁dp	-12.0612
▁airplanes	-12.0612
▁lords	-12.0615
▁fuels	-12.0615
▁carolin	-12.0615
▁resistan	-12.0616
▁casa	-12.0617
▁menus	-12.0617
▁deadlines	-12.0617
▁incorporat	-12.0621
▁publishers	-12.0621
▁predecessors	-12.0624
▁bab	-12.0629
▁joan	-12.063
▁162	-12.063
▁tales	-12.0638
▁obstruct	-12.0643
▁bast	-12.0651
fid	-12.0651
nnah	-12.0657
anga	-12.066
▁ruba	-12.0664
oda	-12.0666
stic	-12.0671
▁withstand	-12.0674
▁moms	-12.0675
▁regulat	-12.0679
mates	-12.0685
▁meg	-12.0694
▁intra	-12.0696
ef	-12.0703
nier	-12.0706
moto	-12.0706
▁nia	-12.0711
wha	-12.0715
ving	-12.0716
▁domin	-12.0718
alban	-12.0722
▁pes	-12.0725
▁09	-12.0728
56	-12.0728
used	-12.0732
ghi	-12.0733
▁objected	-12.0735
fu	-12.0735
shin	-12.0736
▁heroin	-12.0751
▁approves	-12.0752
200	-12.0757
▁kou	-12.0762
▁guides	-12.0764
▁kal	-12.0764
▁drawings	-12.0769
▁panels	-12.0772
din	-12.0776
dard	-12.0778
▁forge	-12.0781
▁duch	-12.0784
▁attitudes	-12.0787
endo	-12.0795
▁stam	-12.0796
▁endors	-12.0796
▁mosques	-12.0798
▁taka	-12.0812
zan	-12.0816
55	-12.0817
▁rods	-12.0825
▁fri	-12.0826
▁coordinate	-12.0828
▁appointments	-12.0842
▁gir	-12.0844
▁asha	-12.0849
ele	-12.086
mate	-12.0865
kind	-12.0875
▁wasted	-12.0878
▁118	-12.0879
▁mara	-12.0882
▁163	-12.0882
▁hunted	-12.0882
▁hamm	-12.0887
▁vil	-12.0888
▁explains	-12.0889
46	-12.0895
100	-12.0896
▁collections	-12.0899
piece	-12.0902
▁tyl	-12.0904
ister	-12.0906
mara	-12.0915
▁sands	-12.0919
▁pumps	-12.0926
trust	-12.0928
wo	-12.093
▁arrives	-12.0936
▁diver	-12.0945
▁kph	-12.0946
44	-12.0951
▁advocate	-12.0954
▁bells	-12.0957
▁consolidate	-12.0966
like	-12.0967
uro	-12.0968
▁preced	-12.0969
ali	-12.0973
▁paw	-12.0973
▁plen	-12.0986
zone	-12.0987
▁aspir	-12.0988
▁rises	-12.0991
uch	-12.0999
▁messi	-12.1006
▁knees	-12.1007
▁colleges	-12.101
▁18000	-12.1011
▁cont	-12.1017
▁memo	-12.102
▁log	-12.102
raged	-12.1022
▁1940	-12.1027
▁gaps	-12.1038
▁sexy	-12.104
fty	-12.1043
sque	-12.1043
▁observ	-12.1046
▁clerics	-12.1056
▁480	-12.1059
▁emotion	-12.1065
▁camel	-12.1071
▁equ	-12.1075
▁sor	-12.1075
jid	-12.1082
▁relat	-12.1083
net	-12.1086
▁narrowed	-12.1086
▁foe	-12.109
▁spik	-12.1091
yer	-12.1091
bee	-12.1095
▁summers	-12.1096
▁rub	-12.1106
mu	-12.1107
▁mirr	-12.1113
elo	-12.1115
▁jonat	-12.1117
400	-12.1123
▁lid	-12.1125
▁upgrade	-12.1129
nam	-12.1131
▁separat	-12.1131
14	-12.1135
▁doubl	-12.1136
▁trap	-12.1138
▁provocation	-12.1146
▁aden	-12.1147
▁safeguard	-12.1148
▁enforc	-12.115
▁330	-12.1151
▁magistrate	-12.1152
retz	-12.1152
▁nerve	-12.1154
▁sibling	-12.1154
▁prostitute	-12.1155
▁textbook	-12.1155
▁athlete	-12.1156
▁prediction	-12.1156
▁archive	-12.1157
▁generator	-12.1157
▁ansa	-12.1159
▁playoff	-12.116
▁restriction	-12.1161
▁shrink	-12.1161
rdin	-12.1161
taek	-12.1161
▁mineral	-12.1162
▁cannon	-12.1162
continent	-12.1163
visible	-12.1163
grown	-12.1164
▁slave	-12.1164
▁convict	-12.1165
league	-12.1166
▁disturb	-12.1166
▁mai	-12.1167
▁offender	-12.1169
▁employer	-12.1169
▁examples	-12.117
▁nan	-12.117
osan	-12.1171
▁bot	-12.1172
kong	-12.1178
▁tasks	-12.1179
elman	-12.1179
▁warship	-12.1182
▁baa	-12.1182
▁sack	-12.1182
cast	-12.1187
pine	-12.1188
media	-12.1194
feld	-12.1198
▁condon	-12.1198
▁auditor	-12.121
stable	-12.121
▁server	-12.1212
3000	-12.1212
▁profession	-12.1216
▁unanimous	-12.122
▁fabric	-12.1232
▁isolate	-12.1237
▁bearer	-12.1238
▁brew	-12.124
riety	-12.1243
▁fertil	-12.1243
▁simpsons	-12.1246
▁mosquito	-12.1248
▁innovati	-12.125
▁interact	-12.125
▁divisi	-12.1251
herty	-12.1251
▁implicat	-12.1251
▁obsess	-12.1252
▁oppress	-12.1252
▁fayya	-12.1252
▁buoy	-12.1253
▁beneficia	-12.1253
▁sophi	-12.1253
▁demolish	-12.1253
▁churn	-12.1253
▁crawl	-12.1253
▁curtail	-12.1253
▁disregard	-12.1253
▁goddess	-12.1253
▁kazakh	-12.1253
▁www	-12.1253
▁abductees	-12.1253
▁accessories	-12.1253
▁aluminum	-12.1253
▁animosity	-12.1253
▁antenna	-12.1253
▁appalling	-12.1253
▁appetite	-12.1253
▁audiotape	-12.1253
▁balcony	-12.1253
▁berezovsky	-12.1253
▁categorical	-12.1253
▁chihuahua	-12.1253
▁clergy	-12.1253
▁culprit	-12.1253
▁deceased	-12.1253
▁demographic	-12.1253
▁diwaniya	-12.1253
▁djamena	-12.1253
▁edmund	-12.1253
▁elusive	-12.1253
▁erratic	-12.1253
▁fluctuat	-12.1253
▁fowler	-12.1253
▁fundraiser	-12.1253
▁gadhafi	-12.1253
▁gwen	-12.1253
▁indiscriminate	-12.1253
▁jeopardy	-12.1253
▁loophole	-12.1253
▁mafia	-12.1253
▁mcclaren	-12.1253
▁melanoma	-12.1253
▁module	-12.1253
▁nargis	-12.1253
▁ordinance	-12.1253
▁outflow	-12.1253
▁portfolio	-12.1253
▁psychiatry	-12.1253
▁rajasthan	-12.1253
▁ramadan	-12.1253
▁riyadh	-12.1253
▁rspb	-12.1253
▁sderot	-12.1253
▁souvenir	-12.1253
▁srebrenica	-12.1253
▁steadfast	-12.1253
▁swirl	-12.1253
▁tanzania	-12.1253
▁timeframe	-12.1253
▁tyranny	-12.1253
▁unemployed	-12.1253
▁unwilling	-12.1253
▁whatsoever	-12.1253
▁yangtze	-12.1253
▁yogyakarta	-12.1253
▁bourse	-12.1253
▁groundbreaking	-12.1253
▁jetliner	-12.1253
▁lisbon	-12.1253
▁odell	-12.1253
▁rachel	-12.1253
▁rethink	-12.1253
▁scoop	-12.1253
▁sequel	-12.1253
▁staggering	-12.1253
errez	-12.1253
▁dreamliner	-12.1253
▁dreamworks	-12.1253
▁dynamite	-12.1253
▁hiatus	-12.1253
▁lexicon	-12.1253
▁quantum	-12.1253
▁sleeve	-12.1253
▁trunk	-12.1253
▁obese	-12.1253
▁sleet	-12.1253
▁evict	-12.1253
▁headphones	-12.1253
▁outcry	-12.1253
▁seismic	-12.1253
▁jorge	-12.1253
▁discourage	-12.1253
▁jessica	-12.1253
▁mimic	-12.1253
▁malignant	-12.1253
▁pessimistic	-12.1253
▁entries	-12.1253
▁paradise	-12.1253
▁biometric	-12.1253
▁grape	-12.1253
▁xbox	-12.1253
▁eads	-12.1253
▁empower	-12.1253
▁vanished	-12.1253
▁fraudulent	-12.1253
▁opium	-12.1253
▁cooperating	-12.1253
▁dismay	-12.1253
▁scholes	-12.1253
ehler	-12.1253
▁hedge	-12.1253
▁elisa	-12.1253
▁juice	-12.1253
▁ericsson	-12.1253
▁ratified	-12.1253
▁restructure	-12.1253
▁minivan	-12.1253
brant	-12.1253
▁crescent	-12.1253
▁preview	-12.1253
▁birthrate	-12.1253
▁cruelty	-12.1253
▁variation	-12.1253
▁straw	-12.1253
▁problematic	-12.1253
▁grasp	-12.1254
atorium	-12.1254
▁smugglers	-12.1254
▁rushdie	-12.1254
▁adjustment	-12.1254
▁disqualified	-12.1254
▁furious	-12.1254
▁conscience	-12.1254
▁aceh	-12.1254
▁luke	-12.1254
▁jeju	-12.1254
▁patriotism	-12.1254
▁tanner	-12.1254
▁embarrassment	-12.1254
▁hosseini	-12.1254
▁unbelievable	-12.1254
▁charismatic	-12.1254
▁graduation	-12.1254
▁forgery	-12.1254
▁tusk	-12.1254
▁yuko	-12.1254
▁racism	-12.1254
▁borne	-12.1254
▁flourish	-12.1254
▁ancest	-12.1255
▁stoppage	-12.1255
▁ariel	-12.1255
▁clever	-12.1255
▁mcnam	-12.1255
▁cellular	-12.1255
▁generous	-12.1255
dorf	-12.1255
▁airlift	-12.1255
▁richmond	-12.1255
▁artwork	-12.1255
▁freak	-12.1255
▁liftoff	-12.1255
▁chew	-12.1256
▁terrifi	-12.1256
▁gloves	-12.1256
▁bergen	-12.1256
▁pew	-12.1256
▁arabiya	-12.1256
▁thoms	-12.1256
▁revoked	-12.1257
▁takeshima	-12.1257
▁ruben	-12.1257
▁alitalia	-12.1257
▁amass	-12.1257
▁interruption	-12.1257
▁marketplace	-12.1257
▁lapse	-12.1257
▁thankful	-12.1257
▁registr	-12.1257
▁huts	-12.1258
▁abstain	-12.1258
▁surprises	-12.1258
▁pierce	-12.1259
▁angri	-12.1259
▁1948	-12.1259
▁sagar	-12.126
▁governance	-12.126
▁doug	-12.126
▁stoke	-12.1261
▁certifi	-12.1261
▁creditors	-12.1261
▁fearful	-12.1262
▁cardiov	-12.1262
▁interceptor	-12.1263
▁leno	-12.1263
▁kampu	-12.1265
▁confused	-12.1265
▁barber	-12.1265
awful	-12.1265
▁xue	-12.1265
▁yelled	-12.1266
▁ouster	-12.1266
▁distinguish	-12.1266
▁bulbs	-12.1268
▁plaintiffs	-12.1268
▁airship	-12.1268
▁deteriorated	-12.1269
▁cotte	-12.1269
▁heller	-12.127
rne	-12.1272
▁volcanoes	-12.1273
▁downward	-12.1274
rell	-12.1274
▁exaggerated	-12.1275
▁wit	-12.1275
▁perez	-12.1276
▁reactions	-12.1276
▁singaporean	-12.1277
▁iwc	-12.1279
▁groom	-12.1281
▁glasses	-12.1281
▁crusader	-12.1281
▁capitalism	-12.1282
▁verge	-12.1283
▁pinn	-12.1284
pag	-12.1285
▁submerg	-12.1285
▁mauric	-12.1286
▁zane	-12.1287
▁preconditions	-12.1287
▁renamed	-12.1287
▁scorer	-12.1287
▁aaa	-12.1288
▁startling	-12.1288
▁hijackers	-12.1289
▁forceful	-12.1289
▁robertson	-12.129
▁saga	-12.1291
▁valve	-12.1291
▁drm	-12.1294
▁shaken	-12.1295
▁nutrients	-12.1296
▁vendors	-12.1296
▁brighter	-12.1296
▁kraus	-12.1298
▁144	-12.1298
▁overhead	-12.1298
▁ibn	-12.1299
andra	-12.1302
▁13000	-12.1302
▁ryd	-12.1304
▁carriages	-12.1306
▁foreclosures	-12.1306
▁139	-12.1306
▁grams	-12.1307
▁shade	-12.1307
ubs	-12.1307
▁conventions	-12.1308
▁someday	-12.1309
▁bully	-12.131
▁bras	-12.1312
ashi	-12.1312
▁quicker	-12.1314
yongsan	-12.1314
▁machetes	-12.1316
zuma	-12.1316
abo	-12.1317
▁loosen	-12.1318
plan	-12.1319
▁joked	-12.1319
▁denis	-12.1321
▁foundations	-12.1323
▁sock	-12.1326
▁nash	-12.1326
▁westerners	-12.1329
▁header	-12.1329
▁solicit	-12.133
▁duo	-12.1332
▁flowing	-12.1334
▁clipp	-12.1334
▁gallas	-12.1335
▁carat	-12.1335
▁revelations	-12.1335
ducat	-12.1336
▁commenting	-12.1336
▁onboard	-12.1336
▁betting	-12.1342
▁shifts	-12.1342
▁fist	-12.1344
▁supplements	-12.1345
▁sacking	-12.1348
▁cogniti	-12.1348
▁cram	-12.1348
▁shui	-12.1349
▁differently	-12.135
▁accomplished	-12.1352
▁ruined	-12.1353
hallow	-12.1354
▁cannons	-12.1355
▁magistrates	-12.1355
▁playoffs	-12.1355
▁glowing	-12.1356
▁tsa	-12.1358
onic	-12.1359
320	-12.1364
▁injections	-12.1365
▁protester	-12.1367
▁jett	-12.1368
▁ramme	-12.1368
▁amman	-12.1369
▁az	-12.137
▁satisfaction	-12.1373
▁bat	-12.1374
▁planners	-12.1374
▁lat	-12.1374
▁tablet	-12.1377
▁hammon	-12.1382
▁publicize	-12.139
▁146	-12.1392
▁pornograph	-12.1395
▁locally	-12.1397
▁tai	-12.1398
▁conven	-12.1399
▁sliding	-12.1401
▁tzi	-12.1402
▁nois	-12.1402
▁borg	-12.1407
▁cr	-12.1408
pt	-12.1413
▁julian	-12.1413
▁boob	-12.1414
▁flagg	-12.1414
tai	-12.1419
rey	-12.1421
kel	-12.1423
▁albe	-12.1425
▁expressions	-12.1439
▁boasted	-12.144
▁nl	-12.1442
▁nights	-12.1442
▁destroyer	-12.1442
▁porch	-12.1443
▁celesti	-12.1443
▁singers	-12.1445
habi	-12.1447
▁elevat	-12.1456
▁insulted	-12.1457
confirmed	-12.1458
▁jeans	-12.1462
▁exams	-12.1462
▁abolished	-12.1466
▁hai	-12.1466
▁practiced	-12.1471
▁administrators	-12.1472
▁africans	-12.1472
▁136	-12.1473
▁sleepy	-12.1481
▁belts	-12.1482
▁das	-12.1491
▁casinos	-12.1492
▁disruptions	-12.1492
▁111	-12.1495
▁chic	-12.1497
▁dom	-12.1503
▁ui	-12.1503
▁functions	-12.1504
▁rah	-12.1507
▁concludes	-12.1508
dez	-12.1521
▁nominate	-12.1528
▁tro	-12.1531
▁reno	-12.1531
bach	-12.1535
dine	-12.1535
jaf	-12.1537
▁bait	-12.1537
▁retract	-12.1537
aimi	-12.154
▁birdie	-12.1551
sk	-12.1559
▁transplants	-12.1561
▁laughed	-12.1566
▁foray	-12.1569
▁ying	-12.1573
osis	-12.1576
▁haa	-12.1578
▁canary	-12.1579
gary	-12.158
▁darre	-12.1589
aking	-12.1592
▁stampede	-12.1596
▁duc	-12.1598
estero	-12.1603
▁fade	-12.1607
▁mao	-12.1607
iba	-12.1624
▁xu	-12.1625
▁quakes	-12.1627
▁resisting	-12.1628
tenberg	-12.1636
▁aunt	-12.1639
▁choke	-12.164
eaten	-12.1645
▁leftists	-12.1646
▁inability	-12.1653
▁painter	-12.1655
89	-12.1659
▁fortunate	-12.166
▁candles	-12.1661
elli	-12.1661
▁robbi	-12.1662
▁domini	-12.1668
hoe	-12.1671
rome	-12.1673
▁sticks	-12.168
▁ducks	-12.1681
▁gem	-12.1685
▁continu	-12.1686
allied	-12.1686
dka	-12.1689
▁hind	-12.1695
board	-12.1697
▁shores	-12.1703
lb	-12.1705
tracted	-12.1714
▁beta	-12.1714
▁bloom	-12.1715
▁lonely	-12.1717
performed	-12.1727
▁admire	-12.1735
ena	-12.1739
veh	-12.1744
▁mcle	-12.1745
link	-12.1751
▁greeting	-12.176
▁snipe	-12.1762
ole	-12.1767
pper	-12.1773
▁jamm	-12.1773
▁alba	-12.1783
▁liberate	-12.1792
▁volcani	-12.1794
ngled	-12.18
▁eurosta	-12.1802
▁editors	-12.1803
▁berg	-12.1806
ven	-12.1809
qi	-12.181
ouf	-12.1815
ado	-12.1817
▁shaha	-12.1817
▁poke	-12.1825
▁ari	-12.1825
▁museums	-12.1828
macho	-12.1829
▁kg	-12.1831
▁kra	-12.1832
▁runways	-12.1833
▁hans	-12.1834
▁cracks	-12.1839
▁footballer	-12.1841
▁destructi	-12.1844
98	-12.1848
▁verse	-12.1849
▁schedules	-12.1855
zer	-12.1857
▁fathers	-12.1858
aved	-12.1864
▁ev	-12.187
shan	-12.1871
▁gong	-12.1876
▁pitcher	-12.1877
oir	-12.1885
▁circulat	-12.1891
▁initiatives	-12.1905
▁uneas	-12.1905
▁bounds	-12.1907
rada	-12.1909
▁wastes	-12.1909
▁psycho	-12.1914
▁geographic	-12.192
▁metals	-12.1925
▁vid	-12.1925
▁refin	-12.1936
▁shine	-12.1963
nmen	-12.1968
▁consum	-12.1972
gaz	-12.1973
amba	-12.1974
▁ele	-12.1975
pinning	-12.1979
iers	-12.198
▁francesc	-12.1981
▁bh	-12.1984
▁weddings	-12.1987
ute	-12.1989
▁conciliat	-12.1989
▁156	-12.1993
15	-12.1995
ancy	-12.1996
▁nad	-12.1997
cchi	-12.2
zad	-12.2001
sea	-12.2004
▁cl	-12.2005
ati	-12.2013
13	-12.2016
▁replica	-12.202
▁incorporate	-12.2021
▁revel	-12.2022
oma	-12.2027
▁tract	-12.2032
505	-12.2039
▁boo	-12.2046
lic	-12.2047
▁deng	-12.2052
▁lang	-12.2052
▁cups	-12.2058
uca	-12.2059
ammar	-12.2059
▁2300	-12.2066
▁homer	-12.2066
▁bac	-12.2069
▁zealander	-12.207
▁depart	-12.2074
▁liberals	-12.2074
▁surround	-12.2076
▁4500	-12.2082
▁nikol	-12.2089
▁shel	-12.2089
▁ego	-12.2092
cu	-12.2094
▁pol	-12.2095
▁introduc	-12.2095
▁squares	-12.2095
ice	-12.2102
ndra	-12.2104
▁kost	-12.2112
bin	-12.2114
ets	-12.2121
psi	-12.2123
▁160000	-12.2125
▁codes	-12.2126
▁fest	-12.2127
hni	-12.2128
load	-12.2128
▁advise	-12.2129
post	-12.2139
▁rile	-12.2141
▁settl	-12.2146
weight	-12.2147
▁fle	-12.2148
▁reserv	-12.2149
▁pedestrian	-12.2149
▁athletic	-12.215
▁supplement	-12.2152
▁competitor	-12.2153
▁vegetable	-12.2153
kins	-12.2154
▁detector	-12.2155
ppe	-12.2155
▁emission	-12.2157
▁contestant	-12.2157
dog	-12.2159
wp	-12.2159
▁consequence	-12.2161
▁inflict	-12.2162
medics	-12.2163
▁plantation	-12.2163
parents	-12.2164
wanted	-12.2165
▁scream	-12.2165
▁allege	-12.2165
jean	-12.2165
▁380	-12.2167
stock	-12.2169
▁backward	-12.2173
▁launder	-12.2173
▁blu	-12.2175
▁observer	-12.2177
▁doom	-12.2179
▁166	-12.2179
terrestrial	-12.2183
▁luz	-12.2183
eva	-12.2185
▁brewer	-12.2186
nsei	-12.2191
eller	-12.2201
54	-12.2202
▁sweat	-12.2206
rkshire	-12.2206
▁edges	-12.2206
▁khal	-12.2212
▁sik	-12.2215
▁wool	-12.2216
young	-12.2227
ollen	-12.2229
▁swell	-12.223
▁121	-12.2231
▁vas	-12.2235
▁ensu	-12.2235
lat	-12.2236
▁prosecute	-12.2238
▁pharmac	-12.2238
▁pardo	-12.2239
▁magnet	-12.2241
▁assassinate	-12.2241
▁entertain	-12.2243
▁instruction	-12.2246
▁sherpa	-12.2246
▁tribun	-12.2246
▁prominen	-12.2248
▁bankrupt	-12.225
▁snub	-12.225
▁burge	-12.2251
▁wagon	-12.2252
▁affirm	-12.2253
ativity	-12.2253
▁recharge	-12.2253
▁absurd	-12.2253
▁acronym	-12.2253
▁badawi	-12.2253
▁basilica	-12.2253
▁blizzard	-12.2253
▁brisk	-12.2253
▁complement	-12.2253
▁cosmetic	-12.2253
▁cuisine	-12.2253
▁disadvantage	-12.2253
▁dysfunction	-12.2253
▁exodus	-12.2253
▁faculty	-12.2253
▁fjord	-12.2253
▁hormuz	-12.2253
▁inadequate	-12.2253
▁intrigue	-12.2253
▁islamiah	-12.2253
▁jellyfish	-12.2253
▁jockey	-12.2253
▁lafayette	-12.2253
▁landlord	-12.2253
▁lebouc	-12.2253
▁maldives	-12.2253
▁matthew	-12.2253
▁mclaren	-12.2253
▁milwaukee	-12.2253
▁monastery	-12.2253
▁nagasaki	-12.2253
▁natanz	-12.2253
▁necessity	-12.2253
▁netscape	-12.2253
▁oecd	-12.2253
▁pacify	-12.2253
▁peloponnese	-12.2253
▁plymouth	-12.2253
▁precarious	-12.2253
▁purple	-12.2253
▁rebuilt	-12.2253
▁relentless	-12.2253
▁robben	-12.2253
▁rupture	-12.2253
▁rutger	-12.2253
▁soprano	-12.2253
▁sotheby	-12.2253
▁spontaneous	-12.2253
▁stabilizing	-12.2253
▁subcommittee	-12.2253
▁thirteen	-12.2253
▁tigris	-12.2253
▁tmzcom	-12.2253
▁toothpaste	-12.2253
▁transgender	-12.2253
▁treadmill	-12.2253
▁uncomfortable	-12.2253
▁wrack	-12.2253
▁wrangling	-12.2253
▁zhao	-12.2253
▁mecca	-12.2253
▁subsidiz	-12.2253
▁alligator	-12.2253
▁enclosure	-12.2253
▁fandel	-12.2253
▁gymnast	-12.2253
▁revamp	-12.2253
▁solace	-12.2253
▁solemn	-12.2253
▁tgv	-12.2253
▁tsuyo	-12.2253
▁czar	-12.2253
▁theoretical	-12.2253
▁inviting	-12.2253
▁shrunk	-12.2253
▁bhut	-12.2253
▁kirkuk	-12.2253
▁offence	-12.2253
▁toshiba	-12.2253
▁funnel	-12.2253
▁stymie	-12.2253
▁unsure	-12.2253
▁cambridge	-12.2253
▁chessboard	-12.2253
▁malicious	-12.2253
▁narco	-12.2253
▁telecast	-12.2253
▁osbourne	-12.2253
▁qualities	-12.2253
▁converge	-12.2253
▁sandbag	-12.2253
▁senegal	-12.2253
▁hussain	-12.2253
▁mudslide	-12.2253
▁wrinkle	-12.2253
▁cowboy	-12.2253
▁dispel	-12.2253
▁pinpoint	-12.2253
▁bengal	-12.2253
▁lizard	-12.2253
▁cyprus	-12.2253
▁emphatic	-12.2253
▁arrowhead	-12.2253
▁drummer	-12.2253
▁twitter	-12.2253
▁chinook	-12.2253
▁playground	-12.2253
▁ravine	-12.2253
▁quran	-12.2253
▁coloss	-12.2253
▁pleasant	-12.2253
▁mitch	-12.2253
▁temptation	-12.2253
▁diaries	-12.2254
▁bashir	-12.2254
▁bolivia	-12.2254
▁glamo	-12.2254
▁eavesdropp	-12.2254
▁ghost	-12.2254
▁wanna	-12.2254
▁perished	-12.2254
▁exhaustion	-12.2254
werp	-12.2254
▁conscien	-12.2254
▁riddle	-12.2254
ngchon	-12.2254
▁vigilant	-12.2254
▁mansion	-12.2254
▁reyes	-12.2254
▁cheju	-12.2254
▁racket	-12.2254
▁unfreez	-12.2254
▁intermedia	-12.2254
▁preemptive	-12.2254
▁swindl	-12.2255
▁unnerv	-12.2255
▁autobiography	-12.2255
▁triang	-12.2255
▁unreasonable	-12.2255
▁secularism	-12.2255
▁grill	-12.2255
▁jamestown	-12.2255
▁robbed	-12.2255
▁haq	-12.2255
▁ntv	-12.2255
▁dweller	-12.2255
▁blazers	-12.2255
▁chiap	-12.2255
▁paek	-12.2255
ters	-12.2256
henko	-12.2256
▁inventories	-12.2256
▁andersen	-12.2256
▁congresswoman	-12.2256
▁katz	-12.2256
▁loyalty	-12.2256
▁dumpling	-12.2256
▁hamza	-12.2256
▁ritz	-12.2256
▁koran	-12.2257
▁buildup	-12.2257
iyan	-12.2257
▁beads	-12.2257
▁suck	-12.2257
▁abandonment	-12.2257
▁1920	-12.2257
varna	-12.2258
▁surgical	-12.2258
▁duration	-12.2258
▁drac	-12.2258
▁compass	-12.2258
▁condom	-12.2258
▁scarce	-12.2258
▁breakup	-12.2258
▁gratitude	-12.2258
▁shrugg	-12.2258
▁ruler	-12.2258
▁1944	-12.2258
▁cremation	-12.2258
▁burton	-12.2258
▁reneg	-12.2259
▁newsweek	-12.2259
[...]
