<pad>	0
<s>	0
</s>	0
<unk>	0
<PAD>	0
<BOS>	0
<EOS>	0
<UNK>	0
을	-3.53386
는	-3.66218
의	-3.71542
은	-3.99886
를	-4.0089
▁	-4.19274
가	-4.32156
에	-4.39115
이	-4.43308
고	-4.63385
한	-5.09926
에서	-5.10896
로	-5.12868
▁이	-5.18453
인	-5.22699
▁그	-5.25486
일	-5.25879
으로	-5.34772
▁있다	-5.41066
과	-5.44189
와	-5.54002
▁수	-5.5703
도	-5.59748
▁밝혔다	-5.63974
▁말했다	-5.66265
▁고	-5.69872
할	-5.76074
년	-5.77997
▁있는	-5.84249
하고	-5.98328
지	-5.99751
▁2	-6.068
▁1	-6.11156
▁대한	-6.14566
▁전	-6.15226
▁위해	-6.16198
▁한	-6.19638
▁이번	-6.21762
다	-6.23159
▁미국	-6.23551
▁전했다	-6.24023
며	-6.24153
월	-6.24831
▁3	-6.29954
하는	-6.31064
▁지난	-6.31617
만	-6.33942
▁대해	-6.41805
던	-6.42507
했다	-6.44506
▁것이라고	-6.45431
▁미	-6.48038
▁중	-6.48221
▁것으로	-6.49744
명	-6.51417
된	-6.51938
에게	-6.5316
▁있다고	-6.54105
해	-6.54681
기	-6.57287
▁정부	-6.58878
명이	-6.59502
▁며	-6.60695
▁그러나	-6.6356
▁것을	-6.63961
▁4	-6.67431
▁더	-6.67711
자	-6.68182
히	-6.69713
▁이라크	-6.70009
▁것	-6.7037
으며	-6.7169
▁5	-6.74393
▁6	-6.76685
▁다른	-6.77148
게	-6.77722
나	-6.78795
들은	-6.80201
▁대통령	-6.83489
퍼센트	-6.84293
▁중국	-6.85618
운	-6.86905
스	-6.87025
하게	-6.87086
▁10	-6.88326
▁한편	-6.88718
▁북한	-6.90484
▁또	-6.92185
▁오바마	-6.92897
지만	-6.94296
▁경찰	-6.9585
▁대변인	-6.99532
들이	-7.00255
▁후	-7.00468
▁등	-7.00504
▁총리	-7.00847
명의	-7.02926
▁에	-7.0357
▁많은	-7.03952
▁위한	-7.0425
▁우리	-7.046
▁통해	-7.05314
▁부시	-7.06071
▁이후	-7.06125
시	-7.06499
▁내	-7.07847
▁주	-7.08623
▁대통령은	-7.08774
하기	-7.10048
▁가장	-7.10964
▁영국	-7.11201
적인	-7.12981
▁같은	-7.13027
▁두	-7.13085
했으며	-7.13802
▁8	-7.14193
▁동안	-7.14674
까지	-7.15023
▁것이다	-7.15116
▁이라고	-7.16472
▁한국	-7.16512
▁않았다	-7.17323
하지	-7.17441
하며	-7.17987
될	-7.18857
리	-7.19336
▁7	-7.19812
▁할	-7.26016
▁주장했다	-7.26081
▁있	-7.26666
▁약	-7.27615
▁될	-7.27723
▁말	-7.28646
▁현재	-7.29331
▁세계	-7.2935
▁것은	-7.29806
▁관련	-7.30861
▁또한	-7.30961
▁문제	-7.31612
▁때	-7.31813
▁바	-7.33989
▁한다	-7.34303
라	-7.34562
주	-7.36019
▁보도했다	-7.36282
대	-7.36598
▁12	-7.36686
▁했다	-7.36812
▁일부	-7.36861
▁이상	-7.37212
▁덧붙였다	-7.37254
▁최근	-7.37546
드	-7.37691
▁및	-7.37767
▁알	-7.37941
이다	-7.383
▁있었다	-7.3936
서	-7.39512
▁경우	-7.39527
▁영화	-7.39561
▁9	-7.40371
▁이들	-7.40752
▁지역	-7.41046
▁후보	-7.43036
▁모든	-7.43261
▁자신의	-7.43347
세	-7.43609
면	-7.44538
▁것이	-7.4461
개	-7.44835
어	-7.44953
▁가	-7.45043
▁20	-7.45689
▁새로	-7.45934
했던	-7.4635
▁11	-7.47361
▁함께	-7.47535
▁당시	-7.48329
으나	-7.4921
라고	-7.49246
▁의	-7.49645
트	-7.50215
▁미군	-7.50261
했다고	-7.50444
▁그리고	-7.52592
▁일본	-7.52605
▁때문에	-7.53809
상	-7.53934
▁뒤	-7.55359
▁경제	-7.56404
사	-7.56451
▁예정이다	-7.58092
▁수도	-7.58494
▁모두	-7.59226
▁결과	-7.59307
▁설명했다	-7.59455
야	-7.59849
▁있습니다	-7.60211
수	-7.60284
▁30	-7.60496
▁몇	-7.60924
▁있으며	-7.60928
에따르면	-7.61497
▁에서	-7.62224
도록	-7.62418
▁조사	-7.62869
▁라고	-7.63403
▁아직	-7.64824
▁하는	-7.64993
보다	-7.6508
▁프랑스	-7.65499
▁당국	-7.65691
▁유엔	-7.65723
▁러시아	-7.66082
▁큰	-7.67109
▁파키스탄	-7.68371
▁공격	-7.68528
됐다	-7.68751
들을	-7.68867
진	-7.68991
▁이스라엘	-7.69022
▁이란	-7.69468
▁사실	-7.69516
▁사고	-7.71527
해야	-7.72333
▁회담	-7.72643
▁국가	-7.72924
▁계획	-7.72941
▁지난해	-7.73021
▁그녀	-7.7318
▁처음	-7.73236
▁제	-7.73262
▁올해	-7.73349
▁없다	-7.74627
성	-7.74632
▁대통령이	-7.74668
▁15	-7.74986
▁지	-7.75379
▁사건	-7.76024
▁19	-7.7606
▁민주당	-7.76216
니	-7.76567
▁클린턴	-7.76875
▁않을	-7.76881
▁열린	-7.77453
▁나	-7.77924
르	-7.78205
▁이날	-7.78413
간	-7.78727
▁경기	-7.79017
▁성명	-7.79436
이라고	-7.79728
▁하고	-7.80392
▁사람들	-7.80606
▁일	-7.8077
▁발표했다	-7.82605
비	-7.82619
▁시	-7.83244
▁발생한	-7.8335
억	-7.83733
면서	-7.83943
아	-7.84005
▁받고	-7.8432
▁받았다	-7.84539
▁관계자	-7.85081
하다	-7.85427
▁존	-7.85702
▁비	-7.8588
▁라	-7.86533
▁다시	-7.86611
한다	-7.87523
▁16	-7.87524
▁여성	-7.87683
▁미국의	-7.87782
▁지원	-7.87784
▁계속	-7.88036
차	-7.88582
▁테러	-7.88625
적	-7.89405
▁된다	-7.89787
▁가운데	-7.89831
▁달러	-7.89848
분	-7.90317
▁핵	-7.90399
▁사망했다	-7.91129
▁사람들이	-7.91364
위	-7.91959
▁있을	-7.92412
▁주요	-7.92503
선	-7.92505
▁됐다	-7.92565
▁이에	-7.93291
▁의해	-7.93394
▁사	-7.93801
크	-7.9432
부	-7.94335
▁정부가	-7.94721
▁장관	-7.94791
하여	-7.94879
▁18	-7.9494
즈	-7.9496
▁사람	-7.9536
이나	-7.96657
▁데	-7.96916
치	-7.97001
▁인해	-7.97015
▁오	-7.97106
▁발표	-7.97367
▁조치	-7.9773
▁반	-7.97775
▁국제	-7.98046
▁선거	-7.98061
▁로	-7.98567
▁첫	-7.98878
부터	-7.98979
▁않은	-8.00053
▁한다고	-8.00351
▁관계	-8.00769
▁25	-8.00809
▁달	-8.00981
▁시위	-8.01167
에도	-8.01307
당	-8.02226
▁거	-8.02478
▁보고	-8.02652
▁혐의로	-8.02726
▁아프간	-8.02758
▁이미	-8.03429
▁13	-8.03507
▁지금	-8.03669
적으로	-8.03819
▁안	-8.0413
▁기록	-8.04461
▁해	-8.04498
▁있었	-8.04583
▁승리	-8.0565
▁아	-8.05825
길	-8.06112
었다	-8.06176
▁14	-8.06216
소	-8.06514
화	-8.06931
▁위치한	-8.07541
▁22	-8.07941
▁사망	-8.08222
▁매우	-8.08266
▁연구	-8.08276
하면서	-8.084
▁줄	-8.09451
▁이슬람	-8.09791
▁군	-8.10118
▁의원	-8.11094
시간	-8.11137
▁다	-8.11451
전	-8.11465
용	-8.11516
▁회사	-8.11782
▁없는	-8.11871
▁이라	-8.11915
로부터	-8.11979
▁?	-8.12163
▁팔레스타인	-8.12189
▁50	-8.12461
▁없다고	-8.12524
▁방문	-8.12606
▁총	-8.13227
▁기자	-8.13255
▁피해	-8.13385
▁추가	-8.13538
했습니다	-8.13856
▁비난	-8.13945
▁채	-8.14048
▁않고	-8.14231
되어	-8.14314
▁대부분	-8.1445
▁뉴욕	-8.14481
▁17	-8.1459
에따라	-8.14862
였다	-8.14924
▁대표	-8.15505
▁대선	-8.15512
▁오늘	-8.15806
▁조지	-8.15864
▁마	-8.16663
▁명의	-8.16677
▁초	-8.16843
▁정보	-8.1707
▁인도	-8.17514
▁어떤	-8.17565
▁잘	-8.17733
▁세	-8.17757
▁노	-8.17775
▁지적했다	-8.17981
▁있다는	-8.17982
▁강	-8.18035
▁조	-8.18103
이며	-8.18135
▁호주	-8.18583
타	-8.1869
▁정도	-8.18732
▁지지	-8.18861
▁아이	-8.1898
▁탈레반	-8.1901
▁간	-8.19371
▁결정	-8.1948
▁대	-8.19632
▁혐의	-8.19753
▁프로그램	-8.20044
▁원문기사보기	-8.20084
여	-8.20262
거나	-8.20454
▁시장	-8.20466
▁포함	-8.20568
▁시간	-8.20573
▁소속	-8.20575
▁감독	-8.20661
▁새	-8.20892
들	-8.21087
▁인터넷	-8.21161
▁24	-8.21161
돼	-8.21218
▁내용	-8.21265
라는	-8.21522
▁우려	-8.21904
▁하지	-8.2224
▁독일	-8.22383
프	-8.2242
바	-8.22448
했지만	-8.22565
레	-8.22571
▁대학	-8.22654
처럼	-8.2295
번	-8.2321
▁100	-8.23215
▁활동	-8.23504
▁부상	-8.24294
달러	-8.24401
식	-8.24502
▁관리	-8.2498
▁최고	-8.25008
▁유럽	-8.25027
▁2006	-8.25132
▁여러	-8.25376
▁상원의원	-8.25461
원	-8.25463
▁않는다	-8.25539
▁못했다	-8.25766
▁발생했다	-8.25777
▁받은	-8.25787
오	-8.25896
에서는	-8.25905
▁협상	-8.26213
▁하지만	-8.26336
▁주장	-8.26352
년간	-8.26452
▁보고서	-8.2646
▁부	-8.26606
마	-8.27026
▁21	-8.27394
▁매케인	-8.2743
디	-8.27876
질	-8.28067
▁27	-8.28118
됐	-8.28273
▁40	-8.28278
▁카	-8.2853
▁의회	-8.28745
▁올림픽	-8.29436
▁언론	-8.29709
구	-8.29749
▁차	-8.2988
▁많	-8.29927
티	-8.30094
▁된	-8.30195
▁요구	-8.30275
▁폭탄	-8.30375
▁사용	-8.30553
보	-8.30736
▁오후	-8.31084
▁23	-8.31363
▁입장	-8.31732
코	-8.31758
▁단체	-8.31924
▁시작	-8.31999
▁발생	-8.32033
▁북한이	-8.32141
▁모습	-8.3221
파	-8.32232
우	-8.33068
▁전쟁	-8.33523
미	-8.33657
▁인터뷰에서	-8.33974
▁남자	-8.34608
▁준비	-8.34849
▁떨어진	-8.34863
▁것에	-8.35031
▁자동차	-8.35117
제	-8.35148
호	-8.35212
습니다	-8.35294
▁방송	-8.35371
려	-8.35659
▁이러	-8.35828
▁않	-8.35849
▁앞으로	-8.35899
되는	-8.35922
▁2005	-8.35962
▁있어	-8.35984
▁성	-8.35985
되었다	-8.36262
▁판매	-8.36325
▁나는	-8.37258
▁갖고	-8.37282
개월	-8.3731
▁26	-8.3744
▁차량	-8.37472
▁공화당	-8.37595
▁미얀마	-8.37828
▁마지막	-8.37866
▁강조했다	-8.37924
린	-8.37935
▁병원	-8.38503
▁상	-8.38721
▁경찰이	-8.3877
였	-8.38863
카	-8.39068
하	-8.39126
산	-8.3916
▁인쇄	-8.39283
▁지도자	-8.39475
▁원	-8.39584
▁와	-8.3962
입니다	-8.39965
▁컴퓨터	-8.39981
▁앞서	-8.39993
▁가진	-8.40005
▁합의	-8.40208
▁반대	-8.40212
▁터키	-8.40468
▁정책	-8.40494
▁변화	-8.40693
▁교수	-8.40892
개의	-8.41059
▁남부	-8.4122
이었다	-8.41428
▁비난했다	-8.41476
▁폭발	-8.41625
▁검찰	-8.41671
▁힐러리	-8.41677
▁오전	-8.41751
▁의사	-8.41827
▁오는	-8.41876
▁미국과	-8.41982
▁독해	-8.42201
▁우주	-8.42345
토	-8.42383
되지	-8.42396
회	-8.42619
▁버락	-8.42671
▁사이	-8.42716
▁개발	-8.42731
하는데	-8.42771
▁않았	-8.42807
▁기	-8.42923
들의	-8.43138
▁자신이	-8.43187
▁규모	-8.43294
▁물	-8.43401
설명	-8.43501
▁기술	-8.43521
▁백악관	-8.43707
했고	-8.44385
▁아시아	-8.44432
들에게	-8.4444
▁이어	-8.44462
▁다음	-8.44667
▁석방	-8.4502
는데	-8.45043
▁평화	-8.45088
되고	-8.45444
▁미국이	-8.45548
▁도시	-8.4556
▁원문	-8.45679
▁지난달	-8.45747
점	-8.45951
릴	-8.46082
장	-8.46159
▁없었다	-8.46236
▁구	-8.46242
내	-8.46303
▁불	-8.46346
▁보도	-8.46693
조	-8.4733
러	-8.47474
▁좋은	-8.47714
▁무샤라프	-8.47973
안	-8.47988
▁지역에서	-8.48053
▁인근	-8.4812
▁자	-8.48478
▁있지만	-8.48644
▁명	-8.48788
▁정	-8.48829
▁관한	-8.48905
▁2008	-8.48994
▁상황	-8.49086
▁아무	-8.49821
▁해결	-8.49966
▁없이	-8.50038
▁무	-8.50045
▁영향	-8.50523
년에	-8.50579
▁29	-8.50697
▁볼	-8.50705
▁피	-8.50841
▁투표	-8.51004
▁이런	-8.5105
▁가족	-8.5117
▁연방	-8.51233
▁점	-8.51935
▁28	-8.5194
으로부터	-8.5197
▁전문가들	-8.52165
▁현지	-8.52361
▁최소	-8.52383
권	-8.52495
▁사망자	-8.52559
▁노력	-8.52566
▁만에	-8.52647
▁저	-8.52651
▁안전	-8.52689
▁이탈리아	-8.52702
▁이를	-8.52828
▁보인다	-8.52882
▁검사	-8.53161
▁증가	-8.53166
▁않다	-8.53167
살	-8.53351
▁리	-8.5348
함	-8.53504
▁미국은	-8.53551
▁가능성	-8.53637
▁개	-8.53729
▁이용	-8.53818
▁치료	-8.53819
▁금융	-8.53877
▁불법	-8.54109
온	-8.54192
법	-8.54328
관	-8.54761
▁미사일	-8.54776
▁생산	-8.54985
▁김	-8.54988
▁스페인	-8.55016
노	-8.55024
▁행사	-8.55037
▁중요한	-8.55062
브	-8.55076
▁이전	-8.5514
▁산	-8.55497
▁최초	-8.55794
▁밤	-8.5586
▁연기	-8.55922
▁보다	-8.55975
번째	-8.55996
▁이름	-8.56054
▁하	-8.56207
▁야당	-8.56421
▁인	-8.56483
▁공식	-8.566
▁논의	-8.56745
▁주둔	-8.56905
모	-8.57082
▁알카에다	-8.57095
▁위협	-8.57113
▁당	-8.57153
▁보	-8.57381
직	-8.57567
▁박사는	-8.57764
▁알려졌다	-8.57792
물	-8.58076
▁그들	-8.58281
중	-8.58479
▁생각	-8.58488
▁사태	-8.58811
▁파	-8.58869
▁날	-8.58939
하기로	-8.5913
▁도	-8.59134
▁불구하고	-8.59254
▁대통령과	-8.59407
씨	-8.59431
▁용의자	-8.59607
▁정치적	-8.59611
▁양	-8.59675
▁돈	-8.59922
▁역사	-8.60139
난	-8.60232
▁말했습니다	-8.60497
▁법원	-8.60617
▁이야기	-8.60683
▁여행	-8.6098
▁매	-8.61045
▁관심	-8.61059
▁반면	-8.61381
박	-8.61398
▁것입니다	-8.61425
▁은행	-8.61752
루	-8.61791
▁사망한	-8.61836
▁부토	-8.61897
데	-8.61956
▁런던	-8.62044
▁가격	-8.62282
▁200508	-8.62389
▁전에	-8.62465
신	-8.62471
▁주민들	-8.62539
▁코리아	-8.62769
▁재	-8.62859
정	-8.62911
영	-8.62933
▁자신들	-8.63019
▁방법	-8.63037
▁대해서	-8.63108
▁무기	-8.6318
▁비행기	-8.63255
▁회장	-8.63424
▁자금	-8.63465
▁팀	-8.63665
▁없	-8.6373
▁서비스	-8.63845
▁반군	-8.63848
▁자신	-8.63863
▁살해	-8.63948
▁조직	-8.64095
발	-8.64275
▁필요	-8.6448
▁인질	-8.64683
▁발언	-8.64746
▁씨	-8.64904
다고	-8.65038
▁학교	-8.65121
▁외	-8.65158
▁한나라당	-8.65199
들과	-8.65228
▁것이라는	-8.65495
▁열	-8.65551
▁적	-8.6587
200508	-8.65895
▁신	-8.66048
▁상승	-8.66123
국	-8.6627
▁출신	-8.66301
했었다	-8.6643
석	-8.66432
▁높은	-8.66439
하도록	-8.66465
▁최대	-8.66473
▁60	-8.66591
▁지난주	-8.66804
▁올	-8.66839
▁발	-8.66883
더	-8.66974
▁바그다드	-8.67032
▁것이라	-8.67107
▁의하면	-8.67146
▁북부	-8.67246
▁수사	-8.67561
피	-8.67644
▁가능성이	-8.67645
▁건물	-8.67792
▁역할	-8.67842
▁인용	-8.67897
2	-8.68119
▁군사	-8.68128
▁강력	-8.68356
▁번째	-8.68433
▁더욱	-8.68651
▁선	-8.68788
▁집	-8.68813
▁벌이	-8.68846
▁뜻	-8.68979
▁왔다	-8.69047
계	-8.69328
▁정치	-8.69398
▁하나	-8.69466
▁지역에	-8.69485
▁예정	-8.69596
▁알고	-8.69747
▁것이며	-8.6987
▁위	-8.70014
▁시위대	-8.70063
▁국경	-8.70239
▁유	-8.7024
▁공동	-8.70254
측	-8.70255
▁2004	-8.70265
▁공	-8.70556
▁아버지	-8.70562
시킬	-8.70952
▁뉴스	-8.71061
사전	-8.71269
력	-8.71337
▁부인	-8.71441
종	-8.71512
마리	-8.71582
▁되는	-8.71725
▁타	-8.71865
▁지구	-8.71954
▁어제	-8.7225
▁앞	-8.72335
▁나라	-8.72394
▁모	-8.72454
세의	-8.72482
▁그것	-8.72595
▁선수	-8.72609
▁필요한	-8.72877
▁핵무기	-8.72882
▁까지	-8.7303
▁이와	-8.73054
▁거래	-8.73178
▁게임	-8.73217
▁병력	-8.73221
▁자살	-8.73331
▁시작했다	-8.7371
▁언급	-8.73717
▁관계자들	-8.73864
▁사르코지	-8.73886
▁법안	-8.73911
▁하루	-8.73967
▁장	-8.73998
▁위기	-8.74055
▁고위	-8.7413
▁하마스	-8.7416
▁부족	-8.74253
형	-8.74464
됐다고	-8.74508
▁특	-8.74683
배	-8.74739
▁결국	-8.74907
▁라이스	-8.74931
▁않는	-8.75124
▁코	-8.75136
▁확인	-8.75146
▁전화	-8.75204
▁독립	-8.75231
단	-8.75246
▁폭탄테러	-8.75293
▁운동	-8.75321
▁행위	-8.75486
이자	-8.75515
하겠다고	-8.75526
▁중단	-8.75659
▁이제	-8.75673
▁관련된	-8.75866
▁아들	-8.75914
▁아침	-8.75929
▁아이들	-8.75986
▁법	-8.76128
▁기자회견에서	-8.76175
▁아니라	-8.762
런	-8.76204
▁공항	-8.76236
▁금지	-8.76243
▁소	-8.76511
한다고	-8.76649
▁각	-8.76652
▁우승	-8.76772
▁동영상	-8.76804
▁행동	-8.76811
▁서울	-8.76877
▁건강	-8.76949
▁보였다	-8.77117
▁이같	-8.77249
포	-8.7738
▁공급	-8.77429
▁티베트	-8.77544
▁워싱턴	-8.77756
▁충돌	-8.77804
▁노무현	-8.78003
▁여부	-8.78042
▁직접	-8.78051
▁배	-8.78164
임	-8.7829
▁보호	-8.78301
▁위해서	-8.78314
▁요청	-8.78513
▁스	-8.786
든	-8.78637
▁캘리포니아	-8.78686
▁타고	-8.78718
▁소식	-8.78955
▁기업	-8.79257
▁아니다	-8.79332
차례	-8.79345
▁받을	-8.79354
체	-8.79363
▁국방부	-8.7942
이라는	-8.79569
▁있고	-8.80063
방	-8.80063
▁브라운	-8.80135
▁심	-8.80198
동	-8.80244
▁2000	-8.80303
년까지	-8.80365
날	-8.80449
▁주택	-8.80622
▁사람이	-8.80638
터	-8.80917
▁2003	-8.81225
위원회	-8.81227
하면	-8.81266
▁건설	-8.81311
▁했다고	-8.8149
▁역시	-8.81602
▁대화	-8.81628
▁보안	-8.81641
▁어떻게	-8.81932
▁시신	-8.82045
▁이유	-8.82479
친	-8.82739
▁열리는	-8.82791
▁받았	-8.82913
▁31	-8.8293
▁못	-8.82992
란	-8.83202
▁이유로	-8.8333
▁기간	-8.83331
▁베이징	-8.83393
▁한국인	-8.83408
▁감소	-8.83468
▁예정이라	-8.83477
▁곧	-8.83812
▁투자	-8.83884
▁협력	-8.83929
▁빌	-8.83934
▁콜롬비아	-8.83997
▁비행	-8.84048
키	-8.84083
월에	-8.84088
시켰다	-8.84094
츠	-8.84106
▁판결	-8.8417
▁철수	-8.8418
문	-8.84224
▁폴	-8.84258
▁사건에	-8.84403
1	-8.84446
▁0	-8.8475
▁폐쇄	-8.84787
▁국무부	-8.84892
▁문제에	-8.85033
▁특별	-8.85093
▁발견	-8.85123
▁손	-8.85135
▁문	-8.85137
▁숨졌다	-8.85149
년대	-8.85373
▁데이비드	-8.85643
만달러	-8.85676
▁에너지	-8.85682
▁아프가니스탄	-8.85696
된다	-8.85737
▁자유	-8.85747
천	-8.8576
▁주변	-8.86044
▁발사	-8.86141
▁곳	-8.86348
▁변호사	-8.86417
급	-8.86477
▁대사	-8.86628
긴	-8.86806
▁못하	-8.86896
만명	-8.87021
퍼센트가	-8.87223
▁레	-8.87228
▁진행	-8.8739
▁있게	-8.87437
▁상원	-8.87445
포인트	-8.87507
▁대선후보	-8.87555
▁기회	-8.87596
▁신문	-8.87656
▁음악	-8.87671
▁회의	-8.87731
▁말하는	-8.87835
▁석유	-8.87925
▁연설	-8.88112
일간	-8.88411
▁같다	-8.88413
▁호텔	-8.88446
▁200	-8.8864
▁과학자들	-8.88664
▁아니	-8.88758
▁포	-8.88769
▁생활	-8.88843
▁범죄	-8.8901
▁승인	-8.89155
▁양국	-8.89171
▁서	-8.89223
▁증거	-8.89264
▁발견했다	-8.89272
▁박	-8.89403
▁전세계	-8.89495
속	-8.89507
유	-8.8956
하자	-8.89574
▁요구했다	-8.8969
▁눈	-8.8978
▁정상	-8.89886
▁사회	-8.89919
▁있기	-8.8997
▁체포	-8.90143
▁너무	-8.90174
▁대규모	-8.9029
▁교육	-8.90325
▁온	-8.90379
▁친구	-8.90392
▁살	-8.90492
▁수술	-8.9068
▁생각한다	-8.90806
▁우	-8.91007
▁훈련	-8.91056
▁만	-8.91298
▁어	-8.91443
▁타임즈	-8.91485
▁인구	-8.91742
▁동물	-8.91988
▁사진	-8.92101
▁개인	-8.92175
▁위원회	-8.92212
▁골	-8.92226
▁내년	-8.92305
▁비디오	-8.92336
▁길	-8.92407
▁재판	-8.92438
▁의견	-8.925
▁화재	-8.92592
▁재개	-8.92711
▁나타났다	-8.92737
▁통신	-8.92821
▁일이	-8.92948
▁전투	-8.92971
▁남성	-8.93029
▁위험	-8.93038
그	-8.93094
▁약어표	-8.93097
▁앞두고	-8.93099
▁결혼	-8.93196
▁대사관	-8.9327
하려는	-8.93272
▁현	-8.93378
▁상태	-8.93433
▁포함한	-8.93471
▁힘	-8.93493
▁비롯	-8.93508
▁레바논	-8.93883
▁민간인	-8.93955
▁성공	-8.94026
초	-8.94029
▁딸	-8.94067
▁남	-8.94106
▁심각한	-8.94141
▁사업	-8.943
▁로버트	-8.94333
▁관할	-8.9445
▁납치	-8.94456
▁판사	-8.94496
▁방	-8.94513
▁구조	-8.94835
▁인간	-8.94835
▁안에	-8.94875
▁태국	-8.94947
▁아닌	-8.95163
▁공개	-8.9518
▁이동	-8.95245
▁해외	-8.95309
▁여전	-8.95597
▁주지사	-8.95636
군	-8.9586
▁인도네시아	-8.95917
▁난	-8.95929
명과	-8.95977
▁저장	-8.9603
▁방안	-8.96192
▁배우	-8.96193
▁가지	-8.96244
▁그들의	-8.96333
으로써	-8.96425
설	-8.96805
▁일을	-8.97077
▁경고	-8.97095
▁당신	-8.97174
감	-8.97174
▁어린이	-8.97186
거	-8.97221
네	-8.97393
▁제안	-8.97446
재	-8.97614
▁드	-8.97872
▁전체	-8.97966
하거나	-8.98012
▁놓	-8.98195
▁임무	-8.98244
▁촉구했다	-8.98305
혀	-8.98509
▁대신	-8.98531
▁작은	-8.9854
▁2002	-8.98557
▁막	-8.98648
3	-8.98708
▁수준	-8.9893
▁밝혀졌다	-8.98996
▁경기에서	-8.99013
▁도로	-8.99036
▁작전	-8.99093
▁가지고	-8.99149
▁입은	-8.99309
▁측	-8.99353
울	-8.99448
금	-8.99465
▁안보	-8.99598
▁시설	-8.99613
스트	-8.99654
▁헬기	-8.99886
▁규정	-8.99895
▁마을	-9.00071
▁실	-9.00102
▁푸틴	-9.00274
▁멕시코	-9.00304
▁아기	-9.00444
▁여객기	-9.00444
▁항	-9.00532
▁애	-9.00669
▁온라인	-9.00687
학	-9.00724
▁열차	-9.00854
하려	-9.01074
져	-9.01076
▁대회	-9.01092
▁마이클	-9.01154
▁입었다	-9.01154
▁제재	-9.01193
▁국민	-9.01298
▁바로	-9.01484
▁선택	-9.01529
▁수입	-9.01834
▁명이	-9.01924
▁인권	-9.0203
▁받아	-9.02119
▁네	-9.02129
▁2007	-9.02144
▁그들이	-9.02174
▁이라크에서	-9.0226
▁살고	-9.02364
공	-9.02419
▁라디오	-9.02489
▁증시	-9.02512
▁국민들	-9.0254
▁이상이	-9.0261
강	-9.02719
하던	-9.02852
▁최종	-9.02934
건	-9.03053
▁통	-9.03064
▁행정부	-9.03167
▁시도	-9.03197
▁부대	-9.03255
▁말한다	-9.03256
▁얼마	-9.03333
▁메시지	-9.03401
▁경선	-9.0356
슨	-9.03661
▁본	-9.03706
버	-9.0394
경	-9.03994
▁미국인	-9.041
▁성장	-9.04125
▁출전	-9.0427
로서	-9.04297
▁대의원	-9.04306
▁무장	-9.04323
▁지도자들	-9.04325
▁외국인	-9.04348
▁이것	-9.04416
▁스타	-9.0452
▁중인	-9.04535
▁경고했다	-9.04653
▁밝힌	-9.04752
▁만약	-9.04761
▁목표	-9.04787
▁필요하다	-9.04831
요	-9.05013
▁개선	-9.05111
▁여자	-9.05253
▁도움	-9.05255
▁보내	-9.0535
▁아프리카	-9.05495
▁그런	-9.05565
▁힐	-9.05796
▁들	-9.05811
▁항공	-9.05921
▁출연	-9.05995
▁서로	-9.0604
▁환경	-9.06155
▁발표한	-9.06357
▁비해	-9.06392
▁즉	-9.06514
▁남편	-9.06562
▁외국	-9.06601
▁하락	-9.06666
▁연합	-9.06899
▁속	-9.0697
지는	-9.07084
▁돌	-9.07096
▁홍콩	-9.07194
▁화요일	-9.07251
▁벌였다	-9.07265
▁밝혔	-9.07297
후	-9.07419
▁시스템	-9.07472
▁의장	-9.07546
▁입	-9.07566
억달러	-9.07621
▁얻	-9.07743
▁관계자가	-9.07844
었다고	-9.0791
▁예상	-9.08027
▁예	-9.08047
▁책임	-9.08317
엔	-9.0839
▁없을	-9.08441
▁짐바브웨	-9.08478
▁스미스	-9.08479
▁가치	-9.08485
▁세금	-9.0851
청	-9.08616
▁알리	-9.08846
▁종	-9.08886
▁경쟁	-9.08954
▁기록했다	-9.09129
▁단	-9.09137
▁주식	-9.09187
실	-9.0921
▁지방	-9.09263
▁과거	-9.09273
▁인정	-9.09283
▁담	-9.09384
▁사무총장	-9.09435
▁낮	-9.09437
▁차례	-9.09509
병	-9.09509
▁같이	-9.0984
▁만나	-9.09953
▁소송	-9.10008
반	-9.10066
▁부부	-9.10112
▁내렸다	-9.10116
▁시즌	-9.10157
▁거리	-9.10161
▁미국에서	-9.10317
▁시아파	-9.10397
▁연료	-9.10432
▁중동	-9.10512
판	-9.10515
▁공연	-9.10526
있는	-9.10636
▁원인	-9.1073
▁친	-9.10873
▁걸	-9.10989
▁소식통	-9.11
▁하기	-9.11123
교	-9.11204
너	-9.11272
▁밖에	-9.11302
▁산업	-9.11367
▁번	-9.11369
▁사임	-9.11421
▁일정	-9.11509
표	-9.11561
▁권리	-9.11884
▁학생	-9.11961
▁앤	-9.12024
▁수치	-9.12073
▁일본의	-9.12074
▁상당	-9.12214
▁환자	-9.1222
론	-9.12294
▁부통령	-9.1231
▁평균	-9.12354
▁각각	-9.12363
▁팔	-9.12376
▁수단	-9.12425
▁총선	-9.12453
▁브라질	-9.12582
▁웹사이트	-9.1262
년부터	-9.12625
민	-9.12709
▁합의했다	-9.12731
▁가스	-9.12899
연	-9.13071
▁1000	-9.13111
▁80	-9.13155
하라	-9.13197
▁확보	-9.13319
▁파업	-9.13319
행	-9.1333
▁시험	-9.1335
▁이수지	-9.13352
▁나오	-9.1344
▁관리들	-9.13466
▁국내	-9.13608
▁500	-9.13617
▁사망하	-9.13629
▁비용	-9.13632
▁다양	-9.1371
▁제작	-9.13717
▁않아	-9.13863
일까지	-9.13877
▁해군	-9.14029
▁개최	-9.1406
▁대만	-9.14078
▁사이에	-9.14168
▁반응	-9.14385
▁구성	-9.14457
이었던	-9.14478
▁사건이	-9.14552
품	-9.1458
▁것과	-9.14788
▁여	-9.14863
▁계약	-9.14883
▁주말	-9.14959
▁텍사스	-9.14994
작	-9.15035
▁주민	-9.15142
▁발견됐다	-9.15286
▁내무부	-9.15361
▁여름	-9.15363
▁걸쳐	-9.15376
▁디	-9.15413
▁과정에서	-9.15415
▁국영	-9.15443
▁인상	-9.15529
▁통과	-9.15546
▁위원장	-9.15609
▁유지	-9.15745
▁결정했다	-9.15812
▁암	-9.15814
자들	-9.15837
▁폭력	-9.16
▁베	-9.16222
▁부상했다	-9.16281
▁완전	-9.16293
역	-9.16356
▁운영	-9.16377
▁추	-9.16514
▁항공사	-9.16573
5	-9.1665
▁주재	-9.16846
▁빈	-9.17068
▁편	-9.1712
▁호	-9.17133
▁케냐	-9.17316
▁되었다	-9.17409
▁강제	-9.17609
▁동부	-9.17833
▁몸	-9.17896
▁선고	-9.17908
▁후세인	-9.17975
층	-9.17977
▁이곳	-9.18026
앞서	-9.18037
▁대상으로	-9.18153
여명	-9.18298
졌다	-9.18327
▁담당	-9.18433
▁온몸	-9.18462
일부터	-9.18512
줄	-9.1864
통	-9.18696
▁약속	-9.1871
▁어머니	-9.19118
무	-9.19262
▁캐나다	-9.193
▁맞	-9.19357
장은	-9.19375
▁처리	-9.19456
했을	-9.19465
▁바란다	-9.19525
▁야후	-9.19527
심	-9.1961
▁경	-9.19697
▁광고	-9.19738
▁유일	-9.19835
▁베네수엘라	-9.20049
▁알려진	-9.20068
워	-9.20342
▁익명	-9.20354
▁35	-9.20555
▁북핵	-9.2057
▁바이러스	-9.20585
6	-9.20599
▁발견된	-9.20605
▁치	-9.20776
▁상대로	-9.21068
▁기상캐스터	-9.21122
팀	-9.21403
▁표	-9.21422
▁마치	-9.21521
▁차베스	-9.21666
▁통제	-9.21726
▁누	-9.21741
▁무장세력	-9.21765
▁플로리다	-9.21804
▁파병	-9.22207
케	-9.22235
▁이래	-9.22249
▁소녀	-9.22266
▁인기	-9.22267
▁사는	-9.22324
▁요청했다	-9.22346
▁집단	-9.22392
▁경찰에	-9.22505
▁다리	-9.22554
▁작품	-9.22612
▁90	-9.22678
▁제품	-9.22741
▁되고	-9.22805
▁민주주의	-9.2282
▁받는	-9.22962
량	-9.22963
▁왕자	-9.23075
▁직원	-9.23118
▁논쟁	-9.23294
대로	-9.23318
▁갈	-9.23356
▁크게	-9.2338
▁과	-9.23459
▁책	-9.2348
▁대변인이	-9.23718
▁사과	-9.23807
시켜	-9.23815
▁연	-9.23876
▁밝혔습니다	-9.23882
▁지명	-9.23891
▁예상된다	-9.23921
▁총격	-9.24
기도	-9.24075
▁유권자들	-9.24187
록	-9.24251
▁정권	-9.24271
▁버스	-9.24302
▁사령관	-9.24588
▁거대	-9.24624
달	-9.24653
▁제공	-9.24699
▁받지	-9.24778
출	-9.24801
합니다	-9.24843
▁변호사는	-9.24849
▁기대	-9.25123
▁메	-9.25241
▁합니다	-9.25325
▁사퇴	-9.25383
▁상원의원이	-9.25411
▁들어	-9.25423
▁희망	-9.25467
▁인터뷰	-9.25488
업체	-9.25653
하였다	-9.25712
많은	-9.2575
▁강한	-9.25751
▁때까지	-9.25811
▁수상	-9.25956
▁발전	-9.26002
▁있지	-9.26037
▁국회	-9.26047
▁해안	-9.26078
▁키	-9.26094
▁최악	-9.26095
▁무장단체	-9.26113
▁적이	-9.26123
▁나온	-9.26164
▁되어	-9.26203
▁위성	-9.26244
▁마크	-9.26355
한다는	-9.26362
류	-9.26463
▁차이	-9.26466
▁음식	-9.26519
▁암살	-9.26533
▁쿠바	-9.26706
▁한다는	-9.26811
▁머리	-9.26884
▁감시	-9.26894
저	-9.27015
▁동료	-9.27135
▁도움이	-9.27152
▁아니라고	-9.27258
승	-9.27286
▁실험	-9.27292
▁세력	-9.27369
▁평가	-9.27504
증	-9.2771
▁촬영	-9.27765
테	-9.27807
▁받게	-9.27908
▁2001	-9.27991
▁수출	-9.27992
▁전국	-9.28067
복	-9.28147
▁하원	-9.28338
▁성폭행	-9.28381
▁필리핀	-9.28387
▁따른	-9.28393
▁정부와	-9.28401
▁의료	-9.28419
▁임기	-9.28563
해왔다	-9.28607
▁상황이	-9.28654
▁명령	-9.28669
▁질문	-9.2886
▁별	-9.28884
▁여론조사	-9.28979
▁서부	-9.29028
중인	-9.29153
▁의미	-9.29191
▁중국은	-9.29445
▁달리	-9.29502
▁매년	-9.29581
▁확인했다	-9.29627
▁압력	-9.29637
▁못한	-9.2967
▁무역	-9.29673
▁월요일	-9.29972
▁가자지구	-9.30013
▁사우디	-9.30145
되기	-9.30248
▁비밀	-9.30253
▁기사	-9.30322
▁가졌다	-9.30441
▁남한	-9.30566
▁북한에	-9.30584
▁진압	-9.30587
▁언급했다	-9.30661
▁감염	-9.30676
▁있음	-9.3081
▁파괴	-9.30871
▁나왔다	-9.30882
▁인수	-9.30908
▁중에	-9.30916
▁자세	-9.3096
▁가능한	-9.31102
했으	-9.31124
▁이집트	-9.31138
▁계획이다	-9.31162
▁항공기	-9.31233
▁어느	-9.31332
▁공격으로	-9.31359
▁뇌	-9.31364
▁두고	-9.31402
▁주도	-9.3144
▁개혁	-9.31465
▁밝히지	-9.3155
▁시리아	-9.31557
▁자료	-9.31585
▁파리	-9.31637
다면	-9.31662
▁70	-9.31783
▁사실이	-9.31859
▁여론	-9.31907
힌	-9.31916
▁불만	-9.32071
▁병사	-9.32111
동안	-9.32129
▁보냈다	-9.32144
▁외교	-9.3229
▁선수들	-9.32383
▁인질들	-9.32405
▁부상자	-9.32432
▁나머지	-9.3253
▁이끄는	-9.32531
▁학생들	-9.32569
자회담	-9.326
▁사랑	-9.3262
▁영어	-9.32622
▁토	-9.32643
골	-9.3274
▁사람들을	-9.32858
▁업체	-9.32903
곳	-9.3298
가지	-9.32988
▁제한	-9.33093
▁사형	-9.33197
▁향해	-9.3323
▁300	-9.33253
▁동	-9.3331
▁벌	-9.33337
▁회복	-9.33338
탄	-9.33351
▁건	-9.33381
▁사람들에게	-9.33409
▁해야	-9.33418
▁후에	-9.33601
등	-9.33653
▁수색	-9.33683
▁구체적	-9.3375
▁기관	-9.33817
▁긴장	-9.33867
▁되지	-9.33988
▁희생자	-9.34004
▁지나	-9.34122
음	-9.34199
▁지진	-9.34205
7	-9.3422
해서	-9.34293
▁관해	-9.34294
약	-9.34303
▁공습	-9.34328
▁권력	-9.34333
▁식량	-9.34351
▁올랐다	-9.34571
▁아내	-9.34653
▁게	-9.34711
▁질	-9.34714
▁로마	-9.3472
▁분	-9.34754
▁흑인	-9.3477
▁싶다	-9.34976
▁일자리	-9.34995
▁소재	-9.35
▁주지사는	-9.35088
생	-9.35111
▁신고	-9.35116
▁군대	-9.35238
▁국무장관	-9.35278
▁허가	-9.35345
두	-9.35441
들에	-9.35446
▁쇼	-9.35469
▁루	-9.35531
하겠다	-9.35533
▁제임스	-9.35596
▁잘못	-9.35599
▁다음달	-9.35622
▁정부에	-9.35775
▁막기	-9.35777
▁참석	-9.35781
▁북	-9.35829
▁45	-9.36051
▁부모	-9.36058
▁위반	-9.36128
되었	-9.362
▁목숨	-9.36223
▁전기	-9.36242
▁찾아	-9.3625
▁미군이	-9.36545
▁센터	-9.3662
▁칸	-9.3665
▁지수	-9.36906
▁주장하고	-9.3697
▁숨지고	-9.36986
▁만큼	-9.37037
▁설치	-9.37058
▁커	-9.37301
▁허리케인	-9.37484
▁국방장관	-9.37487
▁자체	-9.37492
▁오른	-9.375
▁팬들	-9.3752
▁시민	-9.37653
▁질문에	-9.37663
▁강화	-9.37681
▁천	-9.37807
▁넘	-9.37826
▁나이	-9.37904
▁기지	-9.3798
5000	-9.38068
▁어떠한	-9.38121
▁복귀	-9.38266
▁만들어	-9.38337
▁비판	-9.38384
▁죽음	-9.3853
▁탑승	-9.3875
▁마약	-9.38785
갈	-9.38845
▁끝에	-9.38889
▁곳에서	-9.39018
▁유권자	-9.3902
▁파견	-9.39075
▁기소	-9.39111
회사	-9.39329
톤	-9.39345
▁헌법	-9.394
▁삶	-9.39408
▁왜	-9.39429
▁적어도	-9.39445
▁마음	-9.39459
▁그룹	-9.39517
▁시기	-9.39562
▁전문가	-9.39573
▁되	-9.39574
으로서	-9.39613
본	-9.39661
▁전시	-9.39727
▁귀	-9.39792
▁당선인	-9.39882
▁따라	-9.39936
튼	-9.40005
▁외무부	-9.40084
▁물론	-9.40086
▁갖	-9.40154
▁섬	-9.40215
▁설명	-9.40221
▁작업을	-9.40253
▁병	-9.40447
지역	-9.40516
▁거부	-9.40599
▁여성이	-9.40726
명으로	-9.40736
▁일반	-9.40886
었던	-9.40939
양	-9.40976
▁실시	-9.40982
▁접근	-9.40999
▁사원	-9.41018
▁움직임	-9.41144
▁시카고	-9.41326
▁입고	-9.4139
▁넘는	-9.41404
▁경제적	-9.41406
▁시간이	-9.41489
▁문화	-9.41591
▁수요일	-9.41722
업	-9.41761
▁소리	-9.41768
▁붕괴	-9.4179
▁사장	-9.41791
▁추진	-9.419
른	-9.41923
▁유명한	-9.41932
▁베컴	-9.42032
▁양측	-9.42141
▁페	-9.42261
▁목적	-9.42355
만한	-9.42402
▁선언	-9.4242
▁카운티	-9.42546
커	-9.42617
▁자리	-9.42634
▁수천명	-9.42683
▁종교	-9.42711
▁이달	-9.42722
▁혼란	-9.42743
▁이라크에	-9.42752
▁교전	-9.42824
▁이란이	-9.42875
▁존스	-9.42881
망	-9.42905
▁수천	-9.4294
▁발생해	-9.43014
▁살인	-9.43016
▁해리	-9.43124
▁인물	-9.43132
▁관련해	-9.43205
▁찰스	-9.43375
▁출마	-9.43384
▁직원들	-9.43406
▁고통	-9.43428
▁아베	-9.43435
▁중앙	-9.43441
▁전력	-9.43509
▁내려	-9.43573
래	-9.43604
▁수익	-9.4361
▁아주	-9.4362
▁칼	-9.43659
▁쿠	-9.4366
메	-9.43672
센터	-9.43935
▁소말리아	-9.43965
▁미래	-9.44009
▁긴급	-9.44047
▁안정	-9.44144
▁일요일	-9.44183
▁사진을	-9.44201
기로	-9.4434
▁제조	-9.44386
▁사상	-9.44526
▁피해자	-9.44558
시키는	-9.44581
색	-9.44627
▁국가들	-9.44667
▁심장	-9.44795
▁구매	-9.44808
▁자국	-9.44876
▁사항	-9.44885
▁병원에	-9.44931
▁신원	-9.44997
▁뿐	-9.45042
마다	-9.45124
▁비슷	-9.45204
▁좀	-9.45409
▁시상식	-9.45409
▁국제사회	-9.45419
여명이	-9.45428
개국	-9.45433
▁총재	-9.45457
▁승객	-9.4547
▁맥	-9.4549
▁부분	-9.4551
▁최고의	-9.45567
▁지도자인	-9.45591
▁상대	-9.45616
▁경험	-9.4573
만이	-9.45787
▁대중	-9.45897
하기도	-9.45951
▁선두	-9.46115
▁장면	-9.46136
료	-9.46189
▁주민들이	-9.46195
▁샤	-9.46229
▁착륙	-9.46369
▁선출	-9.46507
▁결의안	-9.46587
▁현장	-9.4673
▁로켓	-9.46791
처	-9.46793
▁게이츠	-9.46796
▁충격	-9.46849
림	-9.46888
▁고용	-9.46941
▁가질	-9.47051
▁의원들	-9.47066
쳐	-9.4722
▁작년	-9.47264
▁위치	-9.47285
▁확대	-9.47353
▁패	-9.47396
▁추락	-9.47413
▁체포됐다	-9.47423
▁젊은	-9.47444
▁인사	-9.47487
▁받	-9.47592
▁절차	-9.47603
▁공군	-9.47612
▁것인지	-9.47629
▁개의	-9.47632
장을	-9.47636
▁정상회담	-9.47673
▁폭력사태	-9.47762
▁영	-9.47798
▁고문	-9.4788
▁집중	-9.47884
▁교회	-9.47887
▁순간	-9.4789
▁교통	-9.48022
▁야	-9.48035
▁이전에	-9.48089
▁목표로	-9.48106
▁모델	-9.48141
▁접촉	-9.4827
▁선거에서	-9.48333
월부터	-9.48354
▁해제	-9.48418
▁보기	-9.48438
▁검토	-9.4867
▁반대하는	-9.48719
▁마리	-9.48767
▁나가	-9.48788
▁여사	-9.48828
▁군인	-9.48853
되	-9.48903
▁숨진	-9.48938
▁빨	-9.48947
▁밝히	-9.48976
▁정말	-9.49028
▁구속	-9.49058
▁방문한	-9.49187
▁선정	-9.49312
쉬	-9.49474
▁노조	-9.49752
▁목요일	-9.49819
▁주의	-9.49851
▁유명	-9.49889
▁전망	-9.4997
▁시행	-9.50075
세기	-9.50107
▁올라	-9.50122
▁단지	-9.50232
▁임시	-9.50301
▁코소보	-9.5034
▁동결	-9.50346
▁총기	-9.50351
투	-9.50387
베	-9.50442
▁판	-9.50474
▁보여주	-9.50488
▁가까	-9.5049
▁전략	-9.50642
▁마련	-9.50846
▁항의	-9.5087
▁변	-9.5093
▁나타나	-9.51065
▁이라크전	-9.51093
▁계속해서	-9.51109
▁임명	-9.51127
▁남북	-9.51141
하다고	-9.51172
되었습니다	-9.51211
인한	-9.51297
▁패배	-9.51419
▁약간	-9.51452
▁보이는	-9.51686
▁당했다	-9.51759
▁몇몇	-9.51795
▁신화통신	-9.51795
거리	-9.51827
▁있는지	-9.51839
▁표현	-9.51911
▁수석	-9.51953
▁들고	-9.51958
▁차기	-9.52277
▁불리	-9.52279
▁작업	-9.5231
아니라	-9.52532
▁고양이	-9.52537
▁판단	-9.52554
▁도착	-9.52575
▁도중	-9.52646
▁참가	-9.52677
▁도전	-9.52711
▁엘	-9.52901
▁매일	-9.53093
퍼	-9.53106
▁금	-9.53115
액	-9.53235
▁국립	-9.53248
▁잉글랜드	-9.53271
▁도쿄	-9.53277
▁유죄	-9.53304
▁밝혀지지	-9.53313
▁하며	-9.5333
▁연합군	-9.53435
단체	-9.535
▁체포했다	-9.5351
▁약물	-9.53552
▁회담에서	-9.5359
▁여당	-9.53674
▁수백	-9.53776
▁작성	-9.53872
▁윌리엄	-9.53877
▁조건	-9.53894
▁사이트	-9.53914
▁다이애나	-9.53977
▁블레어	-9.54017
▁올메르트	-9.54017
▁스포츠	-9.54068
▁대형	-9.54079
채	-9.5409
▁높이	-9.54125
편	-9.54136
▁자주	-9.54215
▁지지자들	-9.54257
▁휴대폰	-9.54274
▁압박	-9.54379
▁관광객	-9.54472
▁연설에서	-9.54569
▁분석	-9.54703
▁어려움	-9.54705
▁연구소	-9.54755
▁스스로	-9.5477
▁군부	-9.548
▁전까지	-9.54848
로써	-9.54925
했는데	-9.55151
▁관광	-9.55193
▁주에서	-9.55258
시키고	-9.55292
▁병원에서	-9.55334
▁자녀	-9.55375
▁오래	-9.55393
▁오랫동안	-9.55526
협회	-9.55533
▁2009	-9.55538
▁핵심	-9.55579
▁실수	-9.55645
▁허용	-9.55717
▁감	-9.55834
▁만든	-9.56027
▁아마	-9.56045
▁효과	-9.56071
▁성적	-9.56198
▁탁신	-9.5629
▁빠른	-9.5629
▁비상사태	-9.56292
▁노동	-9.56356
▁32	-9.5636
▁확실히	-9.56396
▁소비자	-9.5651
▁한반도	-9.5667
렌	-9.5668
▁외무장관	-9.56684
▁이와같	-9.56707
했	-9.56726
▁대비	-9.56825
▁탄	-9.56825
▁400	-9.56877
▁정당	-9.56905
▁영국의	-9.56908
▁곳에	-9.56922
▁버지니아	-9.56933
▁진	-9.56993
▁겪고	-9.57059
▁직후	-9.57064
▁연속	-9.57075
▁배치	-9.57303
자인	-9.57366
▁내부	-9.57368
▁프로젝트	-9.5743
▁문서	-9.57494
▁전통	-9.57519
▁생	-9.57615
▁사기	-9.5772
▁그리스	-9.57735
▁집회	-9.57758
▁홍보	-9.57807
▁할리우드	-9.57834
▁담배	-9.57865
▁마무리	-9.57868
▁구호	-9.57889
▁나토	-9.57914
이라	-9.57983
▁운행	-9.5801
▁백	-9.58055
▁실제	-9.5806
남	-9.58073
▁전달	-9.58158
▁대응	-9.58387
▁테	-9.58404
▁가량	-9.58459
▁주가	-9.585
▁그렇게	-9.58615
▁크리스토퍼	-9.58616
▁유세	-9.5862
▁산불	-9.5863
▁오랜	-9.58631
▁결	-9.58724
▁대법원	-9.58724
▁맞아	-9.58809
만명이	-9.5884
▁글	-9.58865
시키기	-9.59008
▁보좌관	-9.59088
주의	-9.59096
▁넣	-9.59108
랑	-9.59318
▁증가했다	-9.59323
리아	-9.59363
▁이밖에	-9.59403
▁처벌	-9.59405
▁샤리프	-9.59406
▁원자로	-9.5942
▁조작	-9.59447
▁조금	-9.59454
▁능력	-9.59508
▁알게	-9.59663
▁지배	-9.59692
▁차지했다	-9.59821
▁사무실	-9.59861
왔다	-9.59963
▁중심	-9.5997
▁애플	-9.60044
▁실시된	-9.60143
▁보이지	-9.60151
▁크리스마스	-9.60193
▁민병대	-9.60196
▁감축	-9.60202
▁집에서	-9.60222
▁스피어스	-9.60227
▁북한과	-9.60256
▁알려지	-9.60266
▁빠르	-9.60309
▁윌리엄스	-9.60346
▁버	-9.60391
▁제기	-9.60431
▁장기	-9.60439
▁여성들	-9.60522
▁제출	-9.60534
▁가수	-9.6058
▁수십	-9.60603
▁한국은	-9.60606
기구	-9.60633
리자	-9.60678
▁작가	-9.60739
▁걱정	-9.60793
쿠	-9.60816
▁보이고	-9.60821
▁대가	-9.60844
▁청와대	-9.60941
▁나타냈다	-9.61061
▁내각	-9.61079
▁동시	-9.61111
▁목사	-9.61184
▁둔	-9.61202
▁후보에	-9.61517
▁넘어	-9.61553
▁공장	-9.61556
▁여왕	-9.61602
▁부인했다	-9.61661
▁속에	-9.61676
지수	-9.61726
▁폭풍	-9.61781
집	-9.61785
▁말레이시아	-9.61803
▁높다	-9.61803
▁무가베	-9.61803
▁일어난	-9.61806
▁노래	-9.61837
▁영상	-9.61862
장관	-9.61909
▁시작된	-9.61912
▁전망이다	-9.61928
▁개봉	-9.6194
월까지	-9.61969
▁위기에	-9.62065
▁블로그에	-9.62132
▁실패	-9.62148
▁상황에서	-9.62148
▁보안관	-9.62192
▁받기	-9.62196
▁제거	-9.62197
▁법적	-9.62216
렸다	-9.62242
▁트럭	-9.62381
각	-9.62399
▁그중	-9.62456
▁이미지	-9.62518
주년	-9.62519
▁대책	-9.62527
▁옷	-9.62533
▁감사	-9.62581
▁말하고	-9.62593
▁네덜란드	-9.62616
▁우크라이나	-9.62616
▁911	-9.62631
▁치안	-9.62668
▁발생할	-9.62672
▁소장	-9.62719
페	-9.62745
▁뉴	-9.62852
▁중이다	-9.62905
▁예정이	-9.62927
▁의원이	-9.62942
▁나무	-9.62946
달러에	-9.63013
▁누구	-9.63015
▁수정	-9.63091
▁약속했다	-9.63098
▁급	-9.63113
▁예측	-9.63131
냐	-9.63281
▁투입	-9.63358
▁먼저	-9.6344
▁스티브	-9.63441
▁수백명	-9.63458
▁술	-9.63465
▁수행	-9.63501
싼	-9.63583
▁유로	-9.63629
았다	-9.63696
▁크기	-9.63736
▁장소	-9.63819
▁위험한	-9.63841
▁않겠다	-9.63846
대가	-9.63885
▁남성이	-9.6389
▁보낸	-9.63891
▁긴	-9.63945
▁중국이	-9.63981
▁이용해	-9.64071
▁어려	-9.64088
▁등록	-9.64156
▁보장	-9.64247
▁고든	-9.64255
▁하워드	-9.64267
▁엄마	-9.64267
▁난민	-9.64272
200906	-9.64295
▁스위스	-9.64295
▁기후	-9.64303
▁확산	-9.6438
▁마드리드	-9.64385
▁경찰과	-9.64445
▁의혹	-9.64485
▁기자회견	-9.6449
있다	-9.64584
하길	-9.6462
▁집행	-9.64662
다른	-9.64699
▁전자	-9.64781
▁잡	-9.6482
인지	-9.64868
▁따	-9.64935
▁협의	-9.64983
▁최신	-9.65084
▁규제	-9.65096
▁네팔	-9.651
▁분쟁	-9.65111
▁사례	-9.65114
▁사용하는	-9.65164
▁나섰다	-9.65167
▁지급	-9.65197
▁찾기	-9.65236
▁듯	-9.65283
볼	-9.65292
자들이	-9.65318
먼	-9.6537
▁고래	-9.65524
▁수니파	-9.65531
▁사상자	-9.65574
▁카메라	-9.65583
▁구성된	-9.65604
▁150	-9.65724
▁임	-9.65753
▁폐	-9.65817
▁없었	-9.65904
▁머물	-9.6593
▁노대통령	-9.6594
▁출발	-9.66002
▁대표팀	-9.66002
▁그에게	-9.66036
▁근무	-9.66041
▁참여	-9.6609
▁시리즈	-9.66095
▁다쳤다	-9.66221
▁후보로	-9.66428
▁축구	-9.66464
▁실시한	-9.66542
▁망명	-9.66552
▁시민들	-9.66603
겠다고	-9.66607
▁현장에	-9.66623
턴	-9.66629
▁못할	-9.66638
기간	-9.66659
▁만들	-9.66668
▁미국인들	-9.66691
▁보건	-9.6676
시킨	-9.66768
▁배럴	-9.66789
▁알려져	-9.66795
▁1999	-9.66802
▁대단	-9.66853
▁떨어져	-9.6693
▁영향력	-9.66937
▁부정	-9.66941
▁과학	-9.66955
▁최소한	-9.66995
▁연구진	-9.67007
▁없어	-9.67182
태	-9.67242
▁찾	-9.67289
▁것처럼	-9.67304
▁증언	-9.67353
▁그러	-9.67421
▁기억	-9.67433
▁소지	-9.67447
▁집계	-9.67468
▁시작됐다	-9.67538
▁수가	-9.6756
▁대통령에게	-9.67561
▁분노	-9.67563
▁캠프	-9.67638
▁모하메드	-9.67638
▁웹사이트에	-9.67647
▁아바스	-9.6767
▁역사적	-9.67724
▁태도	-9.6799
▁과정	-9.68002
▁홍수	-9.68044
▁연장	-9.68138
▁인정했다	-9.68309
▁남북한	-9.68359
▁가족들	-9.68365
▁부동산	-9.685
▁분위기	-9.68502
▁장난감	-9.68503
▁만드는	-9.68536
백	-9.68553
▁원조	-9.68564
▁주로	-9.68576
▁나와	-9.68598
▁추정되	-9.68632
▁취소	-9.68738
▁집권	-9.68766
▁크	-9.68907
▁니콜라	-9.68924
▁얼굴	-9.69015
▁경찰관	-9.69055
절	-9.69222
▁완화	-9.69229
▁경계	-9.69332
▁테러로	-9.69358
▁하락했다	-9.69363
▁정확한	-9.69369
▁태풍	-9.69373
▁없습니다	-9.69439
▁등이	-9.69544
▁민간	-9.6964
▁목소리	-9.69643
▁당선자	-9.69718
▁말한	-9.69723
▁얻었다	-9.69834
락	-9.69853
▁특사	-9.70004
▁박사	-9.70014
▁실제로	-9.70041
▁들었다	-9.70043
▁투	-9.7015
▁당한	-9.70238
▁김정일	-9.70247
▁구글	-9.70259
▁의심	-9.70294
▁하다	-9.70321
▁돼	-9.7045
▁프라이머리	-9.70489
대의	-9.70554
▁프리	-9.70644
▁도착했다	-9.70777
▁됐	-9.7083
▁한미	-9.71008
▁전문	-9.71032
▁피터	-9.71119
▁저녁	-9.71132
▁테이프	-9.71132
▁촉구	-9.7115
▁조정	-9.71178
▁대체	-9.71202
▁쉽게	-9.71299
▁아부	-9.71317
▁가격이	-9.71317
▁확실	-9.71334
빌	-9.71336
▁의한	-9.71491
▁있는데	-9.71493
하지만	-9.71597
▁오픈	-9.71628
▁문제로	-9.71633
경기	-9.71633
▁유사	-9.7181
▁법률	-9.71819
▁자신들이	-9.71844
▁진행되	-9.71869
▁왕	-9.71931
▁강도	-9.71965
▁미국에	-9.72015
▁말리키	-9.72024
▁콘돌	-9.72027
분기	-9.72038
▁소년	-9.72045
▁박물관	-9.721
▁중요하다	-9.72188
▁놀라	-9.722
50	-9.72221
센	-9.72225
근	-9.72226
▁비자	-9.72235
지도	-9.72238
▁속도	-9.72391
▁사용할	-9.72411
▁마감	-9.72567
▁지불	-9.72576
언	-9.72614
었으며	-9.72623
▁떠나	-9.72661
▁살해한	-9.72779
▁형	-9.72785
▁화성	-9.72838
▁운전	-9.72887
▁토론	-9.72888
▁토요일	-9.72926
범	-9.72941
▁타격	-9.72941
▁신속	-9.72966
▁입국	-9.72991
▁승무원	-9.73004
▁반발	-9.73027
▁향	-9.73034
일에	-9.73084
▁무사	-9.7311
링	-9.7314
되면서	-9.7316
▁상황에	-9.7317
었습니다	-9.73209
▁비상	-9.7327
개월간	-9.73281
▁만들었다	-9.733
▁퍼	-9.7332
▁영국에서	-9.73343
▁떨어졌다	-9.73394
▁맺	-9.73558
▁소비	-9.7362
해졌다	-9.73673
▁끝	-9.73696
▁징역	-9.73818
▁활용	-9.73841
▁드라마	-9.73843
▁기구	-9.73867
▁지출	-9.7391
▁영국군	-9.73996
▁우주선	-9.74025
▁성인	-9.74044
샤	-9.74097
하려고	-9.74145
▁초기	-9.74175
매	-9.74262
▁이끌	-9.74275
▁이곳에서	-9.74459
▁허	-9.74473
▁깊	-9.74552
▁오하이오	-9.74601
주간	-9.74628
스러운	-9.74668
▁적용	-9.74686
▁엘리자베스	-9.74752
▁참석한	-9.74753
▁연락	-9.74762
▁멋	-9.74773
▁장치	-9.74778
▁검색어	-9.74797
▁웹	-9.74812
▁지적	-9.74815
▁휴가	-9.74837
▁당선	-9.74854
▁않으면	-9.74914
▁현대	-9.74921
▁한국과	-9.74958
하였	-9.74981
자가	-9.75042
까	-9.7505
▁범인	-9.7505
▁조종사	-9.75051
렸	-9.75066
▁아파트	-9.7507
▁시대	-9.7507
▁물질	-9.75136
▁태	-9.75212
▁어린	-9.75241
▁외교부	-9.75249
회의	-9.75255
▁월드컵	-9.75257
▁잠	-9.75323
▁극	-9.75332
▁교체	-9.75395
▁진입	-9.75447
▁시위자들	-9.75466
▁요구한	-9.75506
▁협조	-9.75678
▁페르베	-9.75688
▁유럽연합	-9.75697
▁기타	-9.75788
▁예방	-9.75796
창	-9.75838
책	-9.75846
▁해고	-9.75959
▁복제	-9.75984
▁자산	-9.7599
활동	-9.76006
준	-9.76073
▁속에서	-9.76098
▁날씨	-9.76188
술	-9.76251
▁제외	-9.76253
▁요구하는	-9.76285
마일	-9.76299
▁쉬	-9.76336
▁들어가	-9.76338
▁수용	-9.76357
▁인식	-9.76448
▁방식	-9.76468
합	-9.76528
▁국장	-9.76548
▁쿠르드	-9.76608
▁소프트웨어	-9.76612
▁페일린	-9.76612
▁결론	-9.76625
▁신용	-9.76634
▁일환	-9.7664
▁통화	-9.76679
▁방해	-9.76726
▁중이라고	-9.76798
했는지	-9.76809
름	-9.76824
▁격	-9.76892
▁수반	-9.76906
▁긍정적	-9.77001
▁해당	-9.77007
▁재정	-9.77295
▁없다는	-9.77374
씩	-9.77385
▁개정	-9.774
입	-9.77413
격	-9.77422
▁일반적	-9.7747
▁언제	-9.77549
▁싱가포르	-9.77556
▁열린우리당	-9.77556
▁매들린	-9.77557
▁현장에서	-9.77566
▁밀란	-9.77567
▁갖추	-9.77596
▁귀국	-9.776
센트	-9.7761
위로	-9.7761
▁동맹	-9.77709
▁저지	-9.77782
예	-9.77793
▁체포된	-9.77908
령	-9.78015
▁침해	-9.78094
시설	-9.78178
▁공화당의	-9.78193
▁이해	-9.78199
▁포함되어	-9.78383
▁대표단	-9.78456
▁헤	-9.78462
▁1997	-9.78508
▁벌금	-9.78511
▁핵실험	-9.78511
▁케네디	-9.78512
▁사이클론	-9.78513
▁변경	-9.78524
▁토니	-9.78529
▁절반	-9.78644
▁찬성	-9.78726
였습니다	-9.78751
▁체	-9.78753
▁신뢰	-9.78759
▁선포	-9.78778
▁총선에서	-9.78811
이지만	-9.78869
▁임신	-9.78872
▁수감	-9.78903
▁조사하고	-9.7892
블	-9.7892
▁이들이	-9.79061
▁송	-9.79161
▁역	-9.79202
▁확신	-9.79228
▁지지자	-9.79254
한다면	-9.79289
▁협정	-9.79437
▁모른다	-9.79439
▁자살폭탄테러	-9.79466
▁아르헨티나	-9.7947
▁리버풀	-9.7947
▁론스타	-9.79472
▁환영	-9.7949
▁축제	-9.79499
광	-9.795
▁루이스	-9.79503
말	-9.79505
▁대출	-9.79518
▁걸어	-9.79519
▁나달	-9.79545
▁의료진	-9.79546
▁성화	-9.79605
머	-9.79609
▁방어	-9.79615
▁캐	-9.79642
▁충분	-9.79644
▁이것이	-9.79678
▁자격	-9.79687
▁되면	-9.79688
▁고속도로	-9.79799
▁이틀	-9.79832
▁취임	-9.79889
▁부패	-9.79966
▁클럽	-9.80098
▁세르비아	-9.80357
▁지지하는	-9.80359
▁포드	-9.80374
씬	-9.8042
▁!	-9.80441
▁1998	-9.80448
▁에이즈	-9.80449
▁1990	-9.80462
▁헤럴드	-9.80492
▁연루	-9.80495
▁압둘라	-9.80508
▁공식적으로	-9.80551
함에따라	-9.80612
▁이르는	-9.80639
▁소유	-9.80737
▁투자자들	-9.80762
▁굴	-9.80781
▁터키군	-9.80811
빈	-9.80832
▁재산	-9.80837
▁개입	-9.80839
▁이혼	-9.80895
▁일어나	-9.80921
▁길이	-9.80955
▁지지율	-9.81035
▁침체	-9.8109
국가	-9.81093
당국	-9.81224
▁진정	-9.81242
▁38	-9.81256
것	-9.81349
▁삼	-9.81357
▁보여	-9.81413
▁우라늄	-9.81421
▁캠페인	-9.81421
▁반기문	-9.81423
▁성공했다	-9.8143
▁동원	-9.81438
▁힘든	-9.81458
▁주고	-9.81514
외	-9.81523
▁예산	-9.81558
▁진출	-9.81676
▁심리	-9.81678
▁안보리	-9.81693
▁일본은	-9.81922
▁자연	-9.81983
▁경기에	-9.82046
▁지진으로	-9.82166
▁본부	-9.82222
▁조사에서	-9.823
▁쥐	-9.82316
▁요	-9.82317
▁1980	-9.8243
▁드러났다	-9.82441
▁교황	-9.82461
▁풀	-9.82463
▁원유	-9.82465
▁목	-9.82482
▁올렸다	-9.82531
▁통합	-9.82533
▁36	-9.82743
▁대피	-9.82787
▁중국에서	-9.8279
▁점령	-9.82805
▁진술	-9.82825
▁벨	-9.82827
▁중국과	-9.82878
▁총리와	-9.83025
▁그린	-9.83122
백만	-9.83123
▁아랍	-9.83142
▁제시	-9.83198
▁당선인은	-9.83265
▁오르	-9.83296
▁회담에	-9.83342
▁한국군	-9.83355
▁향하	-9.83361
▁워싱턴에서	-9.83362
▁대처	-9.83389
▁집에	-9.83409
▁믿고	-9.83411
▁좋지	-9.83411
▁로봇	-9.83416
▁향후	-9.83423
▁육군	-9.83431
▁민주화	-9.83432
▁학살	-9.83444
▁신경	-9.83449
▁단계	-9.8352
▁학대	-9.83529
▁머	-9.83531
▁평화적	-9.83611
▁설립	-9.83645
▁경선에서	-9.83843
찬	-9.83896
흐	-9.839
수가	-9.84042
8	-9.8412
▁한번	-9.84148
▁용의자들	-9.84156
정부	-9.8417
▁포함해	-9.84224
▁된다고	-9.84232
4	-9.84272
▁펜실베이니아	-9.84298
규	-9.84322
▁협회	-9.84362
▁차지	-9.84408
▁휴전	-9.84412
▁얘기	-9.84421
▁휘발유	-9.84421
▁포르투갈	-9.84421
▁첼시	-9.84422
▁나쁜	-9.84432
▁해결하기	-9.84434
▁입양	-9.84438
▁리비아	-9.84453
▁내린	-9.84458
▁때문이다	-9.84483
▁3000	-9.84531
▁통치	-9.84537
담	-9.84633
▁차관보	-9.8466
▁테러가	-9.84722
▁곳으로	-9.84745
▁계획이	-9.84832
▁창	-9.84878
겠다	-9.85001
▁밝혀	-9.85098
▁노동자	-9.85107
▁지도부	-9.85116
▁학생들이	-9.8537
▁기자들	-9.85391
춘	-9.85396
▁톰	-9.854
▁해리포터	-9.85441
훨	-9.85441
▁국제유가	-9.85443
▁벌어진	-9.85445
▁불참	-9.85448
▁음모	-9.85454
▁아카데미	-9.85457
▁선거운동	-9.85463
▁반정부	-9.85476
▁주는	-9.85486
▁잔해	-9.85543
▁편지	-9.85584
▁공개했다	-9.85607
▁계획에	-9.85701
▁축하	-9.85732
▁250	-9.85751
▁중에는	-9.85793
▁가정	-9.85943
▁정부군	-9.86007
▁시드	-9.86071
▁후반	-9.86073
▁고려	-9.86091
▁준	-9.86336
▁콘서트	-9.86472
▁앨범	-9.86476
▁대북	-9.86486
▁가득	-9.86491
▁체니	-9.86534
▁선물	-9.86558
▁혹	-9.86594
▁접	-9.86649
▁응	-9.86734
▁폐지	-9.86789
시장	-9.86864
둔	-9.86934
▁여기	-9.8701
▁손실	-9.8704
▁숨	-9.8704
▁회담이	-9.87043
▁바다	-9.8705
달하는	-9.87064
▁잡지	-9.87122
목	-9.87171
졌	-9.87251
▁벌인	-9.87257
맨	-9.8737
▁방법으로	-9.87414
열	-9.87474
▁꺾	-9.87481
▁영토	-9.87547
▁며칠	-9.8759
▁질환	-9.87638
▁요구하고	-9.87664
▁진행된	-9.87671
▁레이스	-9.87682
▁랭킹	-9.87696
▁성향	-9.87709
▁세대	-9.87718
▁37	-9.8773
▁못했	-9.87782
때	-9.87828
▁왔	-9.8787
▁유리	-9.87891
▁필	-9.87918
▁생명	-9.87935
위에	-9.8797
▁언급하지	-9.88019
▁목격자들	-9.88055
▁킹	-9.88083
▁폭	-9.88152
▁짐	-9.88157
▁끝난	-9.88248
▁주장하는	-9.88256
▁울	-9.88311
▁찾는	-9.88392
▁정신	-9.88425
▁신청	-9.885
▁연결	-9.88538
▁찍	-9.88538
▁부활	-9.88565
▁페더러	-9.88567
▁화산	-9.88577
▁야생	-9.88579
▁웨스트	-9.88597
▁유가	-9.8863
▁것보다	-9.8866
▁지도	-9.8873
▁기념	-9.8876
▁바그다드에서	-9.88761
▁이웃	-9.88794
▁레이	-9.88794
▁상품	-9.88822
▁보상	-9.88835
▁기도	-9.88867
▁이익	-9.88874
▁시절	-9.88878
▁내에	-9.88882
▁고객	-9.88922
불	-9.88959
▁때문	-9.89191
▁방지	-9.89245
율	-9.89283
▁방문할	-9.89336
▁국	-9.89365
▁생존자	-9.89465
▁장식	-9.89472
레이	-9.89538
▁빠져	-9.89574
▁대부분은	-9.8961
▁회사들	-9.89612
▁콜	-9.89613
▁맨체스터	-9.89629
▁다르푸르	-9.89631
▁대다수	-9.89632
▁이메일	-9.89635
▁접속	-9.89645
▁가입	-9.89655
▁뛰어	-9.89658
▁다니	-9.89664
▁강경	-9.89691
▁특정	-9.8971
▁결혼식	-9.89725
▁기능	-9.8977
▁사전	-9.89792
▁지하	-9.89849
▁평양	-9.89863
▁대결	-9.89874
▁성과	-9.89885
축	-9.89938
▁거주하는	-9.89953
추	-9.89958
플	-9.89982
▁외부	-9.90103
▁의도	-9.9011
▁방문했다	-9.90123
서는	-9.90271
▁충분한	-9.90307
▁소니	-9.90315
▁장군	-9.90332
▁이스라엘과	-9.90372
▁목격자	-9.90416
▁원하는	-9.90438
족	-9.90506
▁생각하고	-9.90544
▁사드르	-9.90704
▁밖으로	-9.90706
▁태평양	-9.90706
▁헤즈볼라	-9.90706
▁세계대전	-9.90706
▁크리스	-9.9071
▁영변	-9.90712
▁리콜	-9.90716
▁폭우	-9.90731
▁대통령에	-9.90732
▁힐튼	-9.90742
▁땅	-9.9079
▁다이아몬드	-9.90812
▁협상이	-9.90848
▁동의	-9.90936
▁존슨	-9.91061
▁적절한	-9.91069
▁파타	-9.91205
조치	-9.91207
랜드	-9.91211
▁케	-9.91237
습	-9.91303
정책	-9.9141
▁아이들이	-9.91432
▁42	-9.91524
▁이스라엘군	-9.91524
▁자기	-9.91529
스타	-9.91558
킬	-9.91561
▁모습이	-9.91609
니다	-9.91681
▁지키	-9.91748
▁온난화	-9.91793
므로	-9.91794
▁폭행	-9.91799
▁마틴	-9.91813
▁진실	-9.91814
▁버마	-9.91829
▁출시	-9.91839
▁잠시	-9.91894
▁수백만	-9.91965
▁빅	-9.91975
▁취할	-9.92003
▁발표된	-9.92064
▁상어	-9.92092
▁이번주	-9.92284
▁마이크	-9.92301
만에	-9.92568
▁스티븐	-9.92642
으면	-9.92677
▁요원	-9.92739
▁내전	-9.92853
▁멸종	-9.9289
▁무릎	-9.92892
▁하게	-9.92955
▁말합니다	-9.93027
▁아일랜드	-9.93033
▁밖에서	-9.93046
명에	-9.93079
▁심각	-9.93109
▁뉴질랜드	-9.93112
▁나서	-9.93149
▁경찰서장	-9.93167
▁기업들	-9.9319
▁가능	-9.93209
▁프로	-9.93228
▁바라고	-9.93236
▁모양	-9.9326
▁심슨	-9.93307
▁존재	-9.93317
▁행진	-9.93399
▁보면	-9.93412
▁예상했다	-9.93498
▁이행	-9.93501
▁대부분이	-9.93533
낼	-9.93542
▁화	-9.93543
▁전투기	-9.93563
▁터	-9.93567
▁선박	-9.93569
▁강조	-9.93573
▁논란	-9.93619
▁올랐	-9.9362
퍼센트에	-9.9363
▁33	-9.93631
▁면	-9.93681
▁실행	-9.93703
필드	-9.93737
▁서명	-9.9379
지에	-9.93793
▁형성	-9.93812
▁질병	-9.93929
▁가자	-9.93935
▁제도	-9.93955
▁슈	-9.93967
30	-9.93973
▁쿠데타	-9.94003
▁갑자	-9.94004
▁체결	-9.94015
독	-9.94041
▁서방	-9.94048
▁밑	-9.94079
▁내용이	-9.94167
▁억류	-9.94202
▁철회	-9.94304
▁경보	-9.94327
▁담당자	-9.9438
라도	-9.94413
▁차드	-9.94455
▁수요	-9.94476
▁사건과	-9.94502
▁원한다	-9.94528
▁투어	-9.94543
해지	-9.94688
▁장비	-9.9487
▁장관이	-9.949
▁공격이	-9.94977
▁중대	-9.94995
▁잭슨	-9.95052
▁근	-9.95056
▁분야	-9.95103
웰	-9.95108
▁달라이라마	-9.95126
▁우선	-9.95142
▁보통	-9.95167
▁핵시설	-9.9517
▁심문	-9.95172
▁구제	-9.95194
▁관	-9.95201
▁인하	-9.9524
▁의무	-9.95339
▁아래	-9.9538
▁보고했다	-9.9542
▁돌아가	-9.95463
은행	-9.9562
▁수집	-9.9565
▁사건으로	-9.95655
▁48	-9.95706
▁둘	-9.95727
▁포기	-9.95793
▁입원	-9.95813
▁말라	-9.95815
▁업계	-9.95862
들어	-9.95899
섬	-9.95917
힐	-9.9592
만큼	-9.95925
죠	-9.95934
지르	-9.96042
들도	-9.96054
▁조사에	-9.96106
▁되기	-9.96239
▁현재까지	-9.96258
▁이렇게	-9.96263
▁훌륭	-9.96263
▁의식	-9.96271
▁격차	-9.96309
▁만날	-9.96315
▁신임	-9.9632
▁기준	-9.96393
▁사용되	-9.96412
▁찾고	-9.96446
▁일본에서	-9.96551
▁수감자	-9.96752
▁이사	-9.96753
▁외교적	-9.96799
▁사실상	-9.96841
▁일주일	-9.96864
▁처음이다	-9.96866
번째로	-9.97047
겐	-9.97087
탈	-9.97281
▁일간	-9.97284
결	-9.97329
랄	-9.9736
▁최선	-9.97412
▁흡연	-9.97412
▁카르자이	-9.97413
▁교환	-9.97416
▁맨유	-9.97423
▁걸릴	-9.97463
▁치러진	-9.9749
▁신호	-9.97556
▁실시되	-9.97571
▁교	-9.97605
▁제안했다	-9.97859
▁영화제	-9.97922
▁가까이	-9.98161
차전	-9.98202
▁전반	-9.98254
▁브	-9.98332
▁광산	-9.98339
▁카드	-9.984
▁시장에서	-9.98468
▁힘들	-9.98564
▁다우존스	-9.98575
▁에드워즈	-9.98575
▁동반	-9.98597
사건	-9.98635
▁입었	-9.98664
▁남아	-9.9867
▁검색	-9.98721
▁일본이	-9.98732
▁시작한	-9.98735
▁국왕	-9.98796
▁각국	-9.98823
▁노출	-9.98928
관리	-9.98945
▁느끼	-9.98954
▁사인	-9.98961
▁티	-9.99008
▁있어서	-9.99061
▁대기	-9.99189
▁동물원	-9.99233
▁상점	-9.99246
▁다우	-9.99282
▁보인다고	-9.99341
현	-9.99352
불어	-9.99502
▁근거	-9.9952
▁소환	-9.99538
▁대상	-9.99567
▁노력하고	-9.99651
▁국제적	-9.99744
▁덴마크	-9.99752
▁복잡	-9.99752
▁단순	-9.99763
▁성관계	-9.99774
▁팬	-9.99872
려는	-9.99937
▁시위에	-9.99939
▁소수	-9.99941
▁부문	-10.0006
▁보였	-10.0006
쯤	-10.0018
▁식	-10.0031
▁모인	-10.0051
▁매장	-10.0057
▁죽	-10.0058
주일	-10.0058
▁민	-10.0076
▁감정	-10.008
▁지진이	-10.0081
▁지휘	-10.0089
▁누군가	-10.0094
▁봄	-10.0095
▁기존	-10.0096
▁폭동	-10.0096
▁매각	-10.0097
▁책임자	-10.0098
▁삼성	-10.0103
▁낸	-10.0104
▁북측	-10.0105
▁운영하	-10.011
▁상승했다	-10.0113
▁그것이	-10.0118
▁철도	-10.012
▁당신이	-10.0125
▁맞서	-10.0128
들로	-10.0133
▁44	-10.0142
▁지연	-10.0145
억원	-10.0146
20	-10.0158
▁밝	-10.0159
▁국회의원	-10.0161
엘	-10.0181
▁목적으로	-10.0185
▁회원	-10.0186
▁34	-10.0197
▁서울에서	-10.0198
▁계속되고	-10.0206
▁51	-10.0206
빠진	-10.0208
셔	-10.0211
있	-10.0212
▁오스트리아	-10.0215
▁주한미군	-10.0215
▁짧	-10.0215
▁농축	-10.0215
립	-10.0215
▁새끼	-10.0216
▁공산당	-10.0216
▁도입	-10.0218
▁사담	-10.0219
▁소설	-10.0219
▁주간	-10.0221
▁공중	-10.0222
후드	-10.0222
▁즉각적	-10.0225
▁달라	-10.0226
▁환자들	-10.0233
▁부르	-10.0234
▁합	-10.0239
레스	-10.0248
▁늘	-10.0249
장이	-10.0252
▁내릴	-10.0255
▁생존	-10.0255
▁합동	-10.0259
▁결정은	-10.026
▁부근에서	-10.0263
▁대답	-10.0268
▁테러리스트	-10.027
되면	-10.028
▁수용소	-10.0291
▁됩니다	-10.0302
▁행	-10.0303
앙	-10.0306
▁그와	-10.0324
▁경기장	-10.0326
▁불안	-10.033
▁연구원	-10.0331
▁네트워크	-10.0337
▁방글라데시	-10.0337
▁마카오	-10.0337
▁칠레	-10.0337
▁순방	-10.0338
▁남아공	-10.0338
▁엔	-10.0339
▁커피	-10.034
▁상처	-10.0341
▁일리노이주	-10.0345
▁따라서	-10.0349
기가	-10.035
▁부담	-10.0354
▁보수	-10.0354
▁지시	-10.0357
▁조성	-10.0367
▁전면	-10.0368
순	-10.0371
▁승리했다	-10.0378
자로	-10.039
왔	-10.039
칠	-10.0399
했음	-10.0403
▁체제	-10.0404
▁전날	-10.041
▁기본	-10.0411
사를	-10.0413
연합	-10.0413
▁악화	-10.0414
▁기반	-10.0417
▁군인들	-10.0421
봉	-10.0425
▁재무장관	-10.0425
▁구입	-10.0426
▁행성	-10.0431
▁보관	-10.0433
▁내놓	-10.0433
▁둘러	-10.0445
▁자리에서	-10.0456
▁공항에서	-10.0456
▁왕세자	-10.0456
▁추적	-10.0459
▁혜택	-10.046
▁카스트로	-10.046
▁복구	-10.0462
▁의지	-10.0463
▁탐사	-10.0463
▁페루	-10.0464
▁그래서	-10.0464
▁유감	-10.0465
▁무력	-10.0467
▁공격에	-10.0469
▁회원국	-10.0469
▁분명히	-10.047
▁이뤄지	-10.0474
▁세우	-10.0476
▁증가하고	-10.0484
▁청소년	-10.0486
▁피트	-10.0495
▁수상자	-10.0513
▁니	-10.0513
▁오브	-10.0524
▁실종	-10.0531
▁기다리고	-10.0534
▁명단	-10.0542
▁의회에	-10.0543
기관	-10.0544
12	-10.0545
▁장애	-10.0549
▁전해	-10.0551
▁밀	-10.0554
▁그림	-10.0554
▁반군이	-10.0555
▁손상	-10.0557
▁무대	-10.0572
▁다니엘	-10.0586
▁겨울	-10.0586
▁2010	-10.059
▁가옥	-10.059
▁개방	-10.0592
▁의회에서	-10.0593
▁발병	-10.0594
▁파산	-10.0595
▁이중	-10.0595
▁말까지	-10.0604
▁시내	-10.0605
▁사살	-10.0606
▁올린	-10.061
▁하면	-10.0611
▁75	-10.0618
▁콩고	-10.062
▁벌였	-10.0622
▁주지	-10.0632
관계	-10.0641
었고	-10.0643
▁나갈	-10.0654
▁위험이	-10.0659
▁권한	-10.0659
▁허락	-10.0665
▁46	-10.067
▁유치	-10.0674
▁많다	-10.068
겠	-10.0682
▁주석	-10.0682
▁55	-10.0685
드시	-10.0695
▁그동안	-10.0695
▁줄어들	-10.0707
▁알래스카	-10.0708
▁묻	-10.0708
▁해병대	-10.0711
▁원문기사	-10.0711
▁스웨덴	-10.0712
▁정확히	-10.0712
▁파예드	-10.0712
▁챔피언스리그	-10.0712
리스	-10.0714
▁공공	-10.0714
▁무료	-10.0715
▁노예	-10.0715
▁공원	-10.0719
▁지켜	-10.0729
▁어린이들	-10.073
▁보고서에서	-10.073
▁교도소	-10.0732
▁사라	-10.0734
▁달러에	-10.074
▁초점	-10.0741
▁결정에	-10.0742
문제	-10.0746
▁가졌	-10.0747
킨	-10.0749
▁소식이	-10.0761
▁모여	-10.0769
클	-10.0775
▁경매	-10.0779
▁희생자들	-10.0782
▁선언했다	-10.0788
▁베이징에서	-10.0799
낸	-10.0811
손	-10.0815
장에서	-10.0816
▁있다면	-10.0824
▁계속되	-10.0829
▁붉은	-10.0839
▁블랙	-10.0839
▁북동부	-10.084
▁숫자	-10.084
▁심지어	-10.084
▁완벽	-10.084
▁철저	-10.0841
▁크루즈	-10.0841
▁민감	-10.0841
▁자극	-10.0842
▁수감자들	-10.0843
▁거부했다	-10.0846
▁거뒀다	-10.0848
▁예비	-10.0848
▁벤	-10.0853
해주	-10.0855
▁고발	-10.0858
▁고향	-10.0864
▁열대	-10.0866
▁600	-10.087
▁제공하는	-10.0872
▁형태	-10.0872
▁체계	-10.0882
▁샌프란시스코	-10.0889
슈	-10.089
▁운항	-10.089
▁참	-10.0892
려고	-10.0894
▁부정적	-10.0894
▁못하는	-10.0895
▁얻기	-10.0896
▁방송국	-10.0897
▁가는	-10.0905
▁주기	-10.0906
▁타이	-10.0911
▁만일	-10.0915
▁리그	-10.0922
사가	-10.0934
▁달성	-10.094
▁음반	-10.0949
▁실패했다	-10.0954
로운	-10.0956
▁설득	-10.0963
▁고대	-10.0963
▁중부	-10.0966
▁마찬가지	-10.097
▁크라이슬러	-10.097
▁폴란드	-10.097
▁레알	-10.0971
▁커플	-10.0971
▁색	-10.0973
▁현금	-10.0978
▁외교관	-10.0979
▁절	-10.0982
▁린	-10.0985
▁유전자	-10.0988
▁군정	-10.0989
▁차관	-10.101
▁주한	-10.1018
▁64	-10.1021
▁공화국	-10.1026
▁폐기	-10.1028
▁생각하는	-10.1029
▁대선에서	-10.1034
▁탈출	-10.1038
▁기독교	-10.1039
▁살아	-10.1041
▁경영	-10.1042
년이	-10.1058
▁방향	-10.1076
벌	-10.1081
▁답변	-10.1086
▁이양	-10.1086
▁야기	-10.1086
▁휴	-10.1091
▁주인공	-10.1104
▁철군	-10.1104
▁보여줬다	-10.1105
▁소요	-10.1106
▁서신	-10.1108
▁만난	-10.1109
▁중지	-10.1116
▁뼈	-10.1116
▁안에서	-10.1119
▁호세	-10.1121
시키	-10.1124
▁싸움	-10.1124
▁빙하	-10.1129
분의	-10.1129
▁늘어	-10.1135
▁폭탄이	-10.1149
▁보안군	-10.1152
▁증권	-10.1153
▁이곳에	-10.116
▁현상	-10.1168
▁의회의	-10.1169
▁납치된	-10.1173
▁한국에서	-10.1178
▁베트남	-10.1178
▁뉴욕에서	-10.1178
▁중독	-10.1179
▁절대	-10.1182
▁하던	-10.1202
자와	-10.1203
▁폭격	-10.1207
돌	-10.1212
해줄	-10.1215
철	-10.1215
▁베이	-10.1216
웠다	-10.1219
▁챔피언	-10.1222
▁성공적	-10.1225
▁스리랑카	-10.1228
▁방침	-10.1229
▁노벨	-10.123
했기	-10.1234
▁사우디아라비아	-10.1235
▁잃은	-10.1235
▁김대중	-10.1235
▁토마스	-10.1235
▁관찰	-10.1235
▁아이디어	-10.1236
▁신발	-10.1242
▁세계은행	-10.1243
▁쓰나미	-10.1244
▁소개	-10.1244
성이	-10.1245
▁공포	-10.1247
▁과학자	-10.1249
▁찬	-10.1249
▁실종된	-10.1251
▁발간	-10.1254
▁캘리포니아주	-10.1264
▁고립	-10.1274
▁런던에서	-10.1278
▁기대하고	-10.1294
▁발생하지	-10.1304
스키	-10.1309
▁수업	-10.1312
누	-10.1317
분간	-10.1319
▁값	-10.1321
▁대회에서	-10.1324
▁선거에	-10.1326
▁여자친구	-10.1329
▁데이	-10.133
▁시장에	-10.1338
명에게	-10.1345
애	-10.135
젠	-10.1354
계획	-10.1356
딘	-10.1357
▁태양	-10.1369
▁덮	-10.137
▁맞춰	-10.137
▁동티모르	-10.137
▁라스베이거스	-10.137
▁리조트	-10.137
▁바르셀로나	-10.137
▁회의에서	-10.137
▁측근	-10.137
▁타이틀	-10.137
▁대량	-10.138
▁사망했	-10.1381
▁받아야	-10.1386
▁교사	-10.1387
▁이주	-10.1391
▁보이	-10.1393
▁평	-10.1402
▁안전한	-10.1402
▁피해가	-10.141
틀	-10.1413
▁근처	-10.1417
▁라이트	-10.1418
▁수상했다	-10.1424
▁나이지리아	-10.1431
라운드	-10.144
▁재단	-10.1442
▁사회적	-10.1449
▁신체	-10.1453
▁해변	-10.1458
▁법정	-10.1466
▁유나이티드	-10.1466
▁끌어	-10.1469
▁이송	-10.1472
▁표했다	-10.1474
▁세상	-10.1479
대에	-10.1479
9	-10.1481
▁주인	-10.1482
▁성화봉송	-10.1494
▁활주로	-10.1507
▁엄격	-10.1507
▁회동	-10.1508
▁은퇴	-10.1508
▁생긴	-10.1509
▁논평	-10.1511
▁돌아오	-10.1512
▁인생	-10.1513
▁모기지	-10.1513
▁예전	-10.1516
▁전개	-10.1516
▁웃	-10.1516
▁앞에	-10.1518
▁본사	-10.1518
▁높아지	-10.1519
▁증명	-10.1521
▁총격전	-10.1522
▁경제에	-10.1523
▁중순	-10.1524
▁케리	-10.1525
▁난사	-10.1528
▁전했습니다	-10.1529
▁잇	-10.1531
▁갖게	-10.1531
▁누리	-10.1533
▁상태에	-10.1534
▁한때	-10.1535
▁보낼	-10.1535
▁지시했다	-10.1539
▁답	-10.154
▁첫번째	-10.1541
▁광	-10.1541
▁신부	-10.1543
▁이사회	-10.155
▁마르	-10.1557
수록	-10.1563
▁저항	-10.1568
▁가했다	-10.1577
▁책임이	-10.1578
▁오염	-10.1592
▁봤다	-10.1595
▁습격	-10.16
었	-10.1601
▁주제	-10.1603
▁진전	-10.1608
▁했	-10.1615
▁클린턴이	-10.1619
▁승리한	-10.1622
▁넓	-10.1635
▁중국에	-10.1643
▁태어난	-10.1646
▁외환은행	-10.1646
▁1994	-10.1647
▁하원의원	-10.1647
▁데이터	-10.1647
▁디자인	-10.1648
▁헨리	-10.1649
▁우리나라	-10.165
▁단속	-10.165
▁항소	-10.165
▁악	-10.165
▁두바이	-10.1651
▁불편	-10.1651
▁2012	-10.1652
▁유력	-10.1653
▁전역	-10.1654
▁기계	-10.1656
▁대학교	-10.1658
▁금요일	-10.1661
▁본선	-10.1662
시아	-10.1665
▁보유하고	-10.1668
▁만들어진	-10.167
▁사용한	-10.1672
영한	-10.1673
▁불길	-10.1676
▁하와이	-10.1683
변	-10.1684
▁점차	-10.1687
▁뿐만	-10.1692
▁입증	-10.1698
▁전쟁에	-10.1702
▁위로	-10.1704
▁지역으로	-10.1706
▁복용	-10.1713
▁시청	-10.1713
▁보트	-10.1716
선수	-10.1716
상태	-10.1716
▁빚	-10.1731
냈다	-10.1732
▁경쟁자	-10.1741
▁빛	-10.1741
▁호텔에서	-10.1741
▁훼손	-10.1745
▁도시에서	-10.1745
▁고어	-10.1747
▁의미한다	-10.1761
▁다수	-10.1765
▁세포	-10.1766
▁감독이	-10.1768
률	-10.1771
▁이스라엘이	-10.1773
▁인류	-10.1775
▁일리노이	-10.1777
거래	-10.1777
▁물건	-10.1779
▁추방	-10.1781
▁운송	-10.1786
▁외교통상부	-10.1786
▁앓고	-10.1787
▁휴대전화	-10.1787
▁섹스	-10.1787
▁면담	-10.1787
▁분열	-10.1789
▁해결책	-10.179
▁개표	-10.1792
▁강타	-10.1793
▁거쳐	-10.1794
▁신중	-10.1795
▁43	-10.1796
▁방화	-10.1796
▁마쳤다	-10.1797
▁오늘날	-10.1798
이어	-10.1798
▁것이고	-10.1799
▁응답자	-10.1801
시키려	-10.1801
▁53	-10.1802
세인	-10.1803
▁프로그램에	-10.1812
▁52	-10.1812
▁예수	-10.1815
▁식품	-10.1817
람	-10.1818
▁몰	-10.1821
▁명예	-10.1822
▁주장에	-10.1826
우스	-10.1831
▁여성의	-10.1837
70	-10.1842
▁고등학교	-10.1859
▁죽은	-10.186
▁비용이	-10.1861
▁부여	-10.187
▁지속	-10.1876
▁발생하는	-10.1884
잔	-10.1885
▁검거	-10.1887
▁이끌어	-10.1895
총	-10.1905
▁주목	-10.1909
▁참석했다	-10.1913
조차	-10.1919
▁홀	-10.1919
▁동성애자	-10.1919
완	-10.192
▁아이오와	-10.192
▁플레이	-10.1924
▁수영	-10.1927
▁이라크와	-10.1929
▁가슴	-10.1929
▁격렬	-10.193
▁급등	-10.1931
▁1970	-10.1934
니아	-10.1936
▁위조	-10.1939
▁낸시	-10.194
▁추정된다	-10.1941
▁발전소	-10.1943
뿐만	-10.1946
▁것이었다	-10.1947
▁획득	-10.1964
▁거절	-10.1972
▁아동	-10.1978
▁부과	-10.1979
▁논란이	-10.198
▁당수	-10.1984
▁이하	-10.1993
▁우리당	-10.2006
▁분석가	-10.2009
▁49	-10.2009
렛	-10.2012
▁혐의에	-10.2018
▁한국에	-10.202
▁중재	-10.2023
▁800	-10.2026
▁미국측	-10.2034
뿐	-10.2036
▁백인	-10.2039
도시	-10.2051
▁지속적	-10.2053
▁방법이	-10.2053
▁않기	-10.2055
▁케이블	-10.206
▁못한다	-10.2063
▁보지	-10.2066
닝	-10.207
짝	-10.2074
▁블라고예비치	-10.2074
▁스코틀랜드	-10.2074
▁일으킨	-10.2074
▁와인하우스	-10.2074
▁불능화	-10.2075
▁송환	-10.2075
▁제대	-10.2075
▁저지른	-10.2076
▁테스트	-10.2077
▁나올	-10.2078
▁무죄	-10.2079
▁벗어나	-10.2079
사는	-10.2083
▁요소	-10.2083
▁아메리칸	-10.2086
▁펼쳤다	-10.2086
▁자원	-10.2088
▁민주	-10.2095
▁법원에	-10.2095
▁업무	-10.2097
▁표명	-10.2099
대학	-10.2101
▁비교	-10.2101
▁이내	-10.2111
▁국민들에게	-10.213
▁방영	-10.2131
▁잃었다	-10.2132
▁물가	-10.2138
▁폭발물	-10.214
▁기금	-10.2142
▁이후로	-10.2146
세력	-10.2157
시켰	-10.2165
▁제기했다	-10.2166
▁적극적	-10.2172
▁못해	-10.2181
▁가구	-10.2182
▁사망자수	-10.219
▁지목	-10.2195
▁불가능	-10.2195
▁국방	-10.221
▁엄청	-10.221
▁붙	-10.2212
▁리처드	-10.2216
▁요르단	-10.222
▁행복	-10.2221
▁코미디	-10.2221
▁곤잘레스	-10.2221
▁블라디미	-10.2221
▁오사마빈라덴	-10.2221
▁합병	-10.2223
행위	-10.2223
▁고위관리	-10.2223
▁임금	-10.2224
시에	-10.2224
▁종류	-10.2224
▁월드	-10.2226
▁여권	-10.2229
▁얼음	-10.2229
▁견해	-10.2231
▁쓴	-10.2231
▁이루어졌다	-10.2232
▁시기에	-10.2232
없이	-10.2234
▁무선	-10.2241
▁답했다	-10.2246
▁혁명	-10.2247
▁개장	-10.2256
운동	-10.2259
자금	-10.2275
스터	-10.2279
▁마감했다	-10.2282
▁130	-10.2284
안에	-10.2284
▁세워	-10.2287
▁예정된	-10.2289
패	-10.2296
견	-10.2296
▁주문	-10.2297
▁집으로	-10.2297
당한	-10.2309
▁식당	-10.2309
쳤	-10.231
▁나타내	-10.2316
▁전원	-10.2322
▁회견	-10.2323
놓	-10.2325
▁120	-10.2331
▁깨	-10.2337
▁바이	-10.2337
▁해양	-10.2342
▁코트	-10.2342
천만	-10.2343
▁의문	-10.235
▁에어버스	-10.235
▁추정	-10.2353
▁독	-10.2364
▁취재	-10.2367
▁메일	-10.2368
이기	-10.237
▁스키	-10.237
▁선거캠프	-10.2371
리는	-10.2371
▁숀	-10.2372
▁화장실	-10.2373
▁계획은	-10.2375
건의	-10.2376
▁노동당	-10.2377
틴	-10.2378
▁상공	-10.2379
▁시점	-10.2379
▁예정입니다	-10.2381
▁작동	-10.239
▁전환	-10.2391
▁화해	-10.2392
▁만났다	-10.2405
▁독도	-10.2408
▁에도	-10.242
▁재건	-10.2426
세가	-10.2427
경제	-10.243
▁찾을	-10.2439
▁발언에	-10.244
▁비판했다	-10.244
▁초대	-10.2441
▁봉쇄	-10.2444
▁자사	-10.2444
▁하늘	-10.245
▁위에	-10.2452
▁불러	-10.2459
▁아프가니스탄에서	-10.2469
▁우주비행사	-10.2469
▁처	-10.2478
▁시티	-10.248
▁조기	-10.2485
▁인종	-10.2496
▁백악관에서	-10.2503
▁생각했다	-10.2504
▁보는	-10.2505
▁압둘	-10.2512
취	-10.2512
북	-10.2516
악	-10.2516
▁총장은	-10.2517
막	-10.2518
▁정신적	-10.2519
올	-10.2521
▁나스닥	-10.2522
▁샤라포바	-10.2522
▁옆에	-10.2522
▁리차드	-10.2522
▁복무	-10.2522
▁패트릭	-10.2522
▁형제	-10.2523
▁핵프로그램	-10.2523
▁북서부	-10.2523
▁직업	-10.2523
▁다윈	-10.2524
▁강풍	-10.2525
▁잔	-10.2525
▁진영	-10.2526
▁배경	-10.2527
▁델	-10.2529
▁직전	-10.253
▁언어	-10.253
▁법무부	-10.2531
▁라이	-10.2531
▁차단	-10.2535
▁전세계적으로	-10.2535
▁얻어	-10.2535
▁비치	-10.2539
▁거두	-10.254
히려	-10.254
▁해임	-10.2542
▁들어갔다	-10.2543
▁분명	-10.2545
▁자제	-10.2556
▁연금	-10.2557
10	-10.2557
▁말해	-10.2558
세로	-10.256
션	-10.2566
▁시민들이	-10.2569
▁때문이라	-10.2574
▁아니었다	-10.2585
▁윌	-10.2589
25	-10.2589
▁관광객들	-10.2592
더라	-10.2595
▁합류	-10.2611
▁펜	-10.2619
▁이라크군	-10.2619
▁탈	-10.2628
▁공개된	-10.2639
▁사용자	-10.2641
▁맡은	-10.2646
어야	-10.2647
▁전역에	-10.265
▁법안이	-10.2654
▁그렇지	-10.2658
▁대상이	-10.2658
▁했습니다	-10.2667
▁했었다	-10.2669
닥	-10.2669
▁그리	-10.2671
▁건축	-10.2673
▁디즈니	-10.2675
▁캄보디아	-10.2676
▁둘러싸	-10.2676
▁받아들일	-10.2676
▁영웅	-10.2676
▁케빈	-10.2677
▁유럽의	-10.2678
▁축소	-10.2679
▁보복	-10.2681
▁공개적으로	-10.2688
▁진화	-10.2693
▁열어	-10.2694
7000	-10.2695
▁기상	-10.2696
▁39	-10.2697
▁이루	-10.2698
▁논의하기	-10.27
▁보유	-10.2702
▁유대인	-10.2705
▁완전한	-10.2706
▁자유롭	-10.2709
▁보호하기	-10.2709
▁스타일	-10.2713
▁해적	-10.2721
▁공유	-10.2724
▁65	-10.2726
글	-10.2729
▁폭락	-10.2754
항	-10.2756
▁공항에	-10.2756
▁자신에게	-10.2758
▁진술했다	-10.2758
▁콘	-10.2761
▁시드니	-10.2763
▁가능하다	-10.2772
▁숨졌	-10.2776
▁세계적	-10.2777
▁구금	-10.2779
▁인근에	-10.2781
▁의학	-10.279
▁곡	-10.2791
▁무엇	-10.2799
스톤	-10.2813
▁골프	-10.2815
▁병사들	-10.2818
▁즉각	-10.2821
▁뒤에	-10.2825
▁나누	-10.2825
▁근로자	-10.2827
▁패션	-10.2831
▁마이애미	-10.2832
▁비타민	-10.2832
▁알코올	-10.2832
▁일찍	-10.2832
▁한글뉴스	-10.2832
▁중앙일보	-10.2832
▁가택연금	-10.2832
▁호랑이	-10.2832
▁거듭	-10.2832
▁자치정부	-10.2833
▁라이벌	-10.2833
영화	-10.2833
▁다우지수	-10.2833
▁산사태	-10.2834
▁새벽	-10.2834
왕	-10.2834
덴	-10.2835
▁왕실	-10.2835
▁천재	-10.2835
쇼	-10.284
▁공모	-10.2841
▁들여	-10.2842
▁년간	-10.2843
▁쌀	-10.2845
짜리	-10.2846
▁타임스	-10.2851
▁해산	-10.2852
▁맥주	-10.2852
▁떠났다	-10.2853
▁만들고	-10.2858
▁오바마와	-10.2858
▁이론	-10.286
▁감염된	-10.2861
▁잡고	-10.2862
하고자	-10.2864
▁1500	-10.2864
▁단어	-10.2864
▁대치	-10.2868
▁문제들	-10.2869
피트	-10.287
▁불과	-10.287
▁영장	-10.2873
▁딕	-10.2876
▁전부터	-10.2889
▁영국인	-10.2891
▁증가한	-10.2891
▁회사가	-10.2894
▁평가했다	-10.2896
▁동쪽	-10.2896
▁트리	-10.2902
▁짓	-10.2905
▁상태로	-10.2905
▁지내	-10.2907
▁지점	-10.291
놓고	-10.2916
▁시한	-10.2918
▁끼	-10.2918
▁올리	-10.2919
▁거리에	-10.2919
밀	-10.2922
▁모스크바	-10.2924
주의자	-10.2926
겨	-10.2927
쳤다	-10.2937
▁록	-10.2938
드는	-10.2941
▁바라	-10.2941
▁달려	-10.2955
슬	-10.2957
▁블	-10.296
▁데에	-10.2961
▁시장이	-10.2963
▁니콜	-10.2975
▁발굴	-10.2985
▁부서	-10.2991
▁남서부	-10.2991
▁쌍둥이	-10.2991
됨	-10.2991
▁간단	-10.2991
▁천연가스	-10.2991
▁겨냥	-10.2991
▁법무장관	-10.2991
▁활약	-10.2991
▁극복	-10.2991
▁수석대표	-10.2992
▁로이터	-10.2992
▁마무	-10.2992
▁위안부	-10.2993
▁사생활	-10.2993
▁사찰단	-10.2993
▁폭파	-10.2995
▁무엇보다	-10.2996
▁중요	-10.2998
▁초반	-10.3
▁북쪽	-10.3002
▁선발	-10.3002
암	-10.3003
다시	-10.3004
▁급속	-10.3004
▁폭스	-10.301
▁선전	-10.3011
▁치열한	-10.3011
▁출동	-10.3017
▁것인가	-10.3017
▁구출	-10.3019
환	-10.3019
▁주었다	-10.3022
▁위대	-10.3023
▁나에게	-10.3023
▁조합	-10.3024
▁호수	-10.3025
▁일제	-10.3026
산업	-10.3028
▁연구팀	-10.303
▁돌아	-10.3032
▁움직이	-10.3032
▁노인	-10.3034
▁로비	-10.3041
▁키스	-10.3045
▁표시	-10.3046
세트	-10.3054
척	-10.3054
▁우리에게	-10.3057
▁투표에서	-10.3072
▁수퍼	-10.3074
녀	-10.3076
▁예루살렘	-10.308
▁국민들이	-10.3084
▁사람에게	-10.3086
젤	-10.3086
자들에게	-10.3091
▁가족과	-10.3092
았	-10.3092
▁이재민	-10.3097
▁출석	-10.31
례	-10.3101
▁한국이	-10.3104
▁연관	-10.3106
극	-10.3113
▁감행	-10.3123
▁인디애나	-10.3126
▁취	-10.3127
아야	-10.3132
▁화학	-10.3143
혜	-10.3145
▁뿌리	-10.3152
▁쓰촨성	-10.3152
▁아메리카	-10.3152
▁토네이도	-10.3152
▁디지털	-10.3152
▁결선투표	-10.3152
▁침몰	-10.3152
▁파트너	-10.3152
▁보스턴	-10.3152
▁은신처	-10.3152
▁다섯	-10.3153
▁원칙	-10.3153
▁1996	-10.3153
▁황금	-10.3153
만원	-10.3154
▁5000	-10.3158
▁엔진	-10.3159
▁악어	-10.3161
▁계	-10.3161
희	-10.3162
▁재난	-10.3162
▁보험	-10.3163
▁카터	-10.3164
▁경력	-10.3166
조사	-10.3166
▁눈에	-10.3168
▁들어오	-10.317
▁미칠	-10.3173
▁원화	-10.3174
▁채널	-10.3175
▁푸	-10.3178
명도	-10.3181
▁재무부	-10.3181
▁차량에	-10.3182
제도	-10.3183
▁특파원	-10.3187
▁소문	-10.3189
▁노선	-10.3191
▁아프간에서	-10.3192
▁얻을	-10.3196
▁청	-10.3199
▁조약	-10.3203
베나	-10.3205
▁200812	-10.3205
됐었다	-10.3209
되어야	-10.3212
▁알카에다와	-10.3216
▁통신이	-10.3217
▁4000	-10.3226
▁제조업체	-10.3228
▁떨어졌	-10.3231
▁구조대	-10.3237
▁하락세	-10.3238
▁경험이	-10.3253
▁견	-10.3254
▁상승세	-10.3254
드리	-10.3255
▁파티	-10.3259
▁싶어	-10.3263
▁생일	-10.3278
▁든	-10.328
▁의사들	-10.3285
▁형사	-10.3286
▁장면이	-10.3288
▁현실	-10.3288
▁부근	-10.3299
▁최저	-10.3306
▁포경	-10.3309
▁음	-10.331
▁쇼핑	-10.3312
▁참여한	-10.3313
존	-10.3314
▁에드	-10.3316
방송	-10.3316
▁늦게	-10.3316
▁비핵화	-10.3316
▁알렉산더	-10.3316
▁좋다	-10.3316
▁키바키	-10.3316
▁할머니	-10.3316
▁오딩가	-10.3316
▁급격	-10.3317
▁남극	-10.3318
▁영업	-10.3318
▁아이폰	-10.3318
▁체중	-10.332
▁만남	-10.332
▁대립	-10.332
개발	-10.3322
▁공사	-10.3322
▁밥	-10.3322
풍	-10.3325
▁초청	-10.3326
▁리히터	-10.3327
▁모건	-10.3331
경찰	-10.3333
▁날짜	-10.3333
▁물이	-10.3337
▁협박	-10.3338
▁실망	-10.3342
▁측정	-10.3343
▁정의	-10.3354
▁의석	-10.3356
▁삭제	-10.3356
▁자본	-10.3358
받	-10.3361
▁총상	-10.3371
▁연구에	-10.3374
▁차량이	-10.3374
▁밴드	-10.3377
▁기다리	-10.3384
▁로한	-10.3389
▁일하	-10.3398
▁수리	-10.3398
▁미국인들이	-10.3399
▁동기	-10.3399
▁프레스	-10.3403
▁치러	-10.3417
▁보내는	-10.3418
주는	-10.3425
▁당국자	-10.3427
분에	-10.3428
▁이란과	-10.3431
제를	-10.3431
염	-10.3434
▁철	-10.3435
▁테러와	-10.3442
▁보석	-10.3443
▁거주	-10.3444
▁언론에	-10.3449
되었으며	-10.3455
▁61	-10.3457
▁좋아	-10.3463
▁54	-10.3464
비아	-10.3467
▁채택	-10.3468
▁47	-10.3475
▁그대로	-10.3479
▁천주교	-10.348
▁떠	-10.3481
▁옮겨	-10.3481
▁이산화탄소	-10.3483
▁인플레이션	-10.3483
▁필라델피아	-10.3483
▁거짓말	-10.3483
▁탄압	-10.3483
▁산림	-10.3485
▁사냥	-10.3485
▁소집	-10.3486
▁56	-10.3487
▁성격	-10.3487
원들	-10.3492
▁다음날	-10.3493
▁근로자들	-10.3499
▁이뤄졌다	-10.3504
00	-10.3506
▁양국간	-10.351
▁2500	-10.3511
▁투쟁	-10.3515
트리	-10.3518
전에	-10.3519
▁부총리	-10.3519
▁가동	-10.352
▁나오지	-10.3521
기에	-10.3523
▁통일부	-10.3525
▁리치	-10.3525
▁화재로	-10.3526
▁소위	-10.3529
▁일간지	-10.353
▁월요일에	-10.3531
▁중간	-10.3539
▁정지	-10.354
▁여론조사에서	-10.3541
▁만들기	-10.3546
국이	-10.3547
이었으며	-10.3547
▁것임	-10.355
▁노스캐롤라이나	-10.3551
▁순찰	-10.3551
▁학	-10.3555
▁정치인	-10.3559
통신	-10.356
▁방식으로	-10.357
▁보고서에	-10.3575
움	-10.3581
▁홍수로	-10.3582
▁기록한	-10.359
▁남동부	-10.359
▁구조대원들	-10.3597
인들이	-10.3606
▁숙	-10.3606
웨이	-10.3606
▁몰아	-10.3609
▁가족들이	-10.3612
▁분리	-10.3612
▁여행객	-10.3618
▁수상한	-10.3624
▁출판	-10.3625
▁세력이	-10.3631
▁연주	-10.3633
▁북미	-10.3636
▁관계에	-10.3639
닌	-10.3644
▁7000	-10.3646
▁이루어지	-10.3646
딩	-10.365
▁탄핵	-10.3651
▁골키퍼	-10.3652
▁주최측	-10.3652
▁남자친구	-10.3652
닷컴	-10.3653
▁폭설	-10.3654
▁단어장	-10.3655
▁택시	-10.3656
▁브랜드	-10.3656
▁진단	-10.3656
▁벨기에	-10.3657
▁가상	-10.3658
폭	-10.366
▁인사들	-10.3675
▁진행자	-10.3677
▁특수	-10.3677
위인	-10.3682
▁기대한다	-10.369
해질	-10.3694
때문에	-10.3694
작전	-10.3697
▁앨	-10.3697
▁군사적	-10.3698
▁표명했다	-10.37
▁만화	-10.3702
▁예를들	-10.3702
▁날개	-10.3707
달라고	-10.3708
▁사법	-10.3708
▁직	-10.3711
▁일본과	-10.3714
▁생각하지	-10.3717
▁신사	-10.3717
▁사람들과	-10.3724
▁일치	-10.3725
▁공대	-10.3726
▁조사에따르면	-10.3729
▁사태에	-10.3736
▁마비	-10.3737
▁미군과	-10.3739
▁메이	-10.3744
▁극장	-10.3746
▁먼	-10.3749
▁최근에	-10.376
▁기소됐다	-10.3763
▁희생	-10.3776
▁컵	-10.378
▁봉사	-10.3783
▁주장한	-10.3783
▁단체들	-10.3784
▁이식	-10.3792
▁토론회	-10.3808
▁방송사	-10.3811
▁제공할	-10.3811
갑	-10.3814
▁스톤	-10.3814
▁제작한	-10.3819
▁순	-10.3823
▁뭄바이	-10.3825
▁후진타오	-10.3825
▁코끼리	-10.3825
▁균형	-10.3825
▁종결	-10.3826
▁징역형	-10.3828
▁꼭	-10.3829
▁라덴	-10.3829
▁위협이	-10.383
▁배후	-10.3831
숙	-10.3832
▁음주	-10.3833
▁조류	-10.3833
▁금리	-10.3834
▁확인됐다	-10.3836
▁여학생	-10.3839
▁기온	-10.384
▁비교적	-10.3842
▁아난	-10.3844
▁성장률	-10.3845
▁한국인들	-10.3846
▁이에따라	-10.3849
▁용기	-10.3849
▁보여준다	-10.3852
▁정전	-10.3853
사항	-10.3854
▁부상으로	-10.3855
▁공간	-10.3856
사태	-10.3857
▁공기	-10.3858
▁예술	-10.3867
▁폭발이	-10.3873
▁실적	-10.3875
▁조명	-10.3875
▁돼지	-10.3884
▁순위	-10.3886
▁하나로	-10.3886
항공	-10.3892
▁자신과	-10.39
▁모르	-10.39
▁맡고	-10.39
▁초안	-10.3903
▁68	-10.3904
▁전통적	-10.3911
▁토지	-10.3915
▁내리	-10.3917
으	-10.3924
된다고	-10.3925
▁출연한	-10.3929
▁마시	-10.3932
니스	-10.3938
▁청문회	-10.3938
드라	-10.3943
▁치르	-10.3945
랜	-10.3949
▁월가	-10.3949
슨은	-10.3955
▁배가	-10.3965
지역에서	-10.3966
▁수위	-10.3972
스와	-10.3974
▁군은	-10.3976
▁결과에	-10.3978
▁중이었다	-10.3979
▁보잉	-10.398
▁받는다	-10.3981
▁갔다	-10.3987
▁바람	-10.3988
▁입을	-10.399
▁올라가	-10.3993
▁이란에	-10.3994
한번	-10.3996
▁사우스캐롤라이나	-10.4
▁선관위	-10.4
▁스트레스	-10.4
▁테일러	-10.4
▁1993	-10.4002
▁줄리아니	-10.4003
델	-10.4004
▁케이트	-10.4005
▁감바리	-10.4006
▁제목	-10.4008
▁미디어	-10.4008
▁화상	-10.4016
▁비율	-10.4017
▁마리아	-10.4017
▁정식	-10.4018
▁홈	-10.4022
만개	-10.4026
▁일으켰다	-10.4032
▁피부	-10.4033
이란	-10.4033
정보	-10.4033
▁일어났다	-10.4048
▁예상되	-10.405
▁환	-10.4052
▁파도	-10.4054
▁71	-10.4056
▁시각	-10.4058
▁낼	-10.4059
▁필요성	-10.4061
들로부터	-10.4065
▁수사관들	-10.4076
▁도착한	-10.4079
▁사용했다	-10.4081
▁근처에서	-10.4086
버그	-10.4095
▁대피했다	-10.41
부대	-10.4102
▁해도	-10.4118
▁자택	-10.4119
▁가게	-10.4119
▁발생했	-10.4125
▁미스	-10.4135
▁예정인	-10.4139
▁사용해	-10.414
▁고객들	-10.414
▁파손	-10.4142
▁하나인	-10.4145
▁올려	-10.4145
▁중단했다	-10.4149
▁애도	-10.4151
그룹	-10.4153
▁선포했다	-10.4155
▁비난하는	-10.4158
되며	-10.4163
텔	-10.4165
▁론	-10.4172
▁광범위	-10.4179
▁다큐멘터리	-10.4179
▁식료품	-10.4179
▁재검토	-10.4179
▁탱크	-10.4179
▁마라톤	-10.4179
▁펠로시	-10.4179
▁돌고래	-10.4179
▁가벼	-10.4179
▁교통사고	-10.4179
▁구축	-10.4179
▁슈퍼	-10.418
▁지붕	-10.418
▁소규모	-10.418
▁보존	-10.4181
▁1995	-10.4181
▁관영	-10.4181
▁국적	-10.4181
▁동생	-10.4182
▁신규	-10.4182
▁1960	-10.4182
▁스턴	-10.4182
▁화려	-10.4183
연맹	-10.4183
▁체코	-10.4184
▁범행	-10.4184
▁관계당국	-10.4185
조직	-10.4186
▁기쁘다	-10.4189
업자	-10.4193
착	-10.4193
침	-10.4193
▁묘사	-10.4195
▁승려들	-10.4195
▁치명적인	-10.4198
▁시체	-10.4199
▁재판관	-10.42
▁발생하고	-10.4201
▁조용	-10.4207
▁기차	-10.4207
테러	-10.4209
▁유출	-10.421
연구소	-10.4214
▁분류	-10.4214
▁사용하지	-10.4216
▁손에	-10.4216
6000	-10.4217
▁가족이	-10.4217
▁곳이다	-10.4226
▁수십명	-10.4229
▁95	-10.4229
▁수립	-10.4236
▁경호원	-10.4238
▁700	-10.4238
▁문제의	-10.4248
▁인원	-10.4249
▁쓰고	-10.4251
▁지점에서	-10.4257
▁무게	-10.4258
▁참석할	-10.427
▁생각이	-10.4273
비치	-10.4274
▁이용하는	-10.4276
▁제출했다	-10.4278
▁죄	-10.4283
▁끝나	-10.4284
▁유럽에서	-10.4288
베이	-10.429
▁진행되는	-10.4299
▁적절	-10.4303
▁세계적으로	-10.4308
▁프라이머리에서	-10.431
▁총회	-10.4314
▁수사관	-10.4315
▁흔들	-10.4315
▁여성들이	-10.4318
▁내렸	-10.432
법원	-10.4323
▁남부에서	-10.4333
▁무슬림	-10.4344
탕	-10.4348
▁경찰서	-10.435
▁지상	-10.4356
▁침입	-10.4357
▁감금	-10.4361
▁과반수	-10.4361
▁국제원자력기구	-10.4361
▁돕기	-10.4361
▁듣고	-10.4361
▁샌디에이고	-10.4361
▁안전보장이사회	-10.4361
▁왼쪽	-10.4361
▁캐릭터	-10.4361
▁쿠웨이트	-10.4361
▁협약	-10.4361
▁횡령	-10.4361
▁펀드	-10.4361
▁롬니	-10.4361
▁봉송	-10.4361
▁침공	-10.4361
▁예멘	-10.4361
▁일어날	-10.4361
▁소련	-10.4362
스코	-10.4362
▁전당대회	-10.4362
▁1991	-10.4362
▁배출	-10.4363
▁일련	-10.4364
▁판정	-10.4365
▁처해	-10.4365
▁레이건	-10.4366
▁거부권	-10.4367
▁정책에	-10.4367
▁경관	-10.4367
▁이륙	-10.4368
▁녹	-10.4369
▁숲	-10.437
▁개정안	-10.4373
▁조각	-10.4374
▁착수	-10.4374
▁마친	-10.4375
▁늘어나	-10.4376
향	-10.4382
▁57	-10.4382
▁물에	-10.4383
▁과도	-10.4385
▁계좌	-10.4387
알	-10.4393
햄	-10.4396
▁기부	-10.4397
▁충돌이	-10.44
▁강요	-10.44
▁해안에서	-10.44
▁친구들	-10.4405
▁차지하고	-10.4406
▁성직자	-10.441
▁개시	-10.4411
이었	-10.4413
▁북쪽으로	-10.4417
▁서장	-10.4425
▁보여주고	-10.4429
▁이름이	-10.4429
평	-10.4432
▁운명	-10.4442
▁리드	-10.4442
▁신조	-10.4442
▁실시할	-10.4448
▁선원	-10.4449
▁근거로	-10.4454
해진	-10.4454
▁고소	-10.4457
▁여지	-10.4464
▁주장한다	-10.4465
▁원숭이	-10.447
▁사막	-10.448
▁상태에서	-10.4482
▁보냈	-10.4482
▁보일	-10.4482
▁트	-10.4488
▁58	-10.4488
▁용	-10.4492
받았다	-10.4498
라스	-10.4503
▁품	-10.4509
▁해서	-10.4527
▁적십자	-10.4531
▁파악	-10.4535
▁380	-10.4539
넬	-10.4543
▁근육	-10.4543
▁미시시피	-10.4545
▁지하철	-10.4545
▁연쇄	-10.4546
▁확장	-10.4546
▁메르켈	-10.4546
장치	-10.4547
▁특징	-10.4547
▁녹음	-10.4547
▁저희	-10.4548
▁기밀	-10.4548
▁뇌물	-10.4553
▁후보자	-10.4553
▁래리	-10.4554
▁당초	-10.4555
▁조지아주	-10.4555
▁행사에	-10.4557
▁진보	-10.4559
▁부채	-10.4559
▁붙잡	-10.456
▁모임	-10.4561
▁하미	-10.4562
▁냈다	-10.457
▁맞추	-10.4571
곤	-10.4578
▁서울시	-10.4581
▁운전사	-10.4582
▁누르	-10.4584
싱	-10.4585
▁생산량	-10.4586
▁달러화	-10.4587
▁지원할	-10.4587
▁노동자들	-10.4588
▁있어야	-10.4596
▁요리	-10.4596
▁나이트	-10.46
▁흥분	-10.4603
▁요금	-10.4606
▁실종자	-10.4607
▁운영하고	-10.4609
▁후보와	-10.461
▁지정	-10.4613
▁달린	-10.4613
량이	-10.4616
▁팀이	-10.4617
▁검은	-10.4619
▁맨	-10.4621
▁보게	-10.4621
▁발견한	-10.4622
▁상태다	-10.4638
▁지분	-10.4641
▁확정	-10.4645
▁계속될	-10.4646
▁63	-10.4647
퍼센트까지	-10.4652
▁셀	-10.4653
▁주식시장	-10.4656
▁레스토랑	-10.4659
▁최고치	-10.466
같은	-10.4663
▁않았던	-10.4672
▁이르	-10.4675
▁동의했다	-10.4676
점으로	-10.4684
▁공약	-10.469
▁운전자	-10.4693
▁국가에서	-10.4694
해왔	-10.4694
▁마이크로소프트	-10.4699
▁미치는	-10.4705
▁맞는	-10.4708
▁확신한다	-10.471
▁작	-10.471
▁와인	-10.4715
▁영화에	-10.4716
▁중단할	-10.4719
▁합의한	-10.4721
▁호소	-10.4722
▁십	-10.4726
▁생물	-10.4726
기업	-10.4726
▁신문사	-10.473
▁데일리	-10.473
▁황	-10.4732
▁마흐디	-10.4734
▁매니저	-10.4734
▁먹이	-10.4734
▁에콰도르	-10.4734
▁프랭크	-10.4734
▁항공우주국	-10.4734
▁애완견	-10.4734
▁줄기세포	-10.4734
▁난민촌	-10.4735
▁롤링	-10.4735
▁귀환	-10.4735
▁탄생	-10.4737
▁베르	-10.4737
▁원래	-10.4741
▁리처드슨	-10.4741
▁수송	-10.4741
▁세트	-10.4742
▁소형	-10.4743
▁매체	-10.4744
▁항구	-10.4747
▁밝혀진	-10.4747
놀	-10.4748
▁투르	-10.4752
▁쿠퍼	-10.4754
▁물품	-10.4756
▁일본에	-10.4759
분만에	-10.476
▁대륙	-10.476
주에서	-10.4761
압	-10.4765
몰	-10.4765
▁스타디움에서	-10.4766
▁전달했다	-10.4767
▁테니스	-10.4771
▁낮추	-10.4771
삼	-10.4773
▁딸이	-10.4774
▁회원국들	-10.4775
▁무어	-10.4776
카운티	-10.4778
90	-10.478
▁윤	-10.4786
▁깊이	-10.4791
▁다르다	-10.4792
▁증세	-10.4794
▁프	-10.4798
▁무리	-10.4801
▁추세	-10.4804
▁건물이	-10.4805
▁동맹국	-10.4806
▁없게	-10.4807
위의	-10.4809
▁쉽지	-10.4816
▁정권이	-10.4817
▁어렵다	-10.4819
▁일본인	-10.4826
릭	-10.4842
▁작업에	-10.4844
▁화요일에	-10.4849
적이	-10.485
▁하루에	-10.4853
▁66	-10.4857
▁포기하	-10.4859
▁해주	-10.4863
40	-10.4863
금지	-10.4863
▁협상에	-10.4867
별	-10.4869
▁테러범	-10.4876
벨	-10.4881
▁포로	-10.4885
▁회의에	-10.4885
▁72	-10.4893
▁교황은	-10.4901
해야만	-10.4903
갔	-10.4905
▁추측	-10.491
▁겨	-10.4912
옥	-10.4912
▁교도소에	-10.4913
▁통계	-10.4915
켓	-10.4916
▁경호	-10.4921
▁소식통이	-10.4925
▁화이트	-10.4927
▁경기부양책	-10.4927
▁샘플	-10.4927
▁어깨	-10.4927
▁헌법재판소	-10.4927
▁옐친	-10.4927
▁앤드류	-10.4927
▁득표율	-10.4927
▁솔직	-10.4928
▁복역	-10.4928
▁빌딩	-10.4928
▁창출	-10.4929
▁영화배우	-10.4929
▁끝날	-10.493
▁창문	-10.493
▁다국적군	-10.4931
▁방출	-10.4931
▁졸리	-10.4932
▁경비	-10.4933
▁키우	-10.4935
▁최저치	-10.4938
스가	-10.4939
▁73	-10.4941
▁청사	-10.4944
▁부모들	-10.4947
▁상원의원과	-10.4948
▁놀	-10.4948
▁래	-10.495
▁오하이오주	-10.4959
▁인력	-10.4962
▁식사	-10.4964
▁발견되었다	-10.4969
▁즐	-10.4969
▁상상	-10.497
곡	-10.4971
새	-10.4972
꺼	-10.4973
▁텍사스주	-10.4974
▁아들이	-10.4975
1000	-10.4978
▁공개됐다	-10.4978
▁권고	-10.4979
▁전반적	-10.498
퍼센트포인트	-10.4981
▁학교에	-10.4982
▁늘리	-10.4983
▁화물	-10.4989
▁정원	-10.4991
▁치러지	-10.4997
▁일에	-10.4998
▁예정이었다	-10.5001
▁해상	-10.5001
▁결과로	-10.5002
▁시작했	-10.5002
▁아르	-10.5005
위원장	-10.5006
▁전부	-10.5009
▁전복	-10.5013
▁촬영한	-10.5013
▁인근에서	-10.5025
사인	-10.5025
▁다가	-10.5026
▁페이지	-10.5028
단계	-10.5036
십	-10.5037
▁바라는	-10.504
▁거절했다	-10.5046
▁조건으로	-10.5051
▁모색	-10.5051
▁하락한	-10.5051
500	-10.5051
▁대항	-10.5052
▁카불	-10.5061
▁잡아	-10.5064
▁무고	-10.5065
64	-10.5073
▁걸린	-10.508
▁자리에	-10.5091
스럽게	-10.5093
▁문제와	-10.5098
▁방문하는	-10.5103
▁승무원들	-10.5106
▁게재	-10.5111
▁빈곤	-10.5111
▁요인	-10.5114
▁상징	-10.5118
▁워	-10.5121
▁불구	-10.5122
▁윔블던	-10.5123
▁일으킬	-10.5123
▁퍼거슨	-10.5123
▁플라스틱	-10.5123
▁배터리	-10.5123
▁침략	-10.5123
▁프리미어리그	-10.5123
▁노르웨이	-10.5123
▁데이빗	-10.5123
▁브리핑	-10.5123
▁유혈사태	-10.5123
▁낙태	-10.5123
▁검증	-10.5123
▁빠질	-10.5124
▁생방송	-10.5124
▁외무성	-10.5124
▁로딕	-10.5124
▁오마르	-10.5125
▁실업률	-10.5127
▁따르	-10.5128
▁드러냈다	-10.5129
▁매달	-10.5129
▁이뤄진	-10.513
▁음성	-10.513
▁제리	-10.5131
▁접전	-10.5131
▁여겨지	-10.5131
▁본토	-10.5133
▁즐기	-10.5133
▁상호	-10.5134
▁발행	-10.5135
시킨다	-10.5135
▁비행사	-10.5142
▁분량	-10.5143
▁연구원들	-10.5143
▁권	-10.5144
적이고	-10.5145
▁41	-10.5146
▁알렸다	-10.5149
▁알지	-10.515
▁유도	-10.5151
▁소득	-10.5153
▁상태이다	-10.5154
▁동일한	-10.5158
▁지켜보	-10.5161
▁잡스	-10.5163
▁분석가들은	-10.517
컵	-10.5172
▁보이며	-10.5173
▁후보인	-10.5181
미터	-10.5184
75	-10.5186
▁경영진	-10.5186
▁자택에서	-10.519
갔다	-10.5191
니는	-10.5194
▁행정	-10.5195
4000	-10.5195
▁던지	-10.5198
▁제정	-10.5202
비용	-10.5205
포트	-10.5207
▁장례식	-10.5208
학교	-10.5209
▁않기로	-10.5212
▁지지자들이	-10.5214
▁하면서	-10.5215
▁해병	-10.5216
▁농	-10.5222
▁위원	-10.5227
▁투표에	-10.5233
▁취해	-10.5235
▁국기	-10.5235
▁무장대원	-10.5237
▁취임식	-10.5237
▁발표됐다	-10.5246
▁마을에서	-10.5252
학자	-10.5256
익	-10.5257
에게서	-10.5263
▁떨어지	-10.5271
▁얼	-10.5274
▁88	-10.5276
▁브리	-10.5279
0000	-10.5283
▁지지한다	-10.5283
▁심의	-10.5291
▁버리	-10.5292
▁지대	-10.5293
어로	-10.5293
▁벽	-10.5295
▁지원하는	-10.5304
▁반영	-10.5311
▁항의하	-10.5312
▁불이	-10.5312
▁애리조나	-10.5313
넷	-10.5319
▁나토군	-10.5321
릿	-10.5322
▁뮤지컬	-10.5323
▁오토바이	-10.5323
▁카트리나	-10.5323
▁파바로티	-10.5323
▁피라미드	-10.5323
▁느낄	-10.5323
▁징계	-10.5323
▁정거장	-10.5323
▁보이콧	-10.5323
▁여섯	-10.5323
▁암컷	-10.5323
▁라이언	-10.5324
▁돌파	-10.5324
▁영양	-10.5325
▁통증	-10.5327
▁상대방	-10.5327
▁번역	-10.5327
▁백신	-10.5328
▁알렉스	-10.5329
15	-10.533
▁않는다면	-10.533
▁모금	-10.5331
▁멀리	-10.5332
▁보급	-10.5333
▁빠지	-10.5333
에이커	-10.5333
▁한국은행	-10.534
▁사설	-10.534
분께	-10.5341
▁부산	-10.5345
▁로스	-10.5345
▁법원에서	-10.5346
▁얻고	-10.5346
▁탐	-10.5348
▁산타	-10.5351
▁정상화	-10.5352
▁쓸	-10.5356
▁부실	-10.5357
▁스테	-10.5358
▁알아	-10.536
▁해당하는	-10.5361
▁포장	-10.5361
▁뿐이라	-10.5372
귀	-10.5372
▁목격	-10.5373
▁앉아	-10.5375
▁외치	-10.5386
마자	-10.5386
▁실시했다	-10.5387
▁레바논군	-10.5387
입어	-10.539
▁개인적	-10.5394
▁59	-10.5398
▁참여할	-10.5398
▁감소했다	-10.5401
타르	-10.5402
듯	-10.5407
▁전해지	-10.5412
▁후원	-10.5416
▁국가로	-10.5417
▁입수	-10.5424
송	-10.5446
▁살해했다	-10.545
▁화면	-10.5452
▁제시했다	-10.5458
▁62	-10.546
▁몰고	-10.5465
오는	-10.5465
대표	-10.5471
▁취한	-10.5484
▁잠재적	-10.5497
▁응급	-10.5501
▁정상들	-10.5508
찰	-10.551
▁실질적	-10.551
▁단체인	-10.5513
82	-10.5517
▁온도	-10.552
▁고장	-10.5521
▁200810	-10.5521
▁르	-10.5521
▁감지	-10.5523
▁두번째	-10.5525
▁아름다	-10.5527
▁관타나모	-10.5527
▁마돈나	-10.5527
▁아테네	-10.5527
▁불가리아	-10.5527
▁객실	-10.5527
▁라파엘	-10.5527
▁비틀즈	-10.5528
▁화합	-10.5528
▁설	-10.5528
▁1992	-10.5529
▁종료	-10.553
▁테러조직	-10.5531
▁차별	-10.5533
▁서식지	-10.5535
▁도심	-10.5536
▁에어	-10.5536
▁전국적으로	-10.5538
▁재임	-10.5539
▁개편	-10.5539
▁재직	-10.554
▁내려졌다	-10.5542
▁소식에	-10.5544
▁겸	-10.555
내내	-10.5551
▁처한	-10.5552
▁리비	-10.5555
▁열렸다	-10.5555
19	-10.556
▁레드	-10.5562
▁대학에서	-10.5562
드로	-10.5564
▁유산	-10.5568
▁광장	-10.5572
▁전망했다	-10.5573
▁일이다	-10.5575
▁득점	-10.5575
▁다음주	-10.558
▁소유하고	-10.558
공격	-10.5581
됩니다	-10.5585
▁포함돼	-10.5587
▁해소	-10.559
▁범인이	-10.5601
▁방향으로	-10.5603
▁직원이	-10.5611
▁군인들이	-10.562
▁계기	-10.5622
▁국민의	-10.5623
▁커지	-10.5629
▁당국에	-10.5635
▁주에	-10.5636
었는지	-10.5636
▁부당	-10.5637
포드	-10.5643
▁이민	-10.5657
사의	-10.5658
▁대학생	-10.5658
▁싱	-10.566
기록	-10.5678
▁제출한	-10.568
▁연안	-10.5681
쪽으로	-10.5685
▁상승한	-10.5685
으면서	-10.5688
으려	-10.5694
▁노력이	-10.5703
▁승객들	-10.571
▁농장	-10.5712
▁최대의	-10.5715
▁고급	-10.5718
지역에	-10.5719
▁북극	-10.5719
▁악화되	-10.5719
국의	-10.5722
▁주위	-10.5729
멸	-10.573
됐을	-10.5733
▁망	-10.5733
▁경기침체	-10.5735
▁끔찍	-10.5735
▁먹는	-10.5735
▁히틀러	-10.5735
▁중남미	-10.5735
▁자유무역협정	-10.5735
▁관람	-10.5736
▁벽돌	-10.5736
▁탄광	-10.5737
▁팝	-10.5737
▁자문	-10.5737
▁자선단체	-10.5737
▁점검	-10.5737
▁거짓	-10.5737
▁오른쪽	-10.574
▁지불하	-10.5742
▁본다	-10.5743
▁자신감	-10.5744
▁이틀간	-10.5745
▁접수	-10.5745
▁실린	-10.5746
▁아마디	-10.5747
▁동물들	-10.575
▁촉진	-10.575
▁인형	-10.5752
▁보입니다	-10.5752
▁챔피언십	-10.576
▁남용	-10.576
99	-10.576
▁라이브	-10.576
▁세웠다	-10.577
▁남편이	-10.5772
▁포함하여	-10.5773
몬	-10.5775
돼야	-10.5775
▁수배	-10.5778
▁군함	-10.5781
63	-10.5781
▁후보들	-10.5782
▁플로리다주	-10.5782
▁유발	-10.5787
▁조지아	-10.5794
▁140	-10.5794
않	-10.5796
200509	-10.5797
▁국가들이	-10.5802
보호	-10.5806
▁계획이라	-10.5807
▁손해	-10.5816
기지	-10.5823
▁각자	-10.5824
시대	-10.5825
없는	-10.583
▁카페	-10.5836
▁포함됐다	-10.5839
▁미니	-10.5841
▁시인	-10.5848
본부	-10.5849
▁하자	-10.585
▁사용하고	-10.585
▁좋아하는	-10.5851
▁로브	-10.5851
▁법안에	-10.5857
객	-10.5858
▁기소된	-10.5858
상의	-10.586
리에	-10.5863
▁약세	-10.5866
▁명확	-10.5878
▁웨	-10.5878
▁피해자들	-10.5878
▁상하이	-10.5879
▁코커스	-10.5881
▁그래	-10.5884
▁포럼	-10.5886
▁저자	-10.5894
▁지휘관	-10.5894
▁이어지	-10.59
▁강세	-10.5908
▁민족	-10.5908
▁나왔	-10.5911
▁여러분	-10.5911
▁여기에	-10.5912
▁완	-10.5912
▁포인트	-10.5913
다란	-10.5913
▁맛	-10.5919
▁일이라	-10.5923
버스	-10.5925
▁슬	-10.5925
▁콜로라도	-10.5936
▁테러에	-10.5943
▁매춘	-10.5946
▁있을지	-10.5946
▁루아얄	-10.5948
▁베네딕	-10.5948
▁에넹	-10.5948
▁우주왕복선	-10.5948
▁울포위츠	-10.5948
▁지지선언	-10.5948
▁허커비	-10.5948
▁징후	-10.5948
▁벌써	-10.5948
▁농업	-10.5948
▁막대한	-10.5948
▁본격적	-10.5948
▁파나마	-10.5949
▁시라크	-10.5949
▁척	-10.5949
▁함유	-10.595
▁떠날	-10.595
▁디스크	-10.5951
▁로저	-10.5952
▁드러내	-10.5952
▁통과시켰다	-10.5954
▁연계	-10.5955
▁집권당	-10.5956
▁형식	-10.5956
▁학생이	-10.5956
▁에릭	-10.5957
▁플레이어	-10.5957
▁승부	-10.5957
▁범위	-10.5958
▁준수	-10.5959
▁국방성	-10.5959
▁중요성	-10.5961
▁정계	-10.5962
▁뉴욕주	-10.5964
력이	-10.5964
▁탄소	-10.5964
▁연간	-10.5964
▁표면	-10.5972
▁200510	-10.5972
▁얼마전	-10.5973
이었습니다	-10.5974
리스트	-10.5976
▁호소했다	-10.5977
▁승인했다	-10.598
▁촉발	-10.598
검	-10.5983
▁벌어졌다	-10.5983
▁조항	-10.5986
▁있었습니다	-10.5996
▁내려진	-10.5999
▁러	-10.6001
▁털	-10.6005
▁재미있	-10.6008
칸	-10.6011
▁나선	-10.6011
▁조사한	-10.6012
▁유튜브	-10.6013
▁기울	-10.602
▁대전	-10.6021
시오	-10.6023
▁매케인이	-10.6031
▁대법원장	-10.6032
▁복	-10.6033
▁타임	-10.6034
물이	-10.604
치를	-10.6043
팅	-10.6056
▁여부에	-10.6061
▁전역에서	-10.6062
▁존중	-10.6064
간에	-10.6066
▁퇴임	-10.6066
▁포함된	-10.6068
▁어렵	-10.6069
로스	-10.607
원제	-10.6077
▁곳이	-10.6078
▁160	-10.6078
▁탑승객	-10.6081
이션	-10.6088
▁베를린	-10.6089
▁관여	-10.6091
▁도달	-10.6092
▁바스라	-10.6093
▁부족하다	-10.6098
▁회	-10.6098
허	-10.6098
▁향상	-10.61
▁출산	-10.6105
▁추구하	-10.6107
▁내정	-10.6119
▁되찾	-10.6122
▁제공한	-10.6126
▁82	-10.613
▁건강이	-10.6134
▁직접적	-10.6135
측에	-10.6136
▁북부에	-10.6136
▁건너	-10.6138
기때문에	-10.6143
▁계속된	-10.6148
▁필요로	-10.6155
▁촉구하	-10.6155
▁소탕	-10.6161
▁쓰레기	-10.6163
▁함	-10.6163
픽	-10.6165
▁권성근	-10.6165
▁쇠고기	-10.6165
▁싶지	-10.6165
▁옮기	-10.6165
▁조승희	-10.6165
▁포르노	-10.6165
▁교섭	-10.6166
▁저항세력	-10.6166
▁우울증	-10.6166
▁술집	-10.6167
▁정착	-10.6168
▁외곽	-10.6168
▁다룬	-10.6168
▁사이클	-10.6168
▁계산	-10.6169
▁벗어	-10.617
▁상담	-10.6171
베르토	-10.6171
▁지역사회	-10.6171
▁서류	-10.6171
▁모른다고	-10.6172
▁왕세자비	-10.6172
▁군이	-10.6175
▁소동	-10.6175
▁점거	-10.6176
▁야구	-10.6176
▁몸에	-10.6177
▁용의자로	-10.6177
▁많아	-10.618
강전에서	-10.6186
▁되며	-10.6186
▁곰	-10.6187
▁사체	-10.6188
▁200711	-10.6188
년만	-10.6188
▁신분	-10.6191
원이	-10.6197
▁입법	-10.6207
▁발표했습니다	-10.6208
푸	-10.6211
▁열고	-10.6211
▁결승전에서	-10.6215
▁구역	-10.6219
▁걸리	-10.6222
펠	-10.6227
▁당국자들	-10.6231
헌	-10.6232
▁학교에서	-10.6235
▁지식	-10.6236
시스템	-10.6237
▁진지	-10.6243
▁도시인	-10.6244
▁탈레반측	-10.6256
▁적발	-10.6259
▁고려하고	-10.626
▁희망한다	-10.6262
▁합의에	-10.6263
▁부분이	-10.6266
▁정보부	-10.627
2000	-10.6272
▁운동가들	-10.6282
▁가족들과	-10.6292
▁유전	-10.6294
▁게리	-10.6295
▁윈	-10.6297
▁명성	-10.6297
▁행위에	-10.63
▁69	-10.6307
▁거주하	-10.6307
▁공격했다	-10.6308
얼	-10.6309
▁기분	-10.6314
▁지위	-10.6316
▁흔	-10.6316
▁독일인	-10.632
▁돌려	-10.6321
웨	-10.6323
▁달간	-10.6329
▁맡	-10.6331
▁받아들이	-10.6333
▁대통령직	-10.6335
▁구멍	-10.6336
▁갖는	-10.6338
80	-10.6347
▁가해	-10.635
기자	-10.635
리안	-10.6352
▁다루	-10.6354
▁조사할	-10.6355
▁들어간	-10.6357
▁상영	-10.6357
▁건강에	-10.6359
▁취했다	-10.6361
가격	-10.6365
▁뉴햄프셔	-10.6366
▁보도에	-10.6369
▁경매에	-10.6372
욕	-10.6373
▁79	-10.6381
▁브라이언	-10.6382
▁업체들	-10.6386
▁개막	-10.6387
▁고이즈미	-10.6388
▁노트북	-10.6388
▁뉴올리언스	-10.6388
▁두려움	-10.6388
▁심장마비	-10.6388
▁아닙니다	-10.6388
▁압바스	-10.6388
▁최첨단	-10.6388
▁토크쇼	-10.6388
▁스크린	-10.6388
▁온실가스	-10.6388
▁윈도우	-10.6388
▁글로벌	-10.6388
▁부사장	-10.6388
▁이자율	-10.6388
▁가짜	-10.6389
▁경향	-10.6389
▁크레	-10.639
▁1989	-10.639
▁고유가	-10.639
▁관측	-10.6391
▁풍부	-10.6391
▁갈등	-10.6391
▁붙여	-10.6392
▁서양	-10.6392
▁매매	-10.6392
▁핵개발	-10.6393
▁오프라	-10.6395
▁톰슨	-10.6397
▁기증	-10.6397
▁받아왔다	-10.6398
▁무슨	-10.6398
▁발급	-10.6398
▁휴대	-10.6398
▁자동	-10.6398
▁미첼	-10.6398
쪽	-10.6401
▁물체	-10.6402
▁보건부	-10.6403
▁내일	-10.6405
▁파리에서	-10.6406
데이	-10.6406
▁대서양	-10.6406
됐고	-10.6407
▁신화	-10.641
▁스파이	-10.6411
▁남측	-10.6411
▁보조	-10.6414
▁참석하지	-10.6415
▁의상	-10.6424
▁76	-10.6426
▁서서	-10.6428
스티	-10.6429
▁기상청	-10.6432
▁살았	-10.6432
▁문구	-10.6434
▁경사	-10.6434
60	-10.6437
▁러드	-10.6441
▁바꾸	-10.6441
▁확산되고	-10.6441
▁총장	-10.6442
▁펼치	-10.6442
▁점수	-10.6444
▁완료	-10.6446
▁가중	-10.6449
셀	-10.6449
롭	-10.645
▁회장이	-10.6457
팔	-10.6461
투표	-10.6462
▁바위	-10.6465
▁발포	-10.6469
▁말했	-10.647
▁소비자들	-10.6472
▁마이	-10.6479
업계	-10.6485
▁스캔들	-10.6487
▁법정에서	-10.6492
▁제작사	-10.6493
▁국가에	-10.6495
상황	-10.6498
▁모르는	-10.65
▁결정적인	-10.6501
▁무시	-10.6503
▁당해	-10.6505
▁반대로	-10.651
장인	-10.6511
▁중이	-10.6517
달러로	-10.6517
스런	-10.6518
▁공산주의	-10.6523
▁공무원	-10.6524
▁테리	-10.6524
▁입지	-10.6526
측이	-10.6527
정도	-10.6528
▁대대적	-10.6529
소를	-10.6534
▁증상	-10.6537
▁참가자들	-10.6537
▁압	-10.6539
▁원인이	-10.6539
▁국제공항	-10.654
▁파월	-10.6542
렉	-10.655
▁일어났	-10.655
▁부지	-10.6551
▁사용자들	-10.6554
▁하에	-10.6559
▁명백	-10.6559
럴	-10.656
▁반지	-10.657
▁햄	-10.6571
▁동성애	-10.6579
▁베리	-10.6591
▁정기적	-10.6591
▁77	-10.6599
▁보인	-10.6599
▁에베레스트	-10.6613
▁그렇다	-10.6615
▁도요타	-10.6615
▁로드리게스	-10.6615
▁믿을	-10.6615
▁브래드	-10.6615
▁이브라힘	-10.6615
▁펼친	-10.6615
▁플루토늄	-10.6615
▁허드슨	-10.6615
▁요원들	-10.6615
▁아마디네자드	-10.6615
▁인터폴	-10.6615
▁작업이	-10.6615
▁빅토리아	-10.6615
▁터널	-10.6615
▁의약품	-10.6615
▁우간다	-10.6616
▁무덤	-10.6616
▁금융위기	-10.6616
▁평화유지군	-10.6617
▁소매	-10.6617
▁들어갈	-10.6618
▁예약	-10.6619
▁채취	-10.6619
▁이루어진	-10.662
▁언론과	-10.662
▁간에	-10.662
▁구름	-10.662
▁완성	-10.662
▁비서실장	-10.6621
▁남부에	-10.6621
▁해적들	-10.6621
▁노리	-10.6621
▁이용한	-10.6622
▁사진이	-10.6622
▁유통	-10.6622
▁파키스탄군	-10.6622
▁배제	-10.6623
▁구류	-10.6624
▁포터	-10.6624
▁고위급	-10.6625
▁양쪽	-10.6626
▁발발	-10.6628
▁모자	-10.6629
군이	-10.663
▁출입	-10.6631
▁군사력	-10.6634
러스	-10.6634
▁벌여	-10.6634
▁서안	-10.6636
▁미국으로	-10.6637
▁뿐이다	-10.6637
▁해체	-10.6637
▁준비하고	-10.6638
▁따뜻	-10.6639
▁양보	-10.6639
▁경비대	-10.6641
장의	-10.6641
▁경쟁력	-10.6641
▁빠졌다	-10.6642
▁시사	-10.6644
▁경로	-10.6644
▁임대	-10.6646
▁논	-10.665
▁선거법	-10.6654
▁정치인들	-10.6655
▁선수로	-10.6657
▁코치	-10.6662
▁향한	-10.667
▁체포됐	-10.6676
▁미래에	-10.6679
▁너무나	-10.6681
▁사면	-10.6684
폰	-10.6686
▁기본적	-10.6687
필	-10.6688
콜	-10.6695
값	-10.6695
킬로미터	-10.6696
했었	-10.6696
▁나타내는	-10.67
▁표준	-10.67
▁목격했다	-10.6706
▁뉴욕시	-10.6712
▁시인했다	-10.6713
▁연구에서	-10.6715
▁넘기	-10.6736
▁유지하	-10.6736
▁불어	-10.6737
째	-10.6748
련	-10.6748
▁궤도	-10.6755
▁폴리	-10.6759
▁멤버	-10.677
▁변호	-10.6772
관련	-10.6773
▁일대	-10.6774
차량	-10.6775
전에서	-10.6779
▁파키스탄에서	-10.6785
겼	-10.6788
▁인권단체	-10.6796
▁달한다	-10.6798
니까	-10.6806
▁맞고	-10.6816
▁은행에	-10.6821
▁다이	-10.6826
▁착수했다	-10.6834
▁야생동물	-10.6837
▁나눴다	-10.6847
▁망원경	-10.6847
▁성추행	-10.6847
▁스타벅스	-10.6847
▁시나리오	-10.6847
▁자르다리	-10.6847
▁최우선	-10.6847
▁확률	-10.6847
▁무승부	-10.6847
▁삭감	-10.6847
▁수류탄	-10.6847
▁적합한	-10.6847
▁해수면	-10.6847
▁맥캔	-10.6848
▁에드워드	-10.6848
▁이후에	-10.6848
▁활발	-10.6848
▁남자아이	-10.6848
▁긴밀	-10.6848
▁교외	-10.6849
▁머레이	-10.6849
▁연례	-10.6849
▁외환	-10.685
▁물고기	-10.685
▁송금	-10.6851
▁하원의장	-10.6851
연패	-10.6852
▁밀려	-10.6852
▁묻는	-10.6854
▁포스트	-10.6855
▁열심	-10.6855
▁해저	-10.6862
▁선임	-10.6863
▁당부했다	-10.6865
▁증	-10.687
▁위하여	-10.6874
▁저질렀다	-10.6874
▁맡았다	-10.6876
▁차질	-10.6876
▁주연	-10.6877
▁사라졌다	-10.6878
▁인터넷에	-10.6879
▁총통	-10.688
육	-10.6883
시위	-10.689
▁목록	-10.6894
▁우세	-10.6898
진다	-10.6904
▁제공했다	-10.6905
▁탈북자	-10.6906
▁상세	-10.6908
행사	-10.691
기술	-10.6911
어서	-10.6918
▁멀	-10.692
▁화가	-10.6922
▁개인적으로	-10.6923
▁게릴라	-10.6926
헤	-10.6926
▁중심지	-10.6927
▁부검	-10.6928
충	-10.693
짐	-10.6931
벽	-10.6932
켈	-10.6933
▁생각해	-10.6936
▁가리	-10.6943
▁위험성	-10.6946
▁사실에	-10.6954
사와	-10.6955
공사	-10.6959
▁기분이	-10.697
▁상륙	-10.697
▁찾지	-10.6972
▁출연했다	-10.6977
▁파운드	-10.6979
▁행동에	-10.698
▁자라	-10.6981
▁성공한	-10.6982
▁센	-10.6986
▁압수	-10.6986
▁공룡	-10.699
▁분야에서	-10.6992
▁크다	-10.6994
▁가방	-10.6996
▁의존	-10.7
▁일어나는	-10.7001
▁수행할	-10.7001
▁방문해	-10.7001
▁힘들다	-10.7002
▁탈레반이	-10.7007
▁브로	-10.7009
▁대로	-10.701
▁일으키	-10.7018
▁이름으로	-10.7018
▁방콕	-10.7021
▁몰려	-10.7022
▁남아있는	-10.7026
▁새롭	-10.7026
▁검문소	-10.7027
▁패스	-10.7029
▁만족	-10.7033
▁방송에	-10.7033
▁묵	-10.7034
▁암시	-10.704
▁매력	-10.7041
네스	-10.7043
▁발휘	-10.7045
▁출생	-10.7048
▁인정하지	-10.7049
▁제작자	-10.7049
▁물러나	-10.705
바이	-10.7051
▁장관과	-10.7056
념	-10.7056
▁성당	-10.7058
▁기적	-10.7061
퇴	-10.7068
▁진전이	-10.707
▁종교적	-10.7079
▁등장	-10.7079
점이	-10.7079
16	-10.7081
▁뛰	-10.7081
▁활동에	-10.7082
둥	-10.7083
▁아라비아	-10.7086
▁높게	-10.7086
▁똑같	-10.7086
▁메드베데프	-10.7086
▁서브프라임	-10.7086
▁아웅산수치	-10.7086
▁유죄판결	-10.7086
▁출구조사	-10.7086
▁국립공원	-10.7086
▁남아프리카	-10.7086
▁포셋	-10.7086
▁1987	-10.7087
▁증강	-10.7087
▁체류	-10.7088
▁단독	-10.7088
▁타밀	-10.7088
▁카를로스	-10.7088
▁추격	-10.7088
▁연구결과	-10.7089
▁복원	-10.7089
▁환율	-10.7089
▁사용된	-10.709
▁등에	-10.709
▁심판	-10.7093
▁부처	-10.7095
▁중앙은행	-10.7097
▁수색작업	-10.7097
▁부품	-10.7098
▁의견이	-10.7098
▁카리	-10.71
▁선고했다	-10.7105
▁제시한	-10.7106
▁재활용	-10.7107
▁딘	-10.7107
세이	-10.7108
▁체포되었다	-10.7112
▁루니	-10.7112
▁방송에서	-10.7112
▁미성년자	-10.7113
▁미리	-10.7113
▁도디	-10.7113
▁수면	-10.7115
▁여러번	-10.7117
▁맡았	-10.7117
▁이득	-10.7118
▁막아	-10.7119
▁산하	-10.7121
▁연행	-10.7124
회담	-10.7128
▁가난한	-10.7128
▁공정한	-10.7132
▁대리인	-10.7134
▁약화	-10.7135
▁상업	-10.7137
▁업적	-10.714
▁도구	-10.7142
▁건물에	-10.7145
▁웨인	-10.7147
▁상당수	-10.716
▁결심	-10.7162
▁석방됐다	-10.7164
▁홍	-10.7167
▁육	-10.717
폐	-10.7171
▁궁	-10.7174
과정	-10.7178
▁기아	-10.7181
▁신장	-10.7183
감독	-10.7184
▁토대	-10.7184
▁하이	-10.7188
▁도착할	-10.719
▁플라	-10.7191
▁관객	-10.7194
▁이슈	-10.7195
▁다르	-10.7197
▁생기	-10.7198
▁열었다	-10.7198
버렸다	-10.7199
윈	-10.72
▁위원장이	-10.7202
▁소행성	-10.7207
어진	-10.7212
▁관객들	-10.7221
년전	-10.7221
▁축	-10.7223
▁일원	-10.7223
▁판결이	-10.7224
국은	-10.7226
▁영국과	-10.7227
내용	-10.7227
▁쓰	-10.7229
▁상황이다	-10.723
▁재정적	-10.7237
▁출두	-10.7242
결과	-10.7245
▁존경	-10.7245
▁안으로	-10.7249
키로	-10.7252
▁강진이	-10.7253
▁지구에	-10.7256
▁크리스티	-10.7258
▁승	-10.7258
▁남성들	-10.7277
트라	-10.7285
라데	-10.7287
▁출신으로	-10.7298
▁받아들여	-10.7301
▁일하고	-10.7301
▁응답	-10.7305
사회	-10.7311
치는	-10.7313
▁초에	-10.7313
▁셰	-10.7317
▁블루	-10.732
▁은행들	-10.732
되자	-10.7323
징	-10.7324
▁국가비상사태	-10.7329
▁먹고	-10.7329
▁선거관리위원회	-10.7329
▁앞섰다	-10.7329
▁하이브리드	-10.7329
▁주유소	-10.7329
▁섹시	-10.7329
▁윈프리	-10.733
▁자전거	-10.733
▁교착	-10.733
▁최루탄	-10.733
▁부양책	-10.733
▁유괴	-10.733
▁권총	-10.733
▁바꿀	-10.733
▁급습	-10.7331
▁돌아갈	-10.7331
▁이뤄질	-10.7331
▁설계	-10.7332
▁앨런	-10.7332
▁켈리	-10.7332
▁추모	-10.7333
▁재배치	-10.7333
▁데리고	-10.7334
▁맞이	-10.7335
널리	-10.7335
▁통행	-10.7335
▁보증	-10.7338
▁줄이기	-10.7339
▁개체수	-10.734
▁사과했다	-10.734
▁던진	-10.734
▁출장	-10.7341
▁여파	-10.7342
▁서브	-10.7343
▁윌슨	-10.7343
▁소년이	-10.7344
▁피난	-10.7345
▁전형적	-10.7347
▁85	-10.7349
▁도난	-10.735
▁우즈	-10.7352
▁바뀌	-10.7353
▁상승했습니다	-10.7353
▁않았습니다	-10.7355
▁도살	-10.7356
▁해석	-10.7357
▁지역인	-10.7359
▁디자이너	-10.7364
▁메리	-10.7366
▁발견됐	-10.7369
▁드레스	-10.7372
검사	-10.7373
▁공개하지	-10.7375
▁거부한	-10.7376
▁반전	-10.7377
혈	-10.7385
▁전격	-10.7385
▁남아있다	-10.7385
▁외상	-10.7387
▁얻게	-10.739
▁국회에서	-10.7393
▁턱	-10.7395
▁권고했다	-10.7396
▁명백한	-10.7396
▁사라지	-10.7399
▁김치	-10.7399
뉴	-10.7402
▁피하기	-10.7407
▁양자	-10.7409
▁분석했다	-10.7417
칭	-10.7418
▁고안	-10.7419
원들이	-10.742
빙	-10.7422
엄	-10.7425
▁떠난	-10.7426
홀	-10.7428
걸	-10.7429
▁공주	-10.743
▁발견되지	-10.7432
▁휴일	-10.7434
▁거리에서	-10.7444
수술	-10.7445
▁수감된	-10.7445
▁판매량	-10.7446
▁이라크내	-10.7449
▁사안	-10.7449
▁방법에	-10.745
▁바르	-10.745
▁간주	-10.7455
▁준다	-10.7457
47	-10.7473
▁두려워	-10.7474
▁열리	-10.7477
▁석	-10.7482
나무	-10.7482
국으로	-10.7483
겼다	-10.7496
▁차지하는	-10.7497
▁쪽	-10.7497
▁제치	-10.7501
▁모아	-10.7502
44	-10.7502
▁조언	-10.7504
▁테러리스트들	-10.7507
▁출신인	-10.7516
데스	-10.7525
▁의원들이	-10.7532
▁서쪽	-10.7532
▁공격한	-10.7538
▁범	-10.7539
▁모두에게	-10.7554
▁동영상에서	-10.7554
▁네바다	-10.7568
지원	-10.7572
▁상관	-10.7572
룰	-10.7576
훈	-10.7578
▁이씨	-10.7579
▁데이비스	-10.7579
▁럼스펠드	-10.7579
▁맨해튼	-10.7579
▁무렵	-10.7579
▁바티칸	-10.7579
▁호나우두	-10.7579
▁깨끗	-10.7579
▁스탈린	-10.7579
▁퇴진	-10.758
▁국무총리	-10.758
▁언덕	-10.758
▁요즘	-10.758
▁행렬	-10.758
▁시티그룹	-10.758
▁아스날	-10.758
▁동참	-10.758
▁좌석	-10.758
▁왜곡	-10.7581
▁자발적	-10.7581
▁만능	-10.7581
▁국민투표	-10.7581
▁보조금	-10.7581
▁절약	-10.7581
▁독감	-10.7582
▁존스턴	-10.7582
▁자동차업계	-10.7582
▁창설	-10.7583
▁불안정	-10.7583
▁가끔	-10.7584
▁역임	-10.7584
▁모집	-10.7585
▁위생	-10.7586
▁혼자	-10.7589
▁1950	-10.7591
▁도청	-10.7592
로우	-10.7594
▁피랍된	-10.7594
▁합의문	-10.7595
▁금리를	-10.7595
리그	-10.7596
▁부속	-10.7596
▁시골	-10.7597
혼	-10.7597
▁수컷	-10.7598
▁판다	-10.7599
▁남성의	-10.76
됐는지	-10.7601
▁지원금	-10.7602
▁담고	-10.7602
▁후임	-10.7602
▁퀸	-10.7608
▁눈물	-10.7609
▁포트	-10.761
▁화장	-10.761
▁유럽과	-10.761
▁꽃	-10.7612
▁유물	-10.7615
▁호주에서	-10.7617
▁상병	-10.7619
▁출전하지	-10.7622
연승	-10.7627
▁매수	-10.7631
▁원장	-10.7632
▁공개한	-10.7634
▁경주	-10.7636
▁젊은이들	-10.7636
▁전사	-10.7637
▁발매	-10.7642
▁테러범들	-10.7642
▁불가능하다	-10.7642
▁돌아와	-10.7642
심한	-10.7661
▁아는	-10.7663
▁지나가	-10.7667
롤	-10.7668
▁아프간에	-10.7668
▁67	-10.7677
▁현상이	-10.7678
▁본드	-10.7681
짓	-10.7683
▁병력이	-10.7683
서비스	-10.7687
▁변화에	-10.769
▁취하고	-10.7692
▁학생들에게	-10.7693
▁준장	-10.7695
리고	-10.7695
분야	-10.7696
▁유해	-10.7697
▁그랜드	-10.7705
린다	-10.771
국인	-10.7716
▁세운	-10.7724
▁갔	-10.7728
▁피랍	-10.7729
구가	-10.7732
▁행동이	-10.7736
▁영화에서	-10.7737
▁참가한	-10.7738
스타인	-10.7741
▁섭취	-10.7746
▁고조되	-10.7747
▁광부	-10.7752
디아	-10.7753
▁수여	-10.7756
▁펼쳐	-10.7758
▁간부	-10.7759
▁서식하	-10.776
▁지방에서	-10.7761
▁연대	-10.7764
▁회사에	-10.7764
장으로	-10.7777
지우	-10.7791
▁군과	-10.7795
▁의제	-10.7804
노조	-10.7808
▁유인	-10.781
▁단장	-10.7812
▁남겨	-10.7818
▁밴	-10.7824
▁봉	-10.7826
▁전쟁이	-10.7826
▁용납	-10.7828
넨	-10.7829
보기	-10.783
용으로	-10.7831
렐	-10.7833
▁가즈프롬	-10.7836
▁내무장관	-10.7836
▁디트로이트	-10.7836
▁마이스페이스	-10.7836
▁억만장자	-10.7836
▁유람선	-10.7836
▁음주운전	-10.7836
▁인명피해	-10.7836
▁저렴	-10.7836
▁창기라이	-10.7836
▁러닝메이트	-10.7836
▁후지모리	-10.7836
▁라호르	-10.7836
▁코카인	-10.7836
▁가져올	-10.7836
▁국방위원장	-10.7836
▁아빠	-10.7836
▁돌아올	-10.7836
▁미셸	-10.7836
▁워렌	-10.7837
▁산맥	-10.7837
▁치매	-10.7839
▁클라크	-10.7839
▁매입	-10.7841
▁연방정부	-10.7841
▁로켓포	-10.7842
▁부결	-10.7842
▁의심되는	-10.7843
▁참배	-10.7843
▁파커	-10.7843
▁시민권	-10.7846
▁구조작업	-10.785
▁인공	-10.7853
▁실패한	-10.7854
분경	-10.7857
스케	-10.7859
장에	-10.786
▁해방	-10.7861
▁침대	-10.7862
▁걸렸다	-10.7863
▁던졌다	-10.7863
▁않습니다	-10.7863
▁돌아왔다	-10.7869
호가	-10.787
▁투표율	-10.7871
▁일단	-10.7872
▁하비	-10.7873
▁호텔에	-10.7873
▁자치	-10.7875
▁빌리	-10.7875
▁덜	-10.7877
▁납치한	-10.7877
▁해안에	-10.788
▁이스라엘에	-10.7884
▁진행될	-10.7887
▁평화상	-10.7891
▁강간	-10.7892
▁계속할	-10.7893
▁불과하다	-10.7896
▁민주당이	-10.7897
다며	-10.7899
어질	-10.7899
▁틀	-10.7901
혔다	-10.7903
▁업무를	-10.7904
▁믿는다	-10.7908
▁상자	-10.7911
▁전용	-10.7914
▁진행중	-10.7914
▁개성	-10.7914
▁실현	-10.7915
▁종이	-10.7915
200	-10.7916
600	-10.7917
농	-10.7917
▁출	-10.7919
▁재고	-10.7931
▁북부에서	-10.7936
스크	-10.7937
▁남학생	-10.794
협상	-10.7943
▁파크	-10.7944
▁유기	-10.7948
▁웨이	-10.7949
▁클린턴과	-10.795
▁가르	-10.7956
▁맞은	-10.7961
▁예정이었	-10.7963
▁교도소에서	-10.7969
구역	-10.798
8000	-10.7984
▁시작됐	-10.7985
▁상사	-10.7985
▁찾아내	-10.7987
▁그들에게	-10.7988
▁벌어지	-10.7998
화된	-10.8004
▁정기	-10.8004
▁별도	-10.8005
▁장교	-10.8005
▁해왔다	-10.8011
▁달러가	-10.8013
▁위협하	-10.8014
▁품목	-10.8017
▁로드	-10.8017
식이	-10.8023
더스	-10.8023
▁이슬라마바드	-10.8024
버리	-10.8032
어스	-10.8035
▁사살했다	-10.8036
▁베어	-10.8038
▁고조	-10.804
▁싸	-10.8043
▁경우에	-10.8045
▁아기들	-10.8046
▁급증	-10.8057
스테	-10.8059
소한	-10.8061
84	-10.8066
▁풍	-10.8066
▁비극	-10.807
▁잃었	-10.8073
▁가즈니	-10.8074
▁결정이	-10.8075
▁아시아에서	-10.8082
▁처음에	-10.8083
▁원하지	-10.8085
▁뉴저지	-10.8087
▁이들에게	-10.8087
▁위치해	-10.8092
핑	-10.8094
냥	-10.8095
▁금메달	-10.8099
▁1986	-10.8099
▁갤런	-10.8099
▁박격포	-10.8099
▁엘리베이터	-10.8099
껏	-10.8099
▁라모스	-10.8099
▁북극곰	-10.8099
▁돌아다니	-10.8099
▁알제리	-10.8099
▁피츠버그	-10.8099
▁고등법원	-10.8099
▁남아프리카공화국	-10.8099
▁떠오르	-10.8099
▁포획	-10.81
▁결합	-10.8101
▁석방된	-10.8102
▁처형	-10.8102
▁진료	-10.8102
▁마찰	-10.8103
▁선택했다	-10.8105
▁받으	-10.8106
▁설정	-10.8107
사이	-10.8108
▁던져	-10.8108
▁예선	-10.8109
▁다가오	-10.811
▁배포	-10.8111
▁사이버	-10.8112
▁코피	-10.8113
▁상금	-10.8114
▁반등	-10.8114
▁시카고에서	-10.8117
▁포경선	-10.8119
▁외국인들	-10.8119
▁분야에	-10.812
담당	-10.812
▁미라	-10.812
▁사회당	-10.8121
▁거친	-10.8123
▁넣었다	-10.8127
▁사라진	-10.8128
▁소유주	-10.8128
대사	-10.8129
▁쉬운	-10.813
▁찾았다	-10.8131
▁것이기	-10.8132
▁전체가	-10.8136
▁맞았다	-10.8138
▁제공하기	-10.8141
▁전시회	-10.8142
야드	-10.8142
▁먼지	-10.8143
▁치를	-10.8146
▁열기	-10.8147
▁정리	-10.8147
률이	-10.8149
▁조선	-10.815
▁대비해	-10.8153
무라	-10.8153
안토니오	-10.8155
▁기원	-10.8156
▁혼	-10.8159
둘	-10.8159
▁중점	-10.8159
▁독재자	-10.8159
▁성분	-10.816
였고	-10.817
스카	-10.8186
▁날아	-10.8186
▁나치	-10.8186
▁표시했다	-10.8188
▁그곳에서	-10.8188
병원	-10.819
파운드	-10.8197
▁확인하기	-10.8202
▁헌	-10.8205
끼	-10.8205
멜	-10.8211
킹	-10.8213
폴	-10.8217
콘	-10.8217
▁정부군과	-10.8224
신문	-10.8228
3000	-10.8228
▁걸려	-10.8231
▁월스트리트	-10.8231
▁남쪽	-10.8236
▁흥미	-10.8238
▁대선에	-10.8239
▁보유한	-10.8241
▁전하고	-10.8244
▁민간인들	-10.8252
▁이른	-10.8253
▁약속한	-10.8254
업자들	-10.8255
▁바지	-10.8255
▁유지할	-10.8262
▁통보	-10.8265
시장에서	-10.8265
▁하여	-10.8266
▁프랑스에서	-10.8268
▁서한	-10.8276
▁축출	-10.8277
▁목적이	-10.8281
▁연말	-10.8282
▁대원들	-10.8288
웠	-10.8288
▁코스	-10.8289
▁기각	-10.8291
자리	-10.8296
돼있다	-10.8299
▁만났	-10.831
▁날이	-10.8311
▁시청자들	-10.8313
▁변호인	-10.8315
▁장소에서	-10.8319
▁당황	-10.8319
성에	-10.8325
▁수사에	-10.8325
▁억제	-10.8331
▁직장	-10.8332
▁수요일에	-10.8336
▁내지	-10.8337
이라면	-10.8339
▁벗	-10.8341
▁위장	-10.8342
버트	-10.8342
▁위협에	-10.8342
년형	-10.8348
▁에티오피아	-10.8349
▁즐기는	-10.8351
▁풀어	-10.8352
▁소비자들이	-10.8353
▁장기적	-10.8354
▁입어	-10.8355
▁차지한	-10.8359
▁소유한	-10.836
속도로	-10.8364
▁빼앗	-10.8365
▁동료들	-10.8366
▁피고인	-10.8366
▁휩쓸	-10.8367
▁오스카	-10.8367
▁굉장	-10.8369
▁버냉키	-10.8369
▁브루니	-10.8369
▁시애틀	-10.8369
▁해수욕장	-10.8369
▁그린피스	-10.8369
▁애완동물	-10.8369
▁넬슨	-10.8369
▁브레이크	-10.837
▁스콧	-10.837
▁동굴	-10.837
▁무소속	-10.837
▁슈퍼볼	-10.837
▁밝혀냈다	-10.837
▁오늘밤	-10.8371
▁낭비	-10.8371
▁흘러	-10.8371
▁장벽	-10.8371
▁불황	-10.8371
▁병사들이	-10.8372
▁좌파	-10.8372
▁절감	-10.8372
▁외쳤다	-10.8372
▁정밀	-10.8373
▁돌아온	-10.8373
▁난민들	-10.8373
▁생명체	-10.8373
▁위축	-10.8374
▁다행히	-10.8374
▁치른	-10.8374
▁밀러	-10.8374
▁승점	-10.8374
▁교내	-10.8374
▁금속	-10.8375
▁창조	-10.8375
▁반환	-10.8375
▁보수당	-10.8377
▁유골	-10.8377
▁추천	-10.8377
▁한달	-10.8377
▁매출	-10.8378
▁휴식	-10.8378
▁기념식	-10.838
▁펄	-10.838
▁환수	-10.838
▁경찰청	-10.8382
▁헐	-10.8384
▁느낀다	-10.8384
▁아민	-10.8387
▁김씨	-10.8388
▁미셀	-10.8388
▁제보	-10.8388
▁알라	-10.8388
▁쳐	-10.8389
▁낮아	-10.8391
▁우승자	-10.8392
▁라울	-10.8395
▁소화	-10.8395
▁중상	-10.8397
▁케이시	-10.8399
▁구단	-10.8402
▁받아들이지	-10.8403
▁클린턴에	-10.8405
▁화제	-10.8406
200709	-10.8406
▁파편	-10.8407
균	-10.8407
▁써	-10.8409
▁출연해	-10.8409
▁극적	-10.8413
▁버지니아주	-10.8414
▁원치	-10.8415
대와	-10.8416
▁캔	-10.8417
▁참여했다	-10.8418
▁근처에	-10.8418
▁남쪽으로	-10.842
▁이어졌다	-10.842
▁8000	-10.8422
▁공안	-10.8423
▁인도분	-10.8423
▁좋아한다	-10.8432
▁지지자들에게	-10.8435
▁거래됐다	-10.8438
▁투명	-10.8438
▁통해서	-10.8438
▁롤	-10.844
▁대안	-10.8445
▁살아남	-10.8446
해달라	-10.8446
때까지	-10.8452
편의	-10.8452
▁과제	-10.8454
▁78	-10.8455
▁착용하	-10.8457
시티	-10.8457
▁예측했다	-10.8463
시에서	-10.8464
▁국경지역	-10.847
▁언급한	-10.8481
▁복장	-10.8488
▁강타한	-10.8489
규모	-10.8494
▁당일	-10.8497
▁러시아와	-10.8499
▁내리는	-10.85
타운	-10.85
▁명단에	-10.8501
▁재해	-10.8503
구조	-10.8505
▁탄도	-10.8507
베르	-10.8507
▁중심가	-10.8508
▁입수한	-10.8508
31	-10.8514
▁폭로	-10.8528
세계	-10.8529
▁성명서	-10.8533
▁방문에	-10.8534
▁취소했다	-10.8534
▁리오	-10.8536
▁원주민	-10.854
▁확인되	-10.8541
▁폭력사태로	-10.8542
▁들었	-10.8543
▁최고위	-10.8543
▁배심원	-10.855
▁경비원	-10.8554
▁이라크인	-10.8556
▁안나	-10.8557
텐	-10.8557
▁밝히기	-10.8558
▁법적으로	-10.8561
▁청구	-10.8565
줬다	-10.8566
▁되었	-10.8567
▁활동이	-10.8567
▁목요일에	-10.8569
룸	-10.8577
▁계속하고	-10.8577
▁군중	-10.8577
▁81	-10.8579
▁상원에서	-10.8583
룬	-10.8585
▁활성화	-10.8588
연대	-10.8595
▁민주적	-10.861
▁좌절	-10.8613
▁당의	-10.8614
▁일어나지	-10.8616
켜	-10.8624
같이	-10.8626
46	-10.8627
▁전쟁에서	-10.8633
▁일시적	-10.8637
▁신원이	-10.864
21	-10.8641
벨트	-10.8642
▁카르	-10.8643
▁친환경	-10.8644
▁티벳	-10.8645
▁처방	-10.8647
▁근무하	-10.8647
▁규칙	-10.8647
▁기준금리	-10.8647
▁듣지	-10.8647
▁슬픔	-10.8647
▁엉덩이	-10.8647
▁최고경영자	-10.8647
▁텔레비전	-10.8647
▁트라볼타	-10.8647
▁헬리콥터	-10.8647
▁호날두	-10.8647
넌	-10.8647
▁유수프	-10.8647
▁침묵	-10.8647
▁대한민국	-10.8647
▁스튜디오	-10.8647
▁카지노	-10.8647
▁바바라	-10.8647
▁휴스턴	-10.8647
▁멸종위기	-10.8647
▁신용카드	-10.8648
▁놀랄	-10.8648
▁숨겨	-10.8648
▁모험	-10.8648
▁대선주자	-10.8648
소리	-10.8648
▁바하마	-10.8649
▁부위	-10.8649
▁요르단강	-10.8649
▁회계	-10.865
▁도핑	-10.865
▁레이저	-10.865
▁텐트	-10.865
▁반체제	-10.865
▁소총	-10.865
▁구호품	-10.8651
▁구호단체	-10.8652
▁금융시장	-10.8653
되었는데	-10.8654
▁가택	-10.8654
▁탐사선	-10.8655
▁입력	-10.8657
쟁	-10.8657
▁부상자들	-10.8657
▁네바다주	-10.8659
▁개설	-10.8661
▁쓰는	-10.8662
▁약탈	-10.8662
국장	-10.8662
▁1200	-10.8664
▁지나치	-10.8664
▁인터	-10.8668
▁헬	-10.8668
▁역대	-10.8668
85	-10.867
▁졸업	-10.867
라드	-10.8674
▁폴슨	-10.8674
▁첫날	-10.8674
▁조씨	-10.8675
▁끝났다	-10.8676
▁여야	-10.8676
▁이르기	-10.868
▁복지	-10.8681
▁중단됐다	-10.8681
▁편집	-10.8685
▁개발한	-10.8685
▁약품	-10.8686
▁여기서	-10.8687
에르	-10.8694
▁유명하다	-10.8694
▁세부	-10.8703
▁참가하	-10.8705
▁못하다	-10.871
▁느끼는	-10.8712
▁선적	-10.8716
▁피어	-10.8717
▁가족들에게	-10.8719
▁처분	-10.872
▁탈레반과	-10.872
▁결함	-10.8722
▁대테러	-10.8724
▁밝히며	-10.8726
▁절도	-10.8729
▁이른다	-10.8731
▁바닥에	-10.8734
▁투기	-10.8741
의원	-10.8742
▁시작될	-10.8744
▁재선	-10.8747
▁농민	-10.8747
▁군중들	-10.8747
하에	-10.8751
▁전합니다	-10.8756
▁개발에	-10.8756
▁총리직	-10.8757
▁조직원	-10.8762
황	-10.8763
인치	-10.8765
▁과정에	-10.8767
▁자녀들	-10.8773
▁취하지	-10.8777
덕	-10.8779
▁국가인	-10.8782
착륙	-10.8783
벤	-10.8784
▁금액	-10.8784
▁중계	-10.8784
▁선박이	-10.8793
▁86	-10.8794
▁탐험	-10.8795
▁말에	-10.8795
▁개최된	-10.8802
▁움직임이	-10.8807
▁집회에	-10.8809
▁알려	-10.8811
03	-10.8811
▁언	-10.8811
▁보좌관들	-10.8815
▁투자자	-10.8821
▁구간	-10.8823
총리	-10.8831
▁선출된	-10.8836
▁연구가	-10.8839
▁돌입	-10.8844
▁무시하	-10.8847
▁들어와	-10.8849
▁주말에	-10.8852
▁종식	-10.8856
▁다수의	-10.8863
▁형태로	-10.8863
▁자카르타	-10.8865
원인	-10.8866
26	-10.887
▁단행	-10.8872
럼	-10.8874
▁달러로	-10.8884
▁프로그램이	-10.8885
▁급락	-10.889
▁멈추	-10.8891
▁추락한	-10.8896
▁효율적	-10.891
▁모으	-10.8911
▁할지	-10.8912
▁돈이	-10.8913
▁주소	-10.8916
▁선원들	-10.8916
▁탈락	-10.8918
▁파일	-10.8921
▁구제금융	-10.8924
▁골드	-10.8926
▁음료	-10.8926
디스	-10.893
스에서	-10.893
▁알바니아	-10.8931
▁세속주의	-10.8931
콤	-10.8932
▁머리카락	-10.8933
▁산타클로스	-10.8933
▁애니메이션	-10.8933
▁애틀랜타	-10.8933
▁원자바오	-10.8933
▁칸다하르	-10.8933
▁황우석	-10.8933
▁맥케인	-10.8933
▁히드로	-10.8933
▁마사지	-10.8933
▁적응	-10.8934
▁몸값	-10.8934
▁기획	-10.8934
▁논문	-10.8935
▁집필	-10.8935
▁남녀	-10.8935
▁1988	-10.8936
▁군사작전	-10.8936
▁출국	-10.8937
▁마침	-10.8937
▁대폭	-10.8938
▁새겨	-10.8938
치료	-10.8938
▁때문입니다	-10.8939
▁장거리	-10.8939
▁모래	-10.894
▁대령	-10.8941
▁소유권	-10.8942
▁대표들	-10.8943
▁신병	-10.8943
▁나와즈	-10.8945
▁불교	-10.8945
▁다이애나비	-10.8948
▁인민	-10.8949
▁모았다	-10.895
200707	-10.8951
▁받아들였다	-10.8953
▁주주들	-10.8953
▁예선전	-10.8954
▁칼라	-10.8954
▁자정	-10.8955
▁프레	-10.8955
▁입원했다	-10.8955
▁권위	-10.8955
▁여아	-10.8956
▁알렌	-10.8957
▁남성과	-10.8957
▁안내	-10.8958
▁예정되어	-10.8959
200708	-10.8959
▁관점에서	-10.8964
▁상관없	-10.8966
▁장기간	-10.8967
▁참사	-10.8967
▁조치로	-10.8968
▁대우	-10.897
주기	-10.897
▁중반	-10.897
9000	-10.8973
▁아미	-10.8973
▁가자지구에서	-10.8974
▁태우고	-10.8978
▁차원에서	-10.898
▁틸	-10.8986
▁200712	-10.8986
▁1800	-10.8988
▁하더라	-10.8989
▁인도주의적	-10.8995
▁바람이	-10.8995
▁클로	-10.8999
▁강화할	-10.9001
▁없애	-10.9006
▁발달	-10.9008
▁데비	-10.9008
▁제외하고	-10.9011
슬리	-10.9017
▁레이더	-10.9018
▁확신했다	-10.902
상으로	-10.902
▁대통령으로	-10.9026
▁회수	-10.9026
받은	-10.9027
▁특별히	-10.903
▁증언했다	-10.903
▁멜	-10.9032
안보	-10.9033
▁파키스탄에	-10.9034
▁회원들	-10.9034
▁그곳에	-10.9037
▁예술가	-10.904
코프	-10.9041
▁결승전	-10.9042
▁170	-10.9042
▁제트	-10.9042
▁괴한	-10.9045
▁공무원들	-10.9049
하러	-10.9061
궁	-10.9061
▁주권	-10.9063
▁확인된	-10.9064
95	-10.9068
▁중심부	-10.9068
웅	-10.907
▁통신사	-10.9071
정인	-10.9073
▁대회에	-10.9076
칼	-10.9077
▁작용	-10.9079
시즌	-10.908
▁이송됐다	-10.9081
▁한다면	-10.9083
▁프라	-10.9084
▁조국	-10.9097
18	-10.9098
▁대답했다	-10.9099
▁부리	-10.9101
▁거부하	-10.9103
▁판결에	-10.9105
▁어린이들이	-10.9106
▁내용에	-10.911
▁내리고	-10.9113
사업	-10.9114
▁기울이	-10.9114
▁엘리	-10.9116
▁평양에서	-10.9117
▁요청한	-10.9119
▁분쟁이	-10.9122
치고	-10.9125
돼있	-10.9126
▁일으키는	-10.9132
▁강화하고	-10.9132
▁줬다	-10.9133
교육	-10.9133
▁말이	-10.914
▁명령했다	-10.9141
▁정치적으로	-10.9157
▁살이	-10.9158
천명	-10.9158
라인	-10.9159
▁일기	-10.9163
군의	-10.9166
혔	-10.9169
▁내게	-10.9171
▁교전이	-10.9186
▁제작된	-10.919
▁금년	-10.9191
주전	-10.9193
▁얻었	-10.9193
현정	-10.9195
▁금연	-10.9196
▁선장	-10.9196
▁열렸	-10.9198
▁피살	-10.92
▁남기	-10.9201
▁인정받	-10.9201
▁재활	-10.9201
▁실업	-10.9205
▁필립	-10.9206
▁이슬람교	-10.9207
시경	-10.9208
사이트	-10.9208
▁강행	-10.9211
▁89	-10.9215
탁	-10.9217
▁세탁	-10.9221
▁제이	-10.9221
▁끊임없	-10.9227
▁떨어질	-10.9227
▁마케팅	-10.9227
▁뮌헨	-10.9227
▁베어스턴스	-10.9227
▁베탕쿠르	-10.9227
▁부적절	-10.9227
▁브리트니	-10.9227
▁비즈니스	-10.9227
▁썼다	-10.9227
▁아칸소	-10.9227
▁에르도간	-10.9227
▁오케스트라	-10.9227
▁타협	-10.9227
▁테러지원국	-10.9227
▁캔자스	-10.9227
▁크레이그	-10.9227
▁되돌아	-10.9227
▁브루스	-10.9227
▁맥도날드	-10.9227
200602	-10.9227
▁소탕작전	-10.9227
▁고릴라	-10.9228
▁감바	-10.9228
▁영광	-10.9229
▁개념	-10.9229
▁종합	-10.923
▁가죽	-10.923
▁버튼	-10.923
▁조짐	-10.923
▁적자	-10.9231
▁타결	-10.9231
▁영감	-10.9232
▁평소	-10.9234
▁서약	-10.9234
▁복수	-10.9237
▁갖기	-10.9237
▁들어온	-10.9237
▁편안	-10.9239
▁식수	-10.9241
부가	-10.9241
▁풀려났다	-10.9242
▁파문	-10.9242
▁연방준비제도이사회	-10.9243
▁가져다	-10.9245
▁공조	-10.9246
▁하락했습니다	-10.9247
▁여유	-10.9247
▁입구	-10.9248
▁킨	-10.9249
▁갈라	-10.925
▁적십자사	-10.9251
▁하산	-10.9251
▁조절	-10.9252
군은	-10.9252
▁버전	-10.9253
단은	-10.9253
▁겪었다	-10.9254
▁유용	-10.9255
▁포위	-10.9255
▁200811	-10.9258
▁세관	-10.9258
▁잡았다	-10.9259
▁미치지	-10.9259
▁사회에	-10.9259
▁클라	-10.926
▁앞선	-10.926
▁느꼈다	-10.9261
▁슛	-10.9261
▁여단	-10.9261
▁앙	-10.9266
▁줄이는	-10.9267
▁면접	-10.927
▁녹화	-10.9272
곳에서	-10.9275
▁인도네시아에서	-10.9279
▁청년	-10.928
마르	-10.9281
▁오바마에	-10.9284
▁장악하	-10.9289
▁성지	-10.9291
200605	-10.9293
▁붕괴된	-10.9294
▁지원하기	-10.9295
▁세기	-10.9302
▁건수	-10.931
▁보호하고	-10.931
▁시위자	-10.9312
▁나아가	-10.9313
▁경제학자들	-10.9315
▁도주	-10.9325
냈	-10.9327
▁싶어한다	-10.9328
▁심사	-10.9329
▁적극	-10.933
▁명시	-10.9337
▁유지하기	-10.9337
▁논의했다	-10.9339
▁행사에서	-10.9344
▁추락했다	-10.9346
▁중심에	-10.9346
▁말하면서	-10.9349
▁기술자	-10.935
77	-10.9351
▁손자	-10.9356
▁안전에	-10.9357
느	-10.9361
▁재판에	-10.9363
당했다	-10.9365
▁재판이	-10.9365
▁파파라치	-10.9366
▁국회에	-10.9367
▁프랑스와	-10.9373
얀	-10.9375
▁파손됐다	-10.9376
▁생산하는	-10.9376
▁오리	-10.9377
홍	-10.9379
캐	-10.9381
▁주차	-10.9381
▁사임했다	-10.9382
세트에서	-10.9393
▁덧붙	-10.9394
▁여사와	-10.9397
▁클	-10.9398
▁힐튼이	-10.9398
▁제공하고	-10.9399
▁죽었다	-10.94
▁관광지	-10.9404
▁05	-10.9414
권이	-10.9417
▁초래	-10.9417
▁쏟아	-10.9421
▁방문객들	-10.9422
▁자금이	-10.9422
▁소속의	-10.9422
량의	-10.9426
▁오픈에서	-10.9434
▁내고	-10.9435
시까지	-10.9438
24	-10.9445
▁과격	-10.9446
▁바닥	-10.9449
▁물었다	-10.945
45	-10.9452
워드	-10.9453
▁입학	-10.9454
듯이	-10.9455
▁전체에	-10.946
▁공판	-10.9463
▁독재	-10.9463
▁동맹국들	-10.9468
▁높아	-10.9472
69	-10.9474
▁하도록	-10.9475
▁가기	-10.9477
▁점이	-10.9477
▁이적	-10.9481
▁벌어졌	-10.9481
100	-10.9484
▁신도	-10.9485
▁사람과	-10.9486
▁줄리	-10.9489
▁나타났	-10.9493
▁가족에게	-10.9495
▁부르는	-10.9496
▁요청할	-10.9496
▁기술이	-10.9499
▁인접	-10.95
나갈	-10.9501
▁자랑	-10.9509
▁액	-10.9512
달간	-10.9512
▁기리	-10.9516
자르	-10.9518
▁연출	-10.9519
▁오클라호마	-10.952
렘	-10.9522
▁득표	-10.9529
▁개최되	-10.9529
딜	-10.953
겔	-10.953
눌	-10.953
▁골든글로브	-10.953
▁구호물품	-10.953
▁뉴욕타임스	-10.953
▁동유럽	-10.953
▁에스토니아	-10.953
▁유니세프	-10.953
▁일으켜	-10.953
▁좋게	-10.953
▁티셔츠	-10.953
▁항생제	-10.953
렁	-10.953
▁유조선	-10.953
▁다운로드	-10.953
▁첩보	-10.953
▁니케이	-10.953
▁페이스북	-10.953
▁덕분에	-10.953
▁착취	-10.953
▁혈액	-10.953
▁크로커	-10.953
▁바꿔	-10.9531
▁출범	-10.9531
▁요새	-10.9531
▁양키스	-10.9531
▁운반	-10.9531
▁대략	-10.9531
▁패리스	-10.9532
▁저택	-10.9532
▁굿	-10.9532
▁폭등	-10.9533
▁명칭	-10.9533
▁근교	-10.9533
▁현지경찰	-10.9534
▁역설	-10.9534
▁어두운	-10.9534
▁풍선	-10.9535
▁복권	-10.9535
▁분실	-10.9538
▁유적지	-10.9538
▁볼튼	-10.954
▁거둔	-10.954
▁반박했다	-10.9541
▁상반기	-10.9541
▁지낸	-10.9541
▁설문	-10.9541
▁엘바	-10.9541
▁쏘	-10.9542
▁친척	-10.9543
▁소란	-10.9543
▁지도자들과	-10.9544
▁영원	-10.9546
▁추산했다	-10.9548
▁부유	-10.9549
▁제프리	-10.9549
▁뒤집	-10.955
해준	-10.9551
▁세이	-10.9551
▁타이어	-10.9552
▁보도한	-10.9552
▁조속	-10.9552
▁350	-10.9556
▁사용하기	-10.9556
▁트레	-10.9558
▁상의	-10.9558
▁묘지	-10.9559
▁이끌었	-10.956
▁주류	-10.9561
▁예상보다	-10.9561
브라	-10.9562
받고	-10.9562
▁안된다	-10.9563
▁지구에서	-10.9563
▁채권	-10.9564
▁나체	-10.9568
▁74	-10.9568
▁시계	-10.9569
기위해	-10.957
▁실어	-10.9571
48	-10.9572
▁장악	-10.9574
▁끄	-10.9574
▁주장했지만	-10.9576
▁양성	-10.9576
▁미술	-10.9578
▁줄여	-10.9578
▁중령	-10.958
▁투표할	-10.9589
▁모르겠다	-10.959
유로	-10.9595
▁지수가	-10.9598
▁전망이	-10.9599
후보	-10.9601
▁중국인	-10.9605
▁과시	-10.9611
▁비만	-10.9615
▁프레드	-10.9616
▁제일	-10.9617
▁증인	-10.9618
▁보내기	-10.9621
▁사랑하는	-10.9622
59	-10.9623
▁모스	-10.963
▁사제	-10.9631
▁검토하	-10.9634
400	-10.9635
느냐	-10.9636
하겠	-10.9638
▁몽	-10.9645
▁교육부	-10.9653
▁기자들이	-10.9654
택	-10.9656
▁장착	-10.9657
조원	-10.966
참	-10.966
▁칼리	-10.9669
▁보낸다	-10.9673
▁과장	-10.9674
▁국회의원들	-10.9681
▁설치된	-10.9683
생활	-10.9684
좌	-10.9685
롱	-10.9688
협정	-10.9691
▁서울에	-10.9694
앤	-10.9694
▁아시	-10.9695
▁남자들	-10.9699
200610	-10.9702
▁정보국	-10.9704
▁부문에서	-10.9709
▁번지	-10.9711
14	-10.9719
▁사진들	-10.9719
선거	-10.9726
우드	-10.9727
▁올리고	-10.9727
▁등급	-10.9729
▁환경에	-10.973
▁180	-10.9734
▁사용한다	-10.9741
▁나타난	-10.9744
▁생존자들	-10.9748
카르	-10.9749
▁있었기	-10.9756
베리	-10.976
▁클레	-10.9763
▁의장이	-10.9772
▁죽이	-10.9774
▁비교해	-10.9778
▁우주인	-10.978
▁이해할	-10.9781
받아	-10.9785
▁직면	-10.9785
▁노력에	-10.979
13	-10.9794
부분	-10.98
▁아바	-10.9805
▁전략적	-10.9808
▁나섰	-10.9815
어져	-10.9816
▁사육	-10.9817
▁전설	-10.9818
주가	-10.9821
27	-10.9825
▁디스	-10.9826
널	-10.9827
▁참석해	-10.9832
▁표결	-10.9834
꾼	-10.9835
▁농민들	-10.9836
▁피닉스	-10.9836
▁실무	-10.9838
▁잇따	-10.9838
왈	-10.9839
▁모터	-10.984
▁보호하는	-10.9842
▁물러	-10.9842
밍	-10.9842
▁걷는	-10.9842
▁국회의사당	-10.9842
▁로스앤젤레스	-10.9842
▁베이루트	-10.9842
▁불렀다	-10.9842
▁야스쿠니	-10.9842
▁연방수사국	-10.9842
▁크로아티아	-10.9842
▁포괄적	-10.9842
▁흰색	-10.9842
▁되풀이	-10.9842
▁마라도나	-10.9842
▁셰이크	-10.9842
▁미시간	-10.9842
▁린제이	-10.9843
▁교과서	-10.9843
▁모바일	-10.9843
▁잔혹	-10.9843
▁취득	-10.9843
▁진흙	-10.9843
▁여자아이	-10.9843
▁정해지지	-10.9843
▁흐름	-10.9843
▁칭찬	-10.9843
▁세인트	-10.9843
▁닉슨	-10.9844
▁호킹	-10.9844
0	-10.9844
▁가속화	-10.9844
▁연극	-10.9844
▁워너	-10.9844
▁마을에	-10.9844
▁스카이	-10.9845
▁점프하	-10.9845
▁평화협상	-10.9845
▁자신에	-10.9845
▁미소	-10.9846
원으로	-10.9846
▁2011	-10.9847
▁병역	-10.9848
▁식물	-10.9848
▁유행	-10.9848
▁회부	-10.9848
▁추출	-10.9848
▁뚫	-10.9848
▁아이돌	-10.9849
▁학위	-10.9849
▁기습	-10.9849
▁관리자	-10.9851
▁현행	-10.9851
▁극단주의자들	-10.9851
42	-10.9851
▁정교	-10.9853
학과	-10.9854
▁전대통령	-10.9856
▁지연되	-10.986
잡	-10.986
▁연임	-10.9861
▁되었습니다	-10.9862
▁동전	-10.9863
▁호화	-10.9863
▁줄이고	-10.9864
04	-10.9864
▁가축	-10.9866
▁가자지구에	-10.9867
▁감시단	-10.9867
▁격리	-10.9868
▁인계	-10.9869
▁기권	-10.987
▁참여하지	-10.9871
학생	-10.9872
점에	-10.9873
▁있으	-10.9874
▁뉴욕에	-10.9874
▁정오	-10.9874
▁1600	-10.9875
▁추정했다	-10.9875
▁소방관	-10.9876
200606	-10.9878
▁렌	-10.9878
▁머리에	-10.988
▁우리베	-10.9881
▁불화	-10.9882
▁고수	-10.9884
▁자크	-10.989
▁이룩	-10.989
▁서명했다	-10.9891
▁반미	-10.9891
▁테러단체	-10.9892
게임	-10.9893
▁실력	-10.9893
▁성공회	-10.9893
▁진출했다	-10.9894
▁2008060	-10.9894
▁거주지	-10.9898
▁시달리고	-10.9899
▁지방의	-10.99
▁단식	-10.9903
만년	-10.9909
명인	-10.9909
대회	-10.9915
▁드립니다	-10.9918
▁스텔	-10.9924
▁닐	-10.9927
▁휘	-10.9929
▁확보했다	-10.9929
▁가고	-10.9935
▁선정됐다	-10.9935
▁해명	-10.9936
▁확실하지	-10.9938
▁바다로	-10.9939
▁차가	-10.9939
▁착용	-10.9941
▁이어질	-10.9944
▁위협했다	-10.9946
▁납	-10.9946
려진	-10.9947
▁수용할	-10.9953
▁광부들	-10.9961
르게	-10.9962
▁그라운드	-10.9966
▁전범	-10.9966
▁승자	-10.9967
▁라인	-10.9974
▁정신과	-10.9974
▁수치다	-10.9975
▁끝나는	-10.9977
▁단계에	-10.9978
▁불평	-10.9981
▁해외에서	-10.9991
▁옹호	-10.9995
▁문자	-10.9996
▁취급	-10.9998
버릴	-10.9999
▁청소	-11.0001
▁것들	-11.0003
▁의원들에게	-11.0003
▁인기가	-11.0005
▁특이	-11.001
버린	-11.0012
▁동영상에	-11.0016
개혁	-11.0025
구의	-11.0027
▁때로	-11.0028
라면	-11.0029
▁참가했다	-11.003
▁비가	-11.004
▁아내와	-11.005
작업	-11.005
▁본국	-11.0058
▁리버	-11.0064
▁열정	-11.0065
살이	-11.0071
타임	-11.0073
▁새해	-11.0076
▁중단하고	-11.0077
▁어머니와	-11.0085
첼	-11.0087
▁학생들과	-11.0088
리어	-11.0088
구간	-11.0089
▁경영자	-11.0089
▁파손되	-11.0095
▁부장	-11.0096
▁기간에	-11.0099
▁국무장관이	-11.0099
이기도	-11.01
▁지니	-11.0101
▁선언한	-11.0105
▁참석하기	-11.0107
▁혼란에	-11.0109
▁사무	-11.0109
▁이뤄	-11.0117
▁당국과	-11.012
▁국민이	-11.012
▁정부에서	-11.0122
선에	-11.0126
▁패한	-11.0126
▁비행기에	-11.0133
억달러에	-11.0139
▁인정하	-11.014
▁인명	-11.0141
▁꾸	-11.0143
▁900	-11.0143
▁선거전	-11.0146
▁남편과	-11.0147
카드	-11.0147
▁루이지애나	-11.0153
여부	-11.0158
▁결의안에	-11.016
▁지지도	-11.0161
만명에	-11.0163
▁광우병	-11.0165
▁당나귀	-11.0165
▁대주교	-11.0165
▁매머드	-11.0165
▁무너져	-11.0165
▁브리티시	-11.0165
▁싶은	-11.0165
▁이르렀다	-11.0165
▁집무실	-11.0165
▁카자흐스탄	-11.0165
▁제니퍼	-11.0165
▁예언자	-11.0165
▁국가주석	-11.0165
▁글래스고	-11.0165
▁세비야	-11.0165
마누엘	-11.0165
▁지중해	-11.0165
▁영부인	-11.0165
▁중산층	-11.0165
▁퇴치	-11.0165
▁효력	-11.0165
▁모로코	-11.0165
▁김선일	-11.0165
▁맞붙	-11.0166
▁쇼핑몰	-11.0166
▁둘째	-11.0166
▁연휴	-11.0166
▁농담	-11.0166
▁레논	-11.0166
▁아마존	-11.0166
▁높아졌다	-11.0166
▁왕복선	-11.0166
▁공군기지	-11.0166
▁취약	-11.0167
▁유혈	-11.0167
▁몰래	-11.0167
▁허블	-11.0167
▁같습니다	-11.0167
▁1981	-11.0167
▁선데이	-11.0168
▁할아버지	-11.0168
▁밤새	-11.0168
▁종양	-11.0171
▁공백	-11.0171
▁예배	-11.0173
▁감량	-11.0173
▁천문학자들	-11.0173
▁폐기물	-11.0173
▁기름	-11.0173
▁우연	-11.0174
▁제패	-11.0175
▁계열사	-11.0175
▁주가가	-11.0175
▁참여하는	-11.0176
▁지역이	-11.0176
▁코너	-11.0176
▁이례적	-11.0176
▁사법부	-11.0177
▁난동	-11.0177
▁정체	-11.0177
▁부른	-11.0178
리오	-11.0178
▁비준	-11.0179
▁알려주	-11.0182
▁페르	-11.0182
▁지속될	-11.0182
▁강연	-11.0184
▁감원	-11.0184
▁재발	-11.0185
▁소식입니다	-11.0186
▁기소했다	-11.0186
▁남미	-11.0187
▁가결	-11.0187
명에서	-11.0189
▁공학	-11.0191
▁정상회의	-11.0192
▁방치	-11.0193
▁부통령이	-11.0194
▁있었는지	-11.0195
▁넣어	-11.0199
▁전송	-11.0199
▁원자력	-11.0202
▁페리	-11.0203
▁내정자	-11.0203
▁나란	-11.0204
▁광대	-11.0204
▁책정	-11.0207
▁아이티	-11.0208
▁채우	-11.0209
▁전례	-11.0209
200705	-11.0209
▁한쪽	-11.021
▁살아가	-11.0213
▁상위	-11.0216
▁에스	-11.0217
▁지키기	-11.022
▁제안한	-11.0223
▁비난한	-11.0227
▁리서치	-11.0227
▁가정에	-11.0228
▁라이프	-11.0229
▁구상	-11.0235
▁통일	-11.0236
▁조사하기	-11.0237
▁노스	-11.0237
▁200901	-11.0238
▁시작되었다	-11.0244
▁발리	-11.0245
▁요구에	-11.0253
▁돌리	-11.026
▁연기했다	-11.0266
▁아프	-11.0268
▁추구	-11.0269
▁주교	-11.028
▁걸었다	-11.0281
학년	-11.0284
▁취임한	-11.0286
▁상원의원에	-11.0288
▁떼	-11.0292
▁생성	-11.0293
▁포기했다	-11.0295
▁공세	-11.0297
▁당했	-11.03
번에	-11.03
▁제공해	-11.0303
▁안되	-11.0304
▁모스크바에서	-11.0305
▁연이	-11.0306
▁공격수	-11.0306
▁무장대원들	-11.0306
▁증진	-11.0313
▁시점에서	-11.0314
회에서	-11.0318
28	-11.0323
커스	-11.0326
▁탈출했다	-11.0326
▁총선에	-11.0328
닉	-11.0335
▁가서	-11.0343
▁출전한	-11.0344
▁수락	-11.0349
김	-11.035
▁염려	-11.0356
▁재무	-11.0358
▁싸우	-11.036
▁수비	-11.0362
▁공정	-11.0364
▁가져	-11.0366
▁구하기	-11.037
▁들어가는	-11.0375
롬	-11.0378
▁조사단	-11.038
▁총격으로	-11.038
▁꺼	-11.0385
05	-11.0399
▁일고	-11.04
▁장성	-11.0401
800	-11.0403
▁미만	-11.0407
▁금지하고	-11.0408
▁수십억	-11.0408
▁판결했다	-11.0411
▁의혹에	-11.0413
▁느낌	-11.0413
▁노동부	-11.0413
▁독일에서	-11.0413
지구	-11.0415
▁모술	-11.0421
▁주인이	-11.0422
▁단기	-11.0426
▁추정하	-11.0427
▁착	-11.0433
▁뉴델리	-11.0435
▁인도에서	-11.0436
▁측에서	-11.0437
▁성경	-11.0441
▁산책	-11.0445
▁시작되는	-11.0456
부를	-11.0457
▁불가피	-11.0468
▁경기도	-11.047
▁안드레	-11.0471
▁오해	-11.0472
▁측면	-11.0475
▁위스콘신	-11.0478
▁하버드	-11.048
▁국정원	-11.048
▁켄터키	-11.0481
인데	-11.0484
▁제공한다	-11.0485
퀴	-11.0487
▁플래	-11.0489
▁메릴랜드	-11.0491
▁고려해	-11.0491
법안	-11.0491
▁관리인	-11.0494
섭	-11.0495
▁대기업	-11.0496
▁뉴캐슬	-11.0498
▁도널드	-11.0498
▁벤자민	-11.0498
▁상파울루	-11.0498
▁세계보건기구	-11.0498
▁슈워제네거	-11.0498
▁스튜어트	-11.0498
▁오키나와	-11.0498
▁우주정거장	-11.0498
▁잃지	-11.0498
▁촛불	-11.0498
▁클루니	-11.0498
▁그루지아	-11.0498
▁수하르토	-11.0498
▁몸무게	-11.0498
▁무너진	-11.0498
▁부작용	-11.0498
▁피아노	-11.0498
▁닥터	-11.0498
▁자서전	-11.0498
▁퇴장	-11.0498
▁불쾌	-11.0499
▁침투	-11.0499
▁여배우	-11.0499
▁트로피	-11.0499
▁타이완	-11.0499
▁양육권	-11.05
▁지뢰	-11.05
▁조셉	-11.05
▁두뇌	-11.05
▁쿠르드족	-11.05
▁인디아나	-11.0502
▁연방법원	-11.0502
▁아끼	-11.0502
▁해킹	-11.0503
▁국가안보	-11.0503
▁토양	-11.0503
▁언제든	-11.0504
▁수비수	-11.0504
▁피닉스호	-11.0505
▁임박	-11.0506
자회담에	-11.0506
▁정보기관	-11.0506
▁토론토	-11.0507
▁약혼	-11.0507
▁지닌	-11.0508
▁조종	-11.0509
▁승객들이	-11.0509
▁댄	-11.0509
▁차림	-11.0511
▁닭	-11.0511
▁후퇴	-11.0511
▁필리스	-11.0512
▁밀어	-11.0512
▁구단주	-11.0514
▁구경	-11.0515
▁문신	-11.0515
▁군복	-11.0515
바로	-11.0516
▁교량	-11.0516
▁일축했다	-11.0517
▁기초	-11.0518
▁활기	-11.0518
▁버진	-11.0519
부문	-11.052
▁구형	-11.052
▁요트	-11.0521
▁신도들	-11.0522
▁우드	-11.0522
▁감면	-11.0525
▁팜	-11.0526
▁런던에	-11.0527
위원	-11.053
▁시설에	-11.0532
▁협상단	-11.0535
▁비방	-11.0536
▁듀	-11.0546
▁모리	-11.0547
▁자선	-11.0547
▁발부	-11.0548
▁시작해	-11.0548
▁선고받	-11.0549
▁나가는	-11.0551
▁면적	-11.0551
▁범죄에	-11.0552
▁만나기	-11.0553
▁산소	-11.0554
▁그럼	-11.0561
부의	-11.0565
▁끈	-11.0573
▁숨기	-11.0577
▁확실하다	-11.0577
▁시스템이	-11.0578
▁수만명	-11.0581
▁시장과	-11.0584
▁사회주의	-11.0584
▁부장관	-11.0585
지오	-11.0586
▁국회의	-11.0587
▁향했다	-11.0592
▁모의	-11.0596
제품	-11.0597
▁알았다	-11.0598
▁비평	-11.06
일째	-11.0604
▁이베이	-11.0611
▁고무	-11.0613
▁경제의	-11.0615
▁파악하	-11.062
시켜야	-11.0621
▁아이들과	-11.0627
▁추진하고	-11.0628
▁과학적	-11.0628
▁벌어지고	-11.0629
▁기반으로	-11.0632
▁신문에	-11.0633
▁군부대	-11.0637
▁표현했다	-11.0638
▁했을	-11.0641
▁하트	-11.0649
▁밝혀내	-11.0649
▁도시로	-11.065
▁관계자들과	-11.0653
▁포함된다	-11.0657
▁수행하	-11.0663
▁관중	-11.0667
▁모욕	-11.0669
▁만료	-11.0673
▁났다	-11.0684
답	-11.0684
쓰	-11.0684
▁강진	-11.0688
맥	-11.0689
솔	-11.069
200608	-11.0691
▁부상당	-11.0692
▁물리치	-11.0692
공화국	-11.0693
▁내장	-11.0694
힘	-11.0694
연구	-11.0695
페이지	-11.0695
만으로	-11.0699
▁제품에	-11.07
능	-11.0708
29	-11.0708
▁사이트에	-11.0712
▁벽에	-11.0713
▁손님	-11.0715
▁카라	-11.0716
▁기다려	-11.0719
200806	-11.0725
▁경찰서에	-11.0729
머리	-11.0734
▁미치	-11.0735
두고	-11.0739
▁주자	-11.0749
▁787	-11.0755
사고	-11.0756
▁110	-11.0759
▁감옥	-11.0761
달라	-11.0766
보고	-11.0767
세에	-11.0767
▁시간에	-11.0773
이었고	-11.0779
▁일상적	-11.078
▁펭귄	-11.0781
▁도시에	-11.0784
▁기후변화	-11.079
▁아이들에게	-11.0792
▁내년에	-11.0793
▁유대	-11.0793
체제	-11.0799
▁염	-11.08
▁중에서	-11.08
▁전파	-11.0803
스틴	-11.0804
▁산악	-11.0808
▁지냈	-11.0809
▁들리	-11.081
▁보호할	-11.0812
▁풍경	-11.0815
▁후보들이	-11.0818
▁펜실베니아	-11.082
점에서	-11.0823
▁말하지	-11.0825
▁그때	-11.0826
렌스	-11.0828
49	-11.0829
▁매사추세츠	-11.0834
효	-11.0835
▁홈페이지에	-11.0836
있었다	-11.0841
튜	-11.0841
▁모니터	-11.0843
▁치솟	-11.0843
팩	-11.0843
▁인정한	-11.0843
▁냄새	-11.0843
▁마흐무드	-11.0843
▁매코맥	-11.0843
▁맥코맥	-11.0843
▁미드필더	-11.0843
▁박테리아	-11.0843
▁뱅크	-11.0843
▁블룸버그	-11.0843
▁스피처	-11.0843
▁악영향	-11.0843
▁알자와히리	-11.0843
▁암스트롱	-11.0843
▁오징어	-11.0843
▁이스탄불	-11.0843
▁종신형	-11.0843
▁캠벨	-11.0843
▁커뮤니티	-11.0843
▁케르비엘	-11.0843
▁프로듀서	-11.0843
▁그루지야	-11.0843
▁바쿠바	-11.0843
▁재정경제부	-11.0843
▁친선경기	-11.0843
▁흥행	-11.0843
▁깃발	-11.0843
▁동계올림픽	-11.0843
▁안락사	-11.0843
▁도덕적	-11.0843
▁방사능	-11.0843
▁아스널	-11.0843
▁침착	-11.0843
▁중서부	-11.0843
▁무하메드	-11.0843
▁속옷	-11.0844
▁아담	-11.0844
▁유럽축구연맹	-11.0844
▁계곡	-11.0844
▁투데이	-11.0844
▁면밀	-11.0844
▁생겨	-11.0845
▁환경보호	-11.0845
▁대피령	-11.0845
▁아닐	-11.0845
▁요격	-11.0845
▁반대한다	-11.0846
▁불안감	-11.0847
▁몸집	-11.0848
▁재벌	-11.0848
▁맹세	-11.0848
▁품질	-11.0848
▁일방적	-11.0849
▁총알	-11.0849
▁만찬	-11.0849
▁소령	-11.0849
▁피셔	-11.0849
▁화석	-11.0849
▁유예	-11.0849
▁무산	-11.0849
▁적대적	-11.085
▁도망	-11.085
▁진행됐다	-11.085
▁교토	-11.085
▁외교관계	-11.085
▁존드로	-11.0851
▁곡물	-11.0851
▁참전	-11.0851
▁원격	-11.0852
▁지침	-11.0852
▁성행위	-11.0853
▁09	-11.0855
▁배제하지	-11.0855
▁아랍에미리트	-11.0856
▁보도합니다	-11.0857
▁정통	-11.0857
몬드	-11.0858
▁시범	-11.0859
▁사원에서	-11.086
▁크리스티나	-11.0861
▁아카데미상	-11.0862
▁동성	-11.0864
▁장려	-11.0866
▁산악지역	-11.0866
▁가르치	-11.0867
▁필립스	-11.0868
▁남아있	-11.0868
▁운하	-11.0869
▁것이냐	-11.0869
▁혼다	-11.087
▁결의	-11.087
▁제트기	-11.0871
▁개조	-11.0871
▁붐	-11.0872
자회담에서	-11.0873
▁가난	-11.0876
▁지표	-11.0877
▁남았다	-11.0877
▁신의	-11.0879
▁리타	-11.0882
▁구제안	-11.0883
▁대학살	-11.0886
▁지문	-11.0887
▁지속된	-11.0888
장과	-11.0889
▁탔다	-11.0892
세에서	-11.0896
▁상아	-11.0905
▁단서	-11.0905
▁드는	-11.0909
▁생겼다	-11.091
▁캐리	-11.0912
▁장악한	-11.0912
▁재배	-11.0917
▁확인하는	-11.0921
천억	-11.0921
▁부진	-11.0922
▁아프가니스탄에	-11.0924
▁란	-11.0924
▁감옥에	-11.0928
▁시위대와	-11.0929
▁포기하지	-11.093
▁문제점	-11.0931
▁팬들에게	-11.0933
▁집안	-11.0937
나라	-11.0939
▁말로	-11.0941
▁정책이	-11.0942
▁임원	-11.0943
▁충	-11.0944
58	-11.0946
▁춤	-11.0951
▁강조하고	-11.0951
▁환영했다	-11.0955
▁명에	-11.0963
통이	-11.0967
▁통로	-11.0969
중이다	-11.097
프리	-11.097
▁급진	-11.0972
▁말했지만	-11.098
▁발견되	-11.0981
▁주장이	-11.0982
요원	-11.0983
▁미친	-11.0994
▁조치에	-11.0997
▁금지하는	-11.1001
▁헤이	-11.1001
▁반군과	-11.1002
▁측에	-11.1005
▁임명된	-11.1007
▁125	-11.101
▁돌보	-11.1018
▁실직	-11.1022
▁로라	-11.1025
▁공원에서	-11.1029
▁얻는	-11.1029
▁칭	-11.103
투어	-11.1031
롭게	-11.1036
▁목격한	-11.1037
▁관료	-11.104
▁걸려있	-11.1041
▁취소됐다	-11.1047
빛	-11.1049
▁폰	-11.105
▁기한	-11.1054
▁반대했다	-11.1062
조정	-11.1065
▁미군측	-11.1067
▁미하	-11.1068
▁브라	-11.1078
동물	-11.1082
▁이브	-11.1089
▁동일	-11.1091
▁92	-11.1092
▁광장에	-11.1096
▁봤	-11.1103
▁부근에	-11.1104
▁듯한	-11.1108
▁장소로	-11.111
자료	-11.1112
▁면에서	-11.1112
겠습니다	-11.1113
▁움직임에	-11.1121
▁국제우주정거장	-11.1122
▁릭	-11.1122
▁일할	-11.1124
▁지역이다	-11.1127
▁후보에게	-11.1127
▁경제와	-11.113
71	-11.1133
▁국왕이	-11.1133
▁정당이	-11.1135
▁일으켰	-11.1136
▁기숙사	-11.1138
09	-11.1141
▁사무실에서	-11.1151
▁오렌지	-11.1152
죄로	-11.1155
▁신고했다	-11.1157
▁콩	-11.1158
▁법정에	-11.116
200612	-11.1161
세스	-11.1168
기금	-11.1168
일정	-11.1171
▁연령	-11.1172
▁하는데	-11.1173
▁호송	-11.1175
레이크	-11.1176
▁배급	-11.1178
▁저가	-11.118
▁얼음이	-11.1184
▁주지사와	-11.1184
▁건물에서	-11.1185
▁스탠	-11.119
▁환호	-11.1191
만여	-11.1192
픈	-11.1194
▁식민지	-11.1198
틱	-11.12
▁구스마오	-11.12
▁김계관	-11.12
▁냉동	-11.12
▁놀랐다	-11.12
▁뉴멕시코	-11.12
▁돕고	-11.12
▁만장일치	-11.12
▁메사추세츠	-11.12
▁모하마드	-11.12
▁사형집행	-11.12
▁세실리아	-11.12
▁승용차	-11.12
▁실업수당	-11.12
▁애틀란타	-11.12
▁최상	-11.12
▁캠퍼스	-11.12
▁캥거루	-11.12
▁크누트	-11.12
▁클리블랜드	-11.12
▁탈라바니	-11.12
▁펼칠	-11.12
▁피추시킨	-11.12
▁1953	-11.12
▁북동쪽	-11.12
▁비영리	-11.12
▁캐롤	-11.12
▁퍼트레이어스	-11.12
▁호르몬	-11.12
▁월드시리즈	-11.12
▁8226	-11.1201
▁미망인	-11.1201
▁러셀	-11.1201
▁공략	-11.1201
▁염두	-11.1201
▁노왁	-11.1201
▁태양열	-11.1202
▁유입	-11.1202
▁무엇인지	-11.1202
▁격추	-11.1202
▁멈	-11.1202
▁완공	-11.1202
▁밀림	-11.1203
▁국영방송	-11.1203
▁감추	-11.1203
▁사마라	-11.1203
▁건립	-11.1203
▁페리노	-11.1203
▁외교정책	-11.1203
▁간섭	-11.1203
▁방북	-11.1203
▁제이미	-11.1204
▁세균	-11.1204
▁교황청	-11.1205
▁탄약	-11.1205
▁보상금	-11.1205
▁행방	-11.1205
▁주치의	-11.1205
▁야심	-11.1206
▁제라드	-11.1206
▁발목	-11.1206
▁타입	-11.1207
▁구타	-11.1208
▁안겨	-11.1208
▁교회에서	-11.1209
▁왔습니다	-11.1209
▁검찰총장	-11.121
▁폭풍우	-11.1211
▁악성	-11.1212
▁중단하라	-11.1213
▁북서쪽	-11.1213
▁용서	-11.1214
▁번영	-11.1214
▁종파	-11.1215
▁같았다	-11.1216
▁대피소	-11.1217
▁유포	-11.1218
▁닷	-11.1218
▁가능하	-11.1218
▁펠리	-11.1219
▁터미널	-11.122
▁안심	-11.1223
졌습니다	-11.1225
▁1400	-11.1225
▁납치범들	-11.1226
바리	-11.1227
▁순찰대	-11.1228
▁하려	-11.1228
▁물어	-11.1228
▁주당	-11.1231
베스	-11.1231
▁200710	-11.1234
▁상원의원직	-11.1234
▁기내	-11.1234
▁공개되지	-11.1237
▁지났	-11.1238
닛	-11.1239
해진다	-11.1239
비오	-11.1242
▁대도시	-11.1244
▁유아	-11.1245
▁메달	-11.1248
▁비극적	-11.1248
200607	-11.125
▁속한	-11.1251
▁자리잡고	-11.1256
레즈	-11.1258
▁갖는다	-11.1258
▁빈민가	-11.1263
▁흐르	-11.1263
▁확인해	-11.1269
▁무장괴한	-11.1272
▁안건	-11.1272
▁하나이다	-11.1275
▁딜러	-11.1277
▁전달한	-11.1278
▁지질	-11.128
▁칩	-11.128
▁아버지와	-11.1283
▁연관된	-11.1284
관계자	-11.1285
▁살해하겠다	-11.1288
디어	-11.1297
▁만들었	-11.1298
오르	-11.1299
▁감독상	-11.13
▁묘	-11.13
▁전반적으로	-11.1302
▁전당	-11.1307
▁떨어지는	-11.1308
200611	-11.1308
▁범죄자들	-11.1312
▁막고	-11.1316
▁보여주기	-11.1316
▁코커스에서	-11.1317
▁93	-11.1319
▁그쳤다	-11.1321
▁당장	-11.1322
▁미트	-11.1328
율이	-11.1331
▁취하	-11.1331
▁환영한다	-11.1333
▁일정이	-11.1334
▁양상	-11.1336
▁관광객들은	-11.1336
▁든다	-11.1337
▁운동가	-11.134
▁만든다	-11.1343
▁둔화	-11.1343
41	-11.1344
▁윤리	-11.1346
종일	-11.1346
▁치고	-11.1347
▁핀	-11.1348
▁중국인들	-11.135
▁들어있는	-11.135
▁업	-11.1351
▁고고학자들	-11.1351
▁제인	-11.1357
▁페이스	-11.1357
▁시작되	-11.1357
▁포착	-11.1357
안전	-11.1372
차이	-11.1375
▁민주당과	-11.1376
▁대변	-11.1379
39	-11.1379
▁기어	-11.138
▁방한	-11.1381
▁지도자로	-11.1382
▁피해지역	-11.1386
▁불안한	-11.1386
▁덕	-11.1394
▁기자들과	-11.14
▁거치	-11.1404
▁흔적	-11.1405
직에서	-11.1409
▁모르고	-11.1412
학회	-11.1415
멘	-11.1416
▁전설적	-11.1417
셰	-11.1418
찌	-11.1419
▁블로그	-11.1419
떼	-11.1419
톨	-11.1419
핀	-11.1419
89	-11.142
▁국민에게	-11.1421
43	-11.1426
등급	-11.1429
▁시판	-11.1429
▁링	-11.143
사람	-11.1435
▁6000	-11.1438
▁시리아와	-11.1446
▁목소리로	-11.1454
▁이라크전에	-11.1455
▁갑작스	-11.1457
장비	-11.1462
▁편집자	-11.1464
▁그레	-11.1464
▁시도한	-11.1465
병력	-11.1468
▁철수시키	-11.1474
▁같	-11.1476
▁다음과	-11.1476
▁오지	-11.1479
▁국가들과	-11.1494
하르	-11.1494
을때	-11.1495
▁열려	-11.1502
▁진행할	-11.1507
▁판매되	-11.1509
▁참가자	-11.1513
▁영국에	-11.1515
▁줄기	-11.1515
문화	-11.1526
▁될지	-11.1528
▁부탁	-11.1529
시기	-11.1531
▁선보	-11.1531
▁고속	-11.1532
▁박탈	-11.1538
▁사업에	-11.1539
▁국세청	-11.1541
▁백악관에	-11.1544
▁미국에서는	-11.155
▁전미	-11.155
▁이루어	-11.1557
▁당연	-11.1559
▁폭격기	-11.156
▁부자	-11.1562
▁최대한	-11.1563
촌	-11.1563
▁델타	-11.1565
▁쇼에	-11.1565
줘	-11.1565
▁콜린	-11.1566
▁도쿄에서	-11.1568
▁화염	-11.157
▁개헌	-11.157
▁머무	-11.157
▁내셔널	-11.157
▁국가보안법	-11.1571
▁넘어섰다	-11.1571
▁댈러스	-11.1571
▁따돌리	-11.1571
▁무책임	-11.1571
▁브로드웨이	-11.1571
▁색깔	-11.1571
▁에탄올	-11.1571
▁여동생	-11.1571
▁올바른	-11.1571
▁웨스트버지니아	-11.1571
▁꿈이	-11.1571
▁초등학교	-11.1571
▁흡수	-11.1571
▁하반기	-11.1571
▁이벤트	-11.1571
▁셔츠	-11.1571
▁도메인	-11.1571
▁하리리	-11.1571
▁습관	-11.1571
▁월마트	-11.1571
▁다뤄	-11.1571
▁앙겔	-11.1571
▁수하물	-11.1571
트로터	-11.1571
▁겁니다	-11.1571
▁예비선거	-11.1571
▁후계자	-11.1571
▁빨간색	-11.1571
▁유혹	-11.1572
▁어휘	-11.1572
▁평결	-11.1572
▁홀랜드	-11.1572
▁구조조정	-11.1572
▁메뉴	-11.1572
▁하얀	-11.1572
▁압승	-11.1572
▁평범	-11.1572
▁열쇠	-11.1572
▁코스피	-11.1572
▁디스커버리호	-11.1573
▁전염병	-11.1573
▁부회장	-11.1573
▁에이미	-11.1573
▁케이	-11.1573
▁보석금	-11.1574
▁삼림	-11.1574
▁결백	-11.1574
▁영입	-11.1574
▁홈런	-11.1574
▁글렌	-11.1574
▁악재	-11.1574
▁이른바	-11.1575
▁초대형	-11.1575
▁제재조치	-11.1575
▁판사들	-11.1575
▁영역	-11.1576
▁분출	-11.1577
▁벌금형	-11.1577
▁머피	-11.1577
▁비평가들	-11.1578
▁데니스	-11.1579
▁자매	-11.158
▁전하며	-11.1581
▁대담	-11.1581
▁독점	-11.1582
▁외출	-11.1583
▁생각합니다	-11.1583
▁자회사	-11.1584
▁담겨있다	-11.1584
▁소감	-11.1585
▁오락	-11.1586
회견에서	-11.1587
▁시술	-11.1587
▁공방	-11.1588
▁실내	-11.1589
▁마련했다	-11.1591
▁걸프	-11.1592
▁국정	-11.1593
▁매트	-11.1593
▁폐쇄했다	-11.1593
▁맞이하	-11.1593
▁어려워	-11.1594
▁늘어났다	-11.1594
▁위법	-11.1594
▁악화될	-11.1594
▁노동력	-11.1594
▁납치됐다	-11.1594
▁리더	-11.1596
▁스위	-11.1599
▁통신과	-11.1603
▁지하드	-11.1604
▁자유당	-11.1604
건물	-11.1604
▁도왔다	-11.1605
▁놓았다	-11.1605
▁불가피하다	-11.1605
▁개발도상국	-11.1607
▁초래할	-11.1609
디오	-11.1612
혐의로	-11.1614
▁후보작	-11.1615
▁조카	-11.1616
▁장착된	-11.1619
▁에디	-11.1622
▁뜨거	-11.1625
▁상태였다	-11.1627
▁정비	-11.1629
▁320	-11.163
300	-11.1631
▁결승에서	-11.1631
11	-11.1632
▁무엇이	-11.1634
▁낙	-11.1634
▁후임자	-11.1634
▁보았다	-11.1635
▁투표권	-11.1638
▁2008061	-11.1647
▁지미	-11.1649
▁입장권	-11.1652
▁일로	-11.1654
▁지목했다	-11.1656
▁관해서	-11.1665
▁입원한	-11.1671
▁암살된	-11.1671
▁수잔	-11.1674
▁영국으로	-11.1676
▁물리	-11.1678
직원	-11.1679
▁올리는	-11.168
공장	-11.1687
▁내로	-11.1688
▁톤	-11.1689
▁톱	-11.1694
▁각료	-11.1694
▁경위	-11.1695
▁위기로	-11.1696
▁허위	-11.1696
▁용인	-11.1697
▁99	-11.1699
▁반복	-11.1703
▁부인과	-11.1705
▁발생했던	-11.1706
▁내리기	-11.1712
▁조사했다	-11.1712
층에	-11.1714
▁반도	-11.1719
▁중유	-11.1721
▁맡아	-11.1724
▁달에	-11.1726
▁고백	-11.1727
▁로한이	-11.1728
▁시도했다	-11.1733
▁인적	-11.1735
▁펼치고	-11.1738
시키지	-11.1739
▁미사	-11.1739
▁웹사이트에서	-11.1742
전쟁	-11.1743
▁납치했다	-11.1744
레나	-11.1745
▁가할	-11.1746
▁알리기	-11.1748
▁여진이	-11.1751
▁많지	-11.1752
▁우주에서	-11.1761
▁괜찮	-11.1762
▁이탈	-11.1764
▁개최지	-11.1773
▁통상	-11.1776
76	-11.1779
났다	-11.1779
▁잃어버	-11.1784
▁북한에서	-11.1785
35	-11.1785
▁주민이	-11.1786
▁시민단체	-11.1786
자들에	-11.1787
임에	-11.1787
▁하겠다	-11.1796
잉	-11.1798
▁피신	-11.1799
굴	-11.18
묘	-11.1803
탑	-11.1804
하우스	-11.1809
▁임신한	-11.1816
증권	-11.182
연구원	-11.1821
노동	-11.1827
▁예상되는	-11.183
▁확인한	-11.183
▁직면한	-11.1832
▁제작자들	-11.1833
▁침팬지	-11.1844
▁고려할	-11.1845
▁차고	-11.1848
▁관심사	-11.1849
▁끝내	-11.1849
▁마련하기	-11.1852
▁무너지	-11.1854
▁복합	-11.1855
다리	-11.1859
▁방문이	-11.186
▁거래가	-11.1864
▁공개할	-11.1864
수준	-11.1864
해져	-11.187
▁페이	-11.1885
▁녹아	-11.1889
▁밀수	-11.189
룩	-11.1896
군과	-11.1897
단이	-11.1899
▁나라에서	-11.1901
▁필수	-11.1902
만달러에	-11.1905
과정에서	-11.1906
▁사진에	-11.1911
았던	-11.1912
발전	-11.1912
▁따뜻하	-11.1915
▁악의	-11.1917
▁루스	-11.192
▁펼쳤	-11.1923
▁올렸	-11.1924
보드	-11.1924
▁다음으로	-11.1927
▁대원	-11.1933
▁정찰	-11.1937
▁범죄자	-11.1939
▁일상	-11.1942
▁체인	-11.1942
▁데뷔	-11.1945
▁차량은	-11.1946
이라도	-11.1947
▁암호	-11.1948
▁계획한	-11.1951
쁜	-11.1951
▁보아	-11.1952
렬	-11.1953
▁시일	-11.1953
쇠	-11.1953
삭	-11.1955
덩	-11.1955
▁과테말라	-11.1955
▁기쁨	-11.1955
▁높였다	-11.1955
▁닌텐도	-11.1955
▁단백질	-11.1955
▁리얼리티	-11.1955
▁마호메트	-11.1955
▁베테랑	-11.1955
▁보건복지부	-11.1955
▁엔데버호	-11.1955
▁엔터테인먼트	-11.1955
▁자메이카	-11.1955
▁저작권	-11.1955
▁정동영	-11.1955
▁조선중앙통신	-11.1955
▁조코비치	-11.1955
▁집행유예	-11.1955
▁최우수	-11.1955
▁추수감사절	-11.1955
▁토마토	-11.1955
▁퍼레이드	-11.1955
▁싱가폴	-11.1955
▁열렬한	-11.1955
▁제네바	-11.1955
▁의구심	-11.1955
▁두개골	-11.1955
▁수족관	-11.1955
▁콜레라	-11.1955
▁태어나	-11.1955
▁뉴욕증시	-11.1955
▁비공개	-11.1955
▁유태인	-11.1955
▁링컨	-11.1955
▁원내대표	-11.1955
▁가볍	-11.1955
▁대지진	-11.1956
▁의료보험	-11.1956
▁신용위기	-11.1956
▁힌두교	-11.1956
▁꾸준	-11.1956
▁검출	-11.1956
▁혼합	-11.1956
▁연합뉴스	-11.1956
▁삼엄	-11.1956
▁티켓	-11.1956
▁배럭	-11.1956
▁코미디언	-11.1957
▁가려	-11.1957
▁워커	-11.1957
▁규명	-11.1957
▁호주오픈	-11.1957
▁설교	-11.1958
▁블록	-11.1958
▁신념	-11.1958
▁노리에가	-11.1958
▁1979	-11.1958
▁영예	-11.1958
▁깜	-11.1959
▁광경	-11.1959
▁포스터	-11.1959
▁검진	-11.1959
▁관행	-11.1959
▁성사	-11.196
▁태양계	-11.196
▁권유	-11.1961
▁당분간	-11.1961
▁히트	-11.1961
▁연예	-11.1962
▁참패	-11.1962
▁1984	-11.1962
▁2014	-11.1963
▁지폐	-11.1963
▁보수파	-11.1963
▁낙관적	-11.1964
▁섞	-11.1964
대사관	-11.1965
▁당원	-11.1965
▁레저	-11.1965
▁보류	-11.1968
▁시사회	-11.1969
▁발작	-11.1969
▁석상	-11.1969
▁남겼다	-11.1969
▁내주	-11.197
▁파이	-11.197
▁격분	-11.1971
▁비자금	-11.1971
▁게이	-11.1972
▁람	-11.1973
▁더이상	-11.1973
▁돌아갔다	-11.1974
▁사우스	-11.1974
▁호우	-11.1975
▁맡게	-11.1975
▁단호	-11.1975
▁장난	-11.1977
▁호흡기	-11.1977
▁풍자	-11.1977
▁국면	-11.1978
▁야간	-11.1981
▁제약	-11.1982
▁올릴	-11.1982
▁발견돼	-11.1984
200706	-11.1985
▁정상적으로	-11.1987
▁부부의	-11.1988
▁취해야	-11.199
▁정한	-11.199
▁비율이	-11.1993
▁정보가	-11.1996
▁애쓰고	-11.1997
▁우파	-11.1998
▁제프	-11.2
▁러시아에서	-11.2005
대에서	-11.2007
▁작곡가	-11.2007
▁여성에게	-11.2007
▁가격에	-11.2008
년째	-11.2008
▁450	-11.201
지요	-11.2012
55	-11.2013
▁솔	-11.2013
▁전인	-11.2013
▁파르	-11.2013
▁사이즈	-11.2014
▁파키스탄이	-11.2015
▁계층	-11.2016
▁논의하고	-11.2018
▁심정	-11.202
▁익	-11.2023
▁증가하	-11.2023
▁바퀴	-11.2026
▁여러분들	-11.2026
▁하마스와	-11.2028
▁붙이	-11.2028
▁강화했다	-11.203
램	-11.2031
▁봐	-11.2031
▁찬사	-11.2034
▁지명자	-11.2038
▁흔들리	-11.2038
▁대리	-11.204
▁하원에서	-11.2046
▁잡혀있	-11.2047
개국이	-11.2047
▁정치범	-11.2048
▁제기한	-11.2049
▁부수	-11.2051
▁오를	-11.2051
▁이끌었다	-11.2053
▁상정	-11.2054
▁로이	-11.206
▁오고	-11.206
▁팔려	-11.2064
▁잡기	-11.2066
▁첸	-11.2067
▁친구들과	-11.2068
곳에	-11.2069
▁리사	-11.207
▁헤르	-11.2078
▁사무소	-11.2079
▁진행하는	-11.208
▁돌입했다	-11.2082
▁초과	-11.2083
▁감자	-11.2085
티드	-11.2087
▁극심	-11.2087
▁나르	-11.2089
다소	-11.2091
▁문화적	-11.2091
▁베를린에서	-11.2093
▁재판소	-11.2095
바르	-11.2096
▁참모	-11.2097
22	-11.2101
▁없기	-11.2102
▁방문객	-11.2103
▁가두	-11.2104
▁램	-11.2105
▁주사	-11.2106
▁나갔다	-11.2109
▁사업가	-11.211
▁활동하	-11.2113
▁길에	-11.2115
▁결승전에	-11.2118
▁미수	-11.2121
▁수의사	-11.2124
▁나라들	-11.2125
▁08	-11.2126
▁식으로	-11.213
▁구조대원	-11.2132
▁프린스	-11.2139
▁거라고	-11.2142
▁수반과	-11.2143
▁그날	-11.2144
▁의견에	-11.2146
▁해변에서	-11.2146
▁파고	-11.2152
▁공격하는	-11.2152
▁협정에	-11.2155
▁침범	-11.2157
▁동원해	-11.2157
▁까	-11.216
▁공격할	-11.2166
▁서있	-11.2171
자들과	-11.2175
▁기념일	-11.2179
▁가한	-11.2181
▁하에서	-11.2186
▁가담	-11.2192
▁살리	-11.2193
▁비리	-11.2195
납	-11.2199
33	-11.2201
랭	-11.2202
몽	-11.2202
▁요한	-11.2204
200601	-11.2204
▁독자	-11.2205
돈	-11.2206
▁상원의	-11.2207
▁윤리적	-11.2214
주택	-11.2215
보고서	-11.2216
▁시작하는	-11.2221
어졌다	-11.2222
▁갇혀	-11.2223
▁세번째	-11.2225
▁버렸다	-11.2225
▁몬	-11.223
▁폭발했다	-11.2231
▁개헌안	-11.2232
대책	-11.2232
91	-11.2236
▁주문했다	-11.224
하자는	-11.2247
피크	-11.2252
▁기념하기	-11.2252
▁후보자들	-11.2255
▁정치에	-11.2263
▁하나를	-11.2266
▁시작하기	-11.2271
▁상업적	-11.2272
▁재미	-11.2275
▁사태로	-11.2277
▁공장에서	-11.228
전문가	-11.2282
▁101	-11.2283
▁덴버	-11.2285
▁개막식	-11.2286
200809	-11.2286
건이	-11.2287
디는	-11.2287
▁양곤	-11.2288
모어	-11.229
▁세라	-11.2296
▁등장하	-11.2296
▁유지하는	-11.23
▁석방했다	-11.2304
것을	-11.2313
▁소방관들	-11.2315
▁압도적	-11.2315
▁위반한	-11.2318
시키는데	-11.232
▁바탕	-11.2321
▁와서	-11.2323
▁땅에	-11.2323
▁방송과	-11.2326
▁여자들	-11.2327
▁호흡	-11.2333
▁도로에	-11.2335
▁헌신	-11.2335
▁중동평화	-11.2351
기와	-11.2352
▁경선이	-11.2355
믹	-11.2355
▁갤럭시	-11.2355
▁곤돌라	-11.2355
▁농작물	-11.2355
▁대중교통	-11.2355
▁라왈핀디	-11.2355
▁마닐라	-11.2355
▁부딪혀	-11.2355
▁아웅산수지	-11.2355
▁얀코비치	-11.2355
▁이데올로기	-11.2355
▁짝짓기	-11.2355
▁카라카스	-11.2355
▁카톨릭	-11.2355
▁타블로이드	-11.2355
▁페널티킥	-11.2355
▁폴라로이드	-11.2355
▁합참의장	-11.2355
▁횟수	-11.2355
▁내비쳤다	-11.2355
▁로맨틱	-11.2355
▁백화점	-11.2355
▁유망주	-11.2355
▁치렀	-11.2355
▁페르난도	-11.2355
▁로페즈	-11.2355
▁자이툰	-11.2355
▁카리스마	-11.2355
▁테이블	-11.2355
▁억압	-11.2355
▁살모넬라균	-11.2355
▁대통합민주신당	-11.2355
▁밀접	-11.2356
▁소수민족	-11.2356
▁라일	-11.2356
▁동점골	-11.2356
▁범람	-11.2356
▁가자시티	-11.2356
▁나중에	-11.2356
▁부정선거	-11.2356
▁결승골	-11.2356
▁패널	-11.2356
▁사찰	-11.2356
▁과잉	-11.2357
▁평론가들	-11.2357
▁관광산업	-11.2357
▁울머	-11.2358
▁표적이	-11.2358
▁평생	-11.2358
▁난폭	-11.2358
▁세레나	-11.2359
▁기둥	-11.2359
▁오스틴	-11.236
▁괴	-11.2361
▁결별	-11.2361
▁도착했을	-11.2361
▁물질이	-11.2362
분기에	-11.2362
▁면허	-11.2362
▁경제성장률	-11.2362
▁동행	-11.2363
▁지칭	-11.2363
▁페퍼	-11.2363
▁연구조사	-11.2363
▁홈페이지	-11.2364
▁면제	-11.2364
▁바이오	-11.2364
▁외각	-11.2364
▁심장병	-11.2364
▁숨지게	-11.2366
▁책임감	-11.2366
▁사절	-11.2367
▁감안	-11.2367
▁내기	-11.2367
▁재생	-11.2367
▁있겠지	-11.2368
느라	-11.237
▁여정	-11.237
▁온천	-11.2371
▁여행객들	-11.2371
▁우방	-11.2371
▁무너졌다	-11.2371
▁조업	-11.2373
▁무기한	-11.2373
▁과실	-11.2374
▁삼았다	-11.2374
▁버크	-11.2374
▁도움으로	-11.2378
▁상태입니다	-11.2378
▁빨간	-11.2379
▁융	-11.2384
▁번식	-11.2384
▁반란	-11.2385
▁유명인사	-11.2386
▁국민당	-11.2386
▁소아과	-11.2387
▁맹	-11.239
▁이끈	-11.2391
▁관세	-11.2392
▁행운	-11.2392
▁군의	-11.2392
푸르	-11.2397
▁빗	-11.2399
▁많았다	-11.2401
데르	-11.2402
▁양당	-11.2402
▁감행했다	-11.2403
▁누드	-11.2403
▁소개했다	-11.2404
▁질서	-11.2404
▁하는지	-11.2405
▁어선	-11.2407
▁공부	-11.2408
▁박수	-11.2409
▁선택한	-11.241
줘야	-11.241
▁살해됐다	-11.2412
여개	-11.2415
▁모닝	-11.2419
▁지사	-11.2425
▁뒤에서	-11.243
▁의뢰인	-11.2434
▁후임으로	-11.2434
▁가하고	-11.2435
74	-11.2437
▁이란에서	-11.2439
▁별로	-11.244
▁대처하기	-11.2441
▁현직	-11.2441
▁이룬	-11.2442
▁안다	-11.2443
▁무혐의	-11.2443
▁걸스	-11.2444
▁넘어서	-11.2445
채가	-11.2445
▁불과했다	-11.2448
리노	-11.2451
아나	-11.2454
▁전선	-11.2462
▁어디에	-11.2467
▁방콕에서	-11.2467
▁포기할	-11.2468
▁신비	-11.2468
▁겐	-11.247
▁감기	-11.2472
▁제기되	-11.2474
▁말입니다	-11.2474
▁발생하기	-11.2477
아웃	-11.2479
▁움직	-11.2479
어요	-11.2482
▁전통적으로	-11.2487
▁바스라에서	-11.2492
▁차원	-11.2494
▁제안에	-11.2496
▁험	-11.2497
▁지정된	-11.2501
▁맡기	-11.2502
져야	-11.2503
▁용의	-11.2504
▁퍼지	-11.2511
▁탑	-11.2512
▁당원들	-11.2515
▁파괴됐다	-11.2516
▁행한	-11.2516
강에	-11.2516
▁행동으로	-11.2522
팀이	-11.2523
▁죽을	-11.2525
▁자연적	-11.2528
▁국경지역에	-11.2538
▁관광객이	-11.2538
▁앤더슨은	-11.254
▁퇴원	-11.2549
▁살아있는	-11.2555
▁명인	-11.2556
전문	-11.2556
편이	-11.2559
이면	-11.2559
▁발표하지	-11.256
▁수감됐다	-11.2563
회의에서	-11.2569
▁균	-11.2575
▁법무	-11.2578
▁심화	-11.258
▁앤더슨	-11.2582
▁이목	-11.2585
▁태국에서	-11.2586
▁지구로	-11.2589
노프	-11.2592
▁직면해	-11.2594
▁엄	-11.2597
▁후안	-11.2598
▁하라	-11.2604
펜	-11.2608
▁남지	-11.2608
간다	-11.2611
▁발사했다	-11.2615
▁클럽에서	-11.2616
▁위치에	-11.2616
뜨	-11.2617
하려면	-11.2618
컨	-11.2622
환경	-11.2625
▁구입한	-11.2627
▁방문했	-11.264
▁잃었다고	-11.2642
께	-11.2644
▁다쳤	-11.2647
▁헤어	-11.2649
원에	-11.265
▁이상으로	-11.2653
▁되면서	-11.2653
▁루이	-11.2658
▁단체에	-11.2658
▁제어	-11.2661
▁이어진	-11.2665
▁빼	-11.2666
▁획득했다	-11.2669
▁명으로	-11.267
헤드	-11.267
▁여객기에	-11.2675
▁미국내	-11.2676
▁지배하	-11.2677
▁이외	-11.2679
▁정부로부터	-11.2679
센터에서	-11.2681
▁복용한	-11.2683
처리	-11.2684
▁일요일에	-11.2686
▁통근	-11.2693
▁의뢰	-11.2694
▁공직	-11.2698
▁싶어하	-11.2698
▁게임에서	-11.2702
▁98	-11.2705
▁승리하는	-11.2709
▁보여준	-11.2709
▁놓여	-11.2712
▁조달	-11.2715
▁감염자	-11.2722
▁은행이	-11.2725
▁소방	-11.2731
▁한반도에서	-11.2733
▁열린다	-11.2741
만톤	-11.2749
▁점에서	-11.275
▁협상에서	-11.2755
럽	-11.2759
▁사정	-11.2759
▁버몬트	-11.2761
▁나눠	-11.2764
▁다국적	-11.2765
▁수성	-11.2766
▁경제성장	-11.2767
▁퇴직	-11.2767
쾌	-11.2769
▁가톨릭	-11.2772
▁금융제재	-11.2772
▁레젭	-11.2772
▁로널드	-11.2772
▁루마니아	-11.2772
▁몬타나	-11.2772
▁무크타다	-11.2772
▁버시바우	-11.2772
▁부정부패	-11.2772
▁브뤼셀	-11.2772
▁사카쉬빌리	-11.2772
▁인플루엔자	-11.2772
▁주최하	-11.2772
▁최후	-11.2772
▁콘크리트	-11.2772
▁콜레스테롤	-11.2772
▁프리메라리가	-11.2772
▁임산부	-11.2772
▁횡단	-11.2772
▁휴양지	-11.2772
▁뮤직	-11.2772
▁오마바	-11.2772
▁팔루자	-11.2772
▁힉스	-11.2772
▁기번스	-11.2772
▁학자들	-11.2772
▁뒤덮	-11.2772
▁이소연	-11.2772
▁정부청사	-11.2772
▁주니어	-11.2772
▁크리켓	-11.2772
▁페인트	-11.2772
▁아지즈	-11.2772
▁쟁점	-11.2772
▁보스니아	-11.2772
▁번호판	-11.2773
▁소요사태	-11.2773
▁와중에	-11.2773
▁불쾌감	-11.2774
▁호르타	-11.2774
▁여객선	-11.2774
▁평창	-11.2774
▁동북아	-11.2774
▁엄중	-11.2774
▁싸울	-11.2774
▁야당의	-11.2774
▁발생한다	-11.2774
▁간첩	-11.2774
▁즐거	-11.2774
▁통계청	-11.2774
▁평등	-11.2775
▁연애	-11.2775
▁철거	-11.2775
▁총격사건	-11.2776
▁연습	-11.2776
▁활력	-11.2776
▁패션계	-11.2777
▁피델	-11.2777
▁시도했	-11.2777
▁정글	-11.2778
▁단절	-11.2778
▁분양	-11.2778
▁포격	-11.2778
▁금지령	-11.2779
▁본래	-11.278
돌프	-11.278
▁테러공격	-11.278
▁다녀	-11.2781
▁변동	-11.2781
▁추모식	-11.2782
▁테네시주	-11.2782
▁완수	-11.2782
▁베스트	-11.2782
▁접근할	-11.2782
▁지나친	-11.2782
▁순회	-11.2782
▁저지르	-11.2783
▁매사추세츠주	-11.2783
▁울프	-11.2783
▁털어	-11.2784
▁스탠리	-11.2784
▁급파	-11.2785
▁만행	-11.2786
▁발사된	-11.2788
▁반격	-11.2788
▁주장해	-11.2788
▁사격	-11.2788
회전	-11.2789
▁연예인	-11.2789
▁액수	-11.2789
▁터진	-11.2791
▁태아	-11.2791
▁뉴저지주	-11.2791
위안	-11.2791
▁박물관에	-11.2791
▁이동했다	-11.2791
▁스토	-11.2792
▁팔렸다	-11.2793
▁대승	-11.2793
▁정유	-11.2794
▁앙리	-11.2794
▁지도력	-11.2794
▁신종	-11.2795
▁스노	-11.2795
▁데이트	-11.2795
▁침수	-11.2796
▁관대	-11.2798
▁외모	-11.2799
▁750	-11.2799
▁상실	-11.28
▁공습이	-11.28
▁분명하다	-11.28
▁조그	-11.2802
▁흉기	-11.2803
▁휩싸였다	-11.2804
▁한국정부	-11.2805
▁두목	-11.2805
▁상징적인	-11.2807
▁반감	-11.2807
▁인도와	-11.281
▁가즈니주	-11.2812
▁선박에	-11.2812
▁투수	-11.2813
▁미쳤다	-11.2814
▁샘	-11.2814
▁허리	-11.2815
▁작용할	-11.2818
▁배아	-11.2821
▁핵문제	-11.2821
▁213	-11.2822
▁큐	-11.2823
▁인파	-11.2824
▁작품상	-11.2825
▁열리기	-11.2826
▁맞았	-11.2828
▁억류된	-11.2829
▁앤드	-11.2829
▁마일	-11.2829
▁아카	-11.283
▁보수적인	-11.2831
▁천명	-11.2831
코스	-11.2832
▁말라위	-11.2832
▁94	-11.2834
▁일종	-11.2835
▁수백만명	-11.2835
▁이민자들	-11.2836
▁경찰청장	-11.2839
▁쉐	-11.2841
▁노동자들이	-11.2842
36	-11.2845
▁민주당원들	-11.2848
▁당선된	-11.2849
▁독일과	-11.2853
▁구분	-11.2854
▁심각하다	-11.2857
받을	-11.2859
▁성전	-11.2859
플레	-11.286
▁칠	-11.2863
제로	-11.2864
▁거물	-11.2866
▁영구	-11.2869
▁동해	-11.287
▁개혁안	-11.287
▁전술	-11.287
▁맺었다	-11.2872
스테이트	-11.2873
▁켄	-11.2873
▁만족한다	-11.2874
베키	-11.2875
코트	-11.2876
▁알바	-11.288
▁끝내고	-11.2883
▁피로	-11.2883
험	-11.2886
▁방위	-11.2887
준다	-11.2887
▁저널	-11.2888
▁발사한	-11.2891
▁경쟁에서	-11.2892
▁분기	-11.2893
▁장례식에	-11.2902
▁표기	-11.2904
▁고전	-11.2906
▁차지할	-11.2907
▁교도	-11.291
37	-11.2911
▁일반인들	-11.2913
▁동남	-11.2914
▁줄어들었다	-11.2916
▁높이고	-11.2919
▁수직	-11.2923
▁시대에	-11.2923
▁수습	-11.2925
수사	-11.2926
로프	-11.2926
▁빙	-11.2929
▁플로	-11.293
▁이동하	-11.2932
▁200601	-11.2932
▁시도하	-11.2936
▁치료제	-11.2936
▁전임	-11.2938
작업을	-11.2939
▁결정될	-11.294
▁이견	-11.294
▁분명한	-11.2947
▁열리고	-11.2949
▁공격하기	-11.2949
▁빚어	-11.295
제가	-11.2952
자루	-11.2954
▁홀에서	-11.2957
▁워싱턴에	-11.2958
▁고집	-11.2962
▁마르코	-11.2964
▁관료들	-11.2966
장소	-11.2968
▁단계적	-11.2969
들이다	-11.2971
▁수퍼대의원	-11.2975
▁조사는	-11.2977
▁전경	-11.2977
데요	-11.2984
▁들어가기	-11.2985
▁장소에	-11.2985
▁설립한	-11.2987
공항	-11.2992
▁내용이다	-11.2992
▁결승	-11.2997
▁실려	-11.3001
▁선보였	-11.3007
▁정직	-11.3009
▁중재자	-11.301
▁시스템에	-11.3014
▁파괴된	-11.3024
▁판매하는	-11.3028
▁합의안	-11.3031
킨스	-11.3031
▁반군에	-11.3033
▁지지율로	-11.3035
▁난자	-11.3043
▁안개	-11.3046
▁명명	-11.3048
▁차에	-11.3049
법에	-11.3049
휴	-11.3049
▁킬로미터	-11.3051
동맹	-11.3052
▁여성으로	-11.3054
즐	-11.3057
93	-11.3057
사실	-11.3066
▁선호	-11.3071
국민	-11.3077
▁증가시키	-11.3078
여행	-11.3081
▁통과한	-11.3082
파인	-11.3083
머스	-11.3083
▁일이었다	-11.3087
▁린다	-11.309
더미	-11.309
▁의원들과	-11.3091
68	-11.3093
었기	-11.31
시간에	-11.3102
▁괴한들	-11.3104
마른	-11.311
▁노력으로	-11.3111
▁지점에	-11.3113
득	-11.3114
포스	-11.3114
시간이	-11.3114
▁작년에	-11.3115
▁내야	-11.3119
▁교착상태	-11.3119
▁문제다	-11.3119
▁워터	-11.3126
▁영화로	-11.3128
▁토로	-11.3131
▁현안	-11.3131
▁인정하고	-11.3136
▁부상당했다	-11.3142
문서	-11.3143
▁타운	-11.3145
▁지원한	-11.3148
▁들어갔	-11.3149
▁강화하기	-11.3151
되게	-11.3152
▁나갔	-11.3152
▁강사	-11.3153
▁짜	-11.3155
▁섬에	-11.3157
▁치르는	-11.3157
▁가사	-11.3157
62	-11.3159
▁충돌했다	-11.3161
▁미화	-11.3164
학자인	-11.3165
▁겪었	-11.3166
▁물리적	-11.3172
▁최근까지	-11.3176
▁넘겨	-11.3177
▁요인이	-11.3181
▁83	-11.3186
▁끌려	-11.3191
님	-11.3192
층에서	-11.3195
▁테네시	-11.3196
▁일조	-11.3199
▁검문	-11.3199
▁냉전	-11.3206
▁그린스펀	-11.3207
▁급상승	-11.3207
▁낙하산	-11.3207
▁농산물	-11.3207
▁디얄라	-11.3207
▁라우터바흐	-11.3207
▁선거캠페인	-11.3207
▁슈나이더	-11.3207
▁앨라배마	-11.3207
▁언색호	-11.3207
▁오차범위	-11.3207
▁잃게	-11.3207
▁잃을	-11.3207
▁지구온난화	-11.3207
▁카메론	-11.3207
▁테헤란	-11.3207
쭉	-11.3207
▁롱고리아	-11.3207
▁컨퍼런스	-11.3207
▁획기적	-11.3207
▁유시프	-11.3207
▁저녁식사	-11.3207
▁퇴역	-11.3207
▁주머니	-11.3207
▁클레이코트	-11.3207
▁좌익	-11.3207
▁황교수	-11.3207
▁졸릭	-11.3207
▁근접	-11.3207
▁리더십	-11.3207
▁사냥꾼	-11.3207
▁검열	-11.3207
200802	-11.3207
▁자살폭탄	-11.3207
▁푸켓	-11.3208
▁호킨스	-11.3208
▁검시관	-11.3208
▁줄어든	-11.3208
▁토끼	-11.3208
▁정상에	-11.3209
▁회색	-11.3209
▁안젤리	-11.3209
▁풀려	-11.3209
▁반도체	-11.3209
▁동맹관계	-11.3209
▁그린랜드	-11.3209
▁자본주의	-11.3209
▁재능	-11.3209
▁보도자료	-11.3209
▁친밀	-11.321
▁우편	-11.321
▁이루어질	-11.321
▁발송	-11.3211
▁아바타	-11.3211
▁교역	-11.3211
▁기념품	-11.3211
▁증산	-11.3211
▁도달했다	-11.3211
▁자유로운	-11.3212
▁제조회사	-11.3212
▁자치구	-11.3213
▁증오	-11.3213
▁마스터스	-11.3213
▁서열	-11.3213
▁샤론	-11.3214
▁되어야	-11.3214
▁천연	-11.3214
▁예금	-11.3215
▁호위	-11.3215
▁한국전쟁	-11.3216
시께	-11.3216
▁출간	-11.3216
▁황제	-11.3216
▁간다	-11.3217
▁선거자금	-11.3217
▁누설	-11.3217
▁연결하	-11.3218
▁바스크	-11.3218
▁라틴	-11.3219
위기	-11.3219
년대에	-11.3219
▁없음	-11.322
▁지난밤	-11.3221
▁베이비	-11.3221
▁피고인들	-11.3221
▁테마	-11.3221
▁미시간주	-11.3222
▁교차	-11.3222
▁건조	-11.3223
▁파워	-11.3223
퍼센트이상	-11.3223
▁이용자들	-11.3223
▁참수	-11.3224
▁섬유	-11.3225
▁신설	-11.3226
▁효과적	-11.3227
▁스파이스	-11.3228
▁상표	-11.3229
▁불거	-11.3229
▁112	-11.323
▁노벨상	-11.323
▁태어났다	-11.3231
▁놀이	-11.3231
▁탈당	-11.3232
▁탈세	-11.3232
▁루디	-11.3233
살짜리	-11.3235
▁87	-11.3235
▁온실	-11.3235
스탄	-11.3236
▁받았습니다	-11.3237
▁진정시키	-11.3237
▁방송이	-11.3238
▁피터슨	-11.3239
▁적당한	-11.3239
▁인천	-11.3239
▁설립자	-11.3239
▁졸	-11.324
▁선제	-11.324
▁진상	-11.324
▁본즈	-11.3242
▁양호	-11.3244
▁주정부	-11.3244
▁말았다	-11.3244
▁도박	-11.3244
▁불경기	-11.3246
▁끌어들이	-11.3246
▁국토안보부	-11.3246
▁주입	-11.3247
▁매케인과	-11.3248
▁피우	-11.3248
▁전문의	-11.3248
78	-11.3248
▁경유	-11.3249
▁중태라	-11.3249
▁유타	-11.3251
▁3500	-11.3251
▁유럽에	-11.3252
▁경상	-11.3252
▁중국정부	-11.3253
▁보호소	-11.3255
▁맞지	-11.3255
▁대신해	-11.3256
▁거래소	-11.3257
세르	-11.3257
▁위크	-11.3258
▁비행선	-11.3258
▁배정	-11.326
▁관여하	-11.326
▁답변했다	-11.3261
벨리	-11.3264
▁못하면	-11.3265
▁모였다	-11.3266
200704	-11.3268
▁끝나지	-11.3268
▁살상	-11.3268
▁누구나	-11.3269
▁주둔군	-11.3269
200703	-11.3269
▁생활에	-11.3269
▁비전	-11.327
▁신성	-11.327
▁기대된다	-11.3271
▁싱글	-11.3275
▁덩어리	-11.3278
▁이민법	-11.3279
▁자란	-11.328
▁외계인	-11.3281
▁샤프	-11.3282
▁줄었다	-11.3283
▁미군에	-11.3287
▁활	-11.3287
▁만들어내	-11.3287
▁서울시장	-11.3289
▁일시	-11.3289
▁기여	-11.3289
▁내리지	-11.3291
▁공통	-11.3291
▁작전에	-11.3291
▁토로했다	-11.3294
▁적군	-11.3294
▁소유자	-11.3294
▁103	-11.3295
▁서쪽으로	-11.3296
▁밝혀지	-11.33
▁의미하는	-11.3301
물질	-11.3302
▁96	-11.3304
▁통과할	-11.3307
▁실종됐다고	-11.3307
▁들어주	-11.3307
▁일본인들	-11.3309
▁해준다	-11.3309
▁서부지역	-11.3314
▁효과적인	-11.3315
▁해결하는	-11.3315
어지고	-11.3315
▁연인	-11.3317
▁프로그램과	-11.3319
▁파업이	-11.332
▁아랍어	-11.3321
▁이라크인들	-11.3322
▁말했었다	-11.3323
▁진출에	-11.3324
▁발표에	-11.3325
▁생각된다	-11.333
▁시선	-11.333
▁이건	-11.3331
▁로즈	-11.3335
▁근거지	-11.3336
코르	-11.3336
▁들어서	-11.3339
▁비공식	-11.334
▁입장이다	-11.334
▁상태라	-11.3343
▁후송	-11.3344
▁외곽에서	-11.3346
▁항해	-11.3356
▁정국	-11.3361
▁돌아가는	-11.3365
▁해치	-11.3369
▁지불할	-11.337
▁알려졌	-11.337
▁참가국들	-11.337
▁요구해	-11.3372
▁우주비행사들	-11.3373
▁위반했다	-11.3388
▁멘	-11.339
▁인터넷에서	-11.3391
▁대학생들	-11.3396
▁랜	-11.3397
마저	-11.3401
▁팔레스타인과	-11.3402
▁식당에서	-11.3404
▁공해	-11.3406
▁브레	-11.3409
▁좌	-11.3412
▁순간에	-11.3414
▁의원과	-11.3414
논	-11.3417
▁공급받	-11.3421
▁바비	-11.3426
▁일어	-11.3429
러운	-11.3429
▁때에	-11.3431
▁실시됐다	-11.3435
▁이용자	-11.3435
▁경의	-11.3437
▁마련된	-11.3437
▁세웠	-11.3438
과학	-11.3439
▁드리	-11.3439
▁국내에서	-11.3441
▁피의자	-11.3441
▁수행한	-11.3443
▁경제학자	-11.3448
▁작고	-11.3452
▁증거로	-11.3452
윤	-11.3453
▁시작한다	-11.3453
▁마이크로	-11.3456
▁세르	-11.3459
퍼센트만	-11.346
▁지방에	-11.3464
▁한가지	-11.3464
▁아프리카에서	-11.3465
▁보도된	-11.3471
▁하스	-11.3472
우주	-11.3476
▁쓰이	-11.3476
프레	-11.3476
▁배달	-11.348
▁적지	-11.3482
▁추문	-11.3483
▁여진	-11.3487
길에	-11.3487
▁결정한	-11.3493
응	-11.3497
▁다스	-11.3498
▁담당하	-11.3499
▁아파트에서	-11.3506
▁주도하고	-11.3506
사령관	-11.3506
▁항복	-11.3506
풀	-11.3507
▁오만	-11.351
톱	-11.351
팬	-11.3511
탐	-11.3512
▁글로	-11.3513
▁총살	-11.3519
▁올림픽에	-11.3522
▁행위로	-11.3524
▁파기	-11.3526
위권	-11.3531
▁이라크로	-11.3531
▁나아	-11.3532
▁믿는	-11.3533
방안	-11.3535
▁막는	-11.3536
▁투자가	-11.3539
▁방에서	-11.3541
▁참가국	-11.3543
▁연기됐다	-11.3549
▁결함이	-11.355
▁레바논에서	-11.3551
▁사고에	-11.3551
범죄	-11.3555
정권	-11.3555
글리	-11.3557
▁성공할	-11.3558
▁영화화	-11.3558
번호	-11.3564
니에	-11.3574
▁오르는	-11.3575
▁구조됐다	-11.3576
화물	-11.3576
리터	-11.3577
여년	-11.3577
▁나비	-11.358
주재	-11.3582
▁통과하	-11.3583
▁카라치	-11.3583
▁날에	-11.3586
▁하사	-11.3587
▁일본군	-11.3587
▁수행했다	-11.3587
▁정말로	-11.3592
나마	-11.3594
▁신자	-11.3595
해졌	-11.3598
▁떠났	-11.3601
▁수년간	-11.3605
▁잔인	-11.3607
▁도착해	-11.3608
▁바람에	-11.3611
▁쌍	-11.3612
인당	-11.3614
전선	-11.3614
▁우려하는	-11.3615
▁선포한	-11.3617
▁투자가들	-11.3617
▁중단된	-11.3623
▁승려	-11.3623
것이	-11.3623
▁바그다드에	-11.3625
교수	-11.3626
재단	-11.3628
▁모여들	-11.363
▁검찰에	-11.3632
▁대조	-11.3633
▁격려	-11.3634
▁계속됐다	-11.3636
▁외교관들	-11.3638
▁악명	-11.3641
▁주거	-11.3641
별로	-11.3642
클리	-11.3644
▁포도	-11.3645
▁휩싸	-11.3648
▁되려	-11.3652
▁발령	-11.3654
야당	-11.3656
▁메이저	-11.3659
▁녹색	-11.366
▁총기난사	-11.3661
므	-11.3661
셜	-11.3661
돋	-11.3661
헴	-11.3661
▁가라앉	-11.3661
▁국제사면위원회	-11.3661
▁김경준	-11.3661
▁대량살상무기	-11.3661
▁돈세탁	-11.3661
▁동남아시아	-11.3661
▁몰디브	-11.3661
▁믿음	-11.3661
▁베스트셀러	-11.3661
▁손해배상	-11.3661
▁신천옹	-11.3661
▁아라파트	-11.3661
▁아이슬란드	-11.3661
▁애널리스트	-11.3661
▁우비넨	-11.3661
▁자이언트	-11.3661
▁전화통화	-11.3661
▁콘텐트	-11.3661
▁페르난데스	-11.3661
▁플레이오프	-11.3661
▁해리왕자	-11.3661
▁갱신	-11.3661
▁무중력	-11.3661
▁자부심	-11.3661
▁푸에르토리코	-11.3661
▁황박사	-11.3661
▁가금류	-11.3661
▁내다봤다	-11.3661
▁올랜도	-11.3661
▁인디언	-11.3661
▁폭넓	-11.3661
▁오페라	-11.3661
▁프리킥	-11.3661
▁진원지	-11.3661
▁선진국	-11.3661
▁텔레콤	-11.3661
▁후쿠다	-11.3661
▁놀랍	-11.3661
▁남서쪽	-11.3661
▁딜리	-11.3662
▁라시드	-11.3662
▁브라더스	-11.3662
▁트레킹	-11.3662
▁프레슬리	-11.3662
▁강아지	-11.3662
▁설문조사	-11.3662
▁삭스	-11.3662
▁아이팟	-11.3662
▁선제골	-11.3662
▁왕궁	-11.3662
▁화폐	-11.3662
▁이틀째	-11.3662
▁포옹	-11.3662
▁다툼	-11.3662
▁삼성그룹	-11.3662
▁탑재	-11.3663
▁지방선거	-11.3663
▁투항	-11.3663
▁석탄	-11.3663
▁무엇인가	-11.3663
▁차세대	-11.3664
▁프라임	-11.3664
▁헌터	-11.3664
▁물러난	-11.3664
▁기차역	-11.3664
▁미술관	-11.3664
▁웃음	-11.3664
▁보건당국	-11.3664
▁기부금	-11.3665
▁우익	-11.3665
▁친구와	-11.3665
▁지저스	-11.3665
▁제한하	-11.3666
▁발레리	-11.3666
▁맞춘	-11.3666
▁터너	-11.3666
▁단축	-11.3666
▁않으려	-11.3667
▁해산물	-11.3667
▁침실	-11.3667
▁다룰	-11.3667
▁정교회	-11.3668
▁동등	-11.3668
▁데이브	-11.3669
▁교정	-11.3669
▁대기권	-11.3669
▁북경	-11.367
▁1975	-11.3671
▁방위군	-11.3671
▁선언문	-11.3672
▁복부	-11.3672
▁공범	-11.3672
▁프로디	-11.3672
▁나이키	-11.3673
▁디에고	-11.3673
▁일삼	-11.3673
▁사이먼	-11.3674
▁서버	-11.3676
▁무패	-11.3677
▁연정	-11.3677
▁공표	-11.3677
▁보리스	-11.3678
▁나온다	-11.3678
▁툴	-11.3678
▁펴	-11.3679
▁솜	-11.3679
▁골든	-11.3679
▁비정부	-11.3679
▁우주복	-11.3679
▁조각상	-11.368
▁린치	-11.3681
▁파견했다	-11.3682
▁노력했다	-11.3683
시로	-11.3683
▁전반에	-11.3684
▁예보	-11.3684
▁방침이다	-11.3684
▁선동	-11.3684
▁빈번	-11.3686
▁딴	-11.3686
▁역전	-11.3687
▁결성	-11.3687
라트	-11.3687
▁채무	-11.3687
▁영아	-11.3688
▁콜로라도주	-11.3688
▁생선	-11.3688
▁직위	-11.3688
▁좋았다	-11.3689
▁실바	-11.369
천억원	-11.3691
▁종전	-11.3691
▁어미	-11.3691
▁김영	-11.3692
▁근본주의	-11.3692
▁폐허	-11.3693
▁주식시장이	-11.3693
▁상임	-11.3693
▁주립	-11.3694
블리	-11.3696
▁문학	-11.3699
▁빵	-11.37
▁곳곳에서	-11.37
▁반박	-11.37
▁360	-11.3701
▁왕위	-11.3701
▁생각할	-11.3703
▁제작진	-11.3704
▁동부에	-11.3705
▁장관급	-11.3705
▁내려오	-11.3707
▁과정이	-11.3707
▁여인	-11.3708
▁풀어주	-11.3709
▁주차장에서	-11.3709
건에	-11.371
▁연어	-11.3711
▁쓰지	-11.3713
▁허용하는	-11.3713
▁버스에	-11.3714
▁정부기관	-11.3714
▁줬	-11.3715
▁결혼했다	-11.3718
▁돌아간	-11.3719
▁목표물	-11.372
▁찍었다	-11.372
▁단일	-11.3721
▁겁	-11.3721
08	-11.3722
링턴	-11.3722
▁보험사	-11.3722
▁낙찰	-11.3722
▁성능	-11.3725
▁의사당	-11.3726
▁비중	-11.3726
▁감각	-11.3726
▁간호사	-11.3727
▁접어들	-11.3731
▁배상	-11.3731
적이라고	-11.3732
▁능력이	-11.3732
▁템	-11.3733
▁국제법	-11.3734
▁지원했다	-11.3735
▁닉	-11.3736
▁캄	-11.3736
티아	-11.3736
▁게시	-11.3737
▁시사했다	-11.3738
▁의류	-11.3739
▁공항으로	-11.3744
▁자바	-11.3745
▁몰린	-11.3746
▁남부지역에서	-11.3747
32	-11.3748
▁아크	-11.3751
▁재료	-11.3752
▁발표하면서	-11.3754
▁타이거	-11.3754
▁230	-11.3756
▁영해	-11.3756
▁설치한	-11.3762
▁판명	-11.3762
▁주목할	-11.3766
▁소행	-11.3767
▁숨지	-11.3768
▁확인하지	-11.3768
▁그럴	-11.377
985	-11.3771
▁후속	-11.3772
▁감독과	-11.3773
▁낮게	-11.3775
▁한국계	-11.3777
▁가계	-11.3777
▁다루는	-11.3783
▁조직원들	-11.3787
▁호주군	-11.3788
▁박스	-11.3789
▁희생자들이	-11.3793
▁요청하	-11.3793
▁관여한	-11.3793
▁집중적	-11.3799
변화	-11.3799
▁떠나지	-11.3802
해줬다	-11.3806
▁기간이	-11.3812
▁갇혀있	-11.3814
▁베이징에	-11.382
▁이스트	-11.3824
안이	-11.3825
▁이유에	-11.3826
스트라	-11.3829
▁교통부	-11.3832
▁손님들	-11.3836
34	-11.3838
▁완화하기	-11.384
65	-11.3843
▁본부장	-11.3844
▁설립된	-11.3846
▁팔리	-11.3851
▁담겨	-11.3852
병이	-11.3852
▁토론회에서	-11.3858
▁결정하기	-11.3861
▁움직이는	-11.3862
▁사건에서	-11.3864
▁나사	-11.3865
▁압수했다	-11.3866
차원	-11.3867
▁신체적	-11.3868
▁매케인에	-11.3869
▁결정된	-11.3874
▁위안	-11.3878
라이트	-11.3878
▁선정했다	-11.3883
▁우주로	-11.3883
▁주도하	-11.3884
타다	-11.3889
었을	-11.3893
▁폭락했다	-11.3899
▁목록에	-11.3901
▁특파원이	-11.3902
▁프로젝트에	-11.3906
▁퇴원했다	-11.3911
▁확산되	-11.3912
▁진도	-11.3913
▁시에	-11.3918
▁소방대원	-11.3927
▁돼있다	-11.3931
▁제조사	-11.3932
▁간부들	-11.3934
▁공화당원들	-11.3936
퍼센트였다	-11.3938
▁블리	-11.3939
▁한국측	-11.3942
▁한반도에	-11.3943
▁중단시키	-11.3944
▁내부에	-11.3946
▁과일	-11.3948
▁해결에	-11.3952
실적	-11.3952
▁국제적으로	-11.3953
▁가정에서	-11.3954
았습니다	-11.3956
▁크로	-11.3957
▁고정	-11.3957
▁사항이	-11.3961
됐기	-11.3962
▁게임에	-11.3966
살인	-11.3971
▁저명	-11.3974
▁지아	-11.3976
특	-11.3977
▁십대	-11.3977
▁일부분	-11.3978
퍼센트대	-11.3979
컴	-11.3982
덤	-11.3984
▁철학	-11.3985
▁자신만	-11.3985
춤	-11.3988
200812	-11.3988
밴드	-11.399
음악	-11.3991
분쟁	-11.3995
▁지명에	-11.3995
▁제시할	-11.3995
▁결심했다	-11.3996
▁앉아있	-11.3998
어졌	-11.4001
요금	-11.4001
▁117	-11.4002
▁뒤지	-11.4002
▁홍콩에서	-11.4002
모양	-11.4003
부족	-11.4005
▁고고학자	-11.4006
체계	-11.4011
▁경호원들	-11.4016
▁수행하는	-11.4016
통제	-11.4018
하기위해	-11.4023
▁이혼했다	-11.4024
▁악화된	-11.4024
▁파키스탄과	-11.4027
23	-11.4027
▁있을까	-11.403
▁잡혀	-11.4032
▁방문하고	-11.4032
빌리	-11.4037
▁지속되	-11.4041
▁소식통들	-11.4041
▁엔지니어	-11.4042
▁표한다	-11.4042
▁직원과	-11.4044
▁집회에서	-11.405
▁시점에	-11.4053
▁연맹	-11.4056
▁캘리포니아에서	-11.4059
▁기관들	-11.4059
▁젊은이들이	-11.4062
▁석방에	-11.4066
사이드	-11.4069
▁실종됐다	-11.4077
▁움	-11.4077
▁됐고	-11.4078
▁돌아왔	-11.4078
▁치열	-11.4081
▁사실이다	-11.4085
▁더미	-11.4091
▁고민	-11.4093
▁느껴	-11.4093
▁아니다고	-11.4095
▁방안에	-11.4096
▁미얀마에서	-11.4096
▁나타냈	-11.4099
▁노출되	-11.4104
▁시민이	-11.4105
▁법에	-11.411
▁납치범	-11.4111
▁실험에	-11.4112
▁동안에	-11.4114
▁플	-11.4114
치기	-11.412
▁유효	-11.4125
▁일정에	-11.4125
▁산업이	-11.4127
끔	-11.413
셋	-11.4136
▁얼룩	-11.4137
▁창고	-11.4137
룽	-11.4137
겹	-11.4137
▁가로질러	-11.4137
▁그랜드슬램	-11.4137
▁라스무센	-11.4137
▁레드삭스	-11.4137
▁마터호른	-11.4137
▁만델라	-11.4137
▁맞교환	-11.4137
▁매릴랜드	-11.4137
▁믿지	-11.4137
▁불필요	-11.4137
▁빈라덴	-11.4137
▁생태계	-11.4137
▁소렌스탐	-11.4137
▁스콜세지	-11.4137
▁스탤론	-11.4137
▁식이요법	-11.4137
▁신용경색	-11.4137
▁알자지라	-11.4137
▁얼어붙	-11.4137
▁와지리스탄	-11.4137
▁제너럴	-11.4137
▁주미대사	-11.4137
▁질렀다	-11.4137
▁코네티컷	-11.4137
▁투탕카멘	-11.4137
▁팽팽	-11.4137
▁펌프	-11.4137
▁포틀랜드	-11.4137
▁푸에르타	-11.4137
긋	-11.4137
덟	-11.4137
벡	-11.4137
▁아메드	-11.4137
▁고마움	-11.4138
▁국가정보원	-11.4138
▁본거지	-11.4138
▁앗아	-11.4138
▁로드맵	-11.4138
▁가이트너	-11.4138
▁남동쪽	-11.4138
▁밀리밴드	-11.4138
▁아이다호	-11.4138
▁이뤄져야	-11.4138
▁파이프라인	-11.4138
▁아로요	-11.4138
▁외딴	-11.4138
▁블레이크	-11.4138
▁공동성명	-11.4138
▁납북	-11.4138
▁거세지	-11.4138
▁버클리	-11.4138
▁항의했다	-11.4138
▁불러일으키	-11.4139
▁몬테	-11.4139
▁투옥	-11.4139
▁신분증	-11.414
▁재처리	-11.414
▁완승	-11.414
▁음란물	-11.414
▁청색	-11.414
▁점유율	-11.414
▁촉구하고	-11.414
▁로얄	-11.414
▁증권거래소	-11.414
▁91	-11.4141
▁위안화	-11.4141
▁정황	-11.4141
▁보험금	-11.4141
▁나이로비	-11.4142
▁봅	-11.4142
▁함정	-11.4142
▁그래함	-11.4142
▁사촌	-11.4142
▁러브	-11.4143
▁철강	-11.4143
▁잠재력	-11.4143
▁은폐	-11.4143
▁절단	-11.4144
▁바이든	-11.4144
▁투병	-11.4144
▁익사	-11.4144
▁메모리	-11.4144
▁계단	-11.4144
▁사절단	-11.4144
▁진심	-11.4145
▁부착	-11.4145
▁첫째	-11.4145
▁128	-11.4145
▁경색	-11.4145
▁인텔	-11.4145
▁총리로	-11.4145
▁유머	-11.4146
▁통역	-11.4147
▁사탕	-11.4147
▁붙였다	-11.4147
▁긴장감	-11.4148
▁육상	-11.4148
▁화물선	-11.4148
▁변형	-11.4148
▁노엘	-11.4149
▁엔화	-11.4151
▁대열	-11.4151
▁분배	-11.4151
▁인준	-11.4152
▁파타당	-11.4153
▁마샤	-11.4153
▁콜린스	-11.4154
▁투하	-11.4155
▁육성	-11.4155
▁드문	-11.4156
▁판결문	-11.4157
▁히스	-11.4157
▁정당화	-11.4157
용품	-11.4158
▁애정	-11.4158
▁달렸다	-11.4158
▁시청률	-11.4159
▁시합	-11.4159
▁기업인	-11.4159
지스	-11.416
▁치우	-11.4161
▁앞서있다	-11.4161
▁힐러리경	-11.4162
▁자체적으로	-11.4163
▁줄리아	-11.4164
▁쿠즈	-11.4164
▁장애물	-11.4165
▁280	-11.4166
▁루즈	-11.4167
▁테러범이	-11.4167
▁금융계	-11.4168
▁불행	-11.4169
▁교실	-11.4169
▁공공장소에서	-11.4169
▁감수	-11.4171
▁비유	-11.4171
▁뉴스입니다	-11.4172
▁근본	-11.4172
▁취업	-11.4172
▁높았다	-11.4173
▁교황이	-11.4174
▁감행한	-11.4175
▁운전자들	-11.4176
▁치아	-11.4176
▁팔아	-11.4177
▁치료법	-11.4182
▁동상	-11.4182
▁전념	-11.4182
▁합법적으로	-11.4185
▁박차	-11.4186
▁들소	-11.4187
▁금주	-11.419
56	-11.4191
▁대표와	-11.4192
▁샬	-11.4193
▁수영장	-11.4193
단체인	-11.4194
94	-11.4194
▁젠	-11.4195
▁신선	-11.4196
▁금연법	-11.4197
▁들어왔다	-11.4197
▁펜실베이니아주	-11.4197
▁240	-11.4199
▁마련해	-11.4199
▁크라우	-11.4202
▁합법적인	-11.4203
▁하와	-11.4203
▁사우	-11.4204
▁남부지역	-11.4206
▁수송기	-11.4206
▁매치	-11.4206
▁예상치	-11.4207
▁내달	-11.4213
▁왕국	-11.4215
바인	-11.4215
▁문어	-11.4215
▁주심	-11.4216
▁의자	-11.4216
▁도시들	-11.4217
▁조화	-11.4219
▁출판사	-11.422
▁투표소	-11.422
▁착용한	-11.4222
▁2008091	-11.4222
▁북한군	-11.4223
▁양곤에서	-11.4223
▁라파	-11.4225
▁하퍼	-11.4227
▁비티	-11.4227
▁기르	-11.4227
▁의존하고	-11.4228
▁검	-11.4229
▁전용기	-11.4232
▁장점	-11.4235
▁교착상태에	-11.4235
케르	-11.4236
▁당선됐다	-11.4236
▁올드	-11.4237
▁혼인	-11.4238
▁107	-11.424
▁측면에서	-11.4241
973	-11.4241
세포	-11.4241
▁엠	-11.4242
▁서울대	-11.4243
▁고리	-11.4245
▁영화관	-11.4247
허가	-11.4248
▁생물학적	-11.4249
▁당이	-11.4251
▁임명했다	-11.4253
▁우주센터	-11.4254
▁빼고	-11.4255
▁실질적으로	-11.4256
▁조차	-11.4257
▁대면	-11.4262
▁음와	-11.4263
▁목에	-11.4263
▁랩	-11.4269
▁국가와	-11.427
▁자식	-11.4275
원에서	-11.4275
▁이슬라마바드에서	-11.4277
▁오르기	-11.4278
▁분리주의자들	-11.4281
▁의문이	-11.4281
만여명	-11.4282
▁이행할	-11.4283
▁토레	-11.4286
▁인종차별	-11.4286
▁변수	-11.4287
▁등정	-11.4288
판매	-11.4288
▁배심원단은	-11.4293
▁집이	-11.4295
▁발견해	-11.43
▁하기로	-11.4301
▁카불에서	-11.4303
▁손상된	-11.4303
▁이사장	-11.4304
88	-11.4307
▁컨	-11.4312
▁다운	-11.4314
배로	-11.4316
▁처했다	-11.4316
▁조사팀	-11.4321
▁붕괴되	-11.4324
▁경찰관이	-11.4325
▁찾았	-11.4326
▁결의안이	-11.4328
▁적게	-11.4329
달러가	-11.433
▁잃어	-11.433
▁궤도에	-11.4332
조건	-11.4333
▁언론인	-11.4334
▁하우스	-11.4336
란다	-11.4337
▁시행되	-11.4337
83	-11.4338
▁이끌어내	-11.4338
▁작전이	-11.4339
▁대응할	-11.434
▁벨리	-11.434
▁모델로	-11.4344
▁유전적	-11.4346
퍼스	-11.4347
▁다치	-11.4347
▁확보해	-11.4348
▁수용소에	-11.4349
▁확보에	-11.4351
▁전염	-11.4354
▁발효	-11.4355
▁사람으로	-11.4358
▁기념하	-11.4358
▁서명한	-11.4359
▁충돌해	-11.4361
▁정보원	-11.4362
▁흐	-11.4364
▁입히	-11.4366
▁지원에	-11.4366
▁차지했	-11.4372
내기	-11.4373
▁등록된	-11.4374
척이	-11.438
▁센터에서	-11.4381
▁칼로	-11.4383
내려	-11.4384
▁얀	-11.4385
보트	-11.4388
있으며	-11.4393
▁포기한	-11.4399
▁행정부에	-11.44
▁결장	-11.4401
▁제방	-11.4407
▁제품들	-11.4408
▁맞을	-11.4409
▁전사들	-11.4411
▁사고기	-11.4415
▁일반인	-11.4415
▁운영되	-11.4416
▁회전	-11.442
▁바라보	-11.4427
빨	-11.4428
▁혈	-11.4431
▁강화된	-11.4431
▁회복하고	-11.4432
▁파괴되	-11.4437
▁우려해	-11.4438
▁과다	-11.4442
▁응원	-11.4446
▁가나	-11.445
대통령	-11.4455
▁위험하다	-11.4465
▁농촌	-11.4465
▁십년	-11.4467
버거	-11.4472
▁프로그램에서	-11.4473
▁나이에	-11.4477
▁층	-11.4478
휘	-11.4481
촉	-11.4486
사무소	-11.4486
훈련	-11.4487
▁97	-11.4487
털	-11.4487
▁졌다	-11.4487
금융	-11.4489
▁중단됐	-11.449
퍼센트인	-11.4492
▁수준에	-11.4497
▁장면은	-11.4498
생산	-11.4503
▁가야	-11.4505
▁팀에	-11.4506
배우	-11.4506
▁스티	-11.4507
▁언급하	-11.4508
▁울리	-11.4512
▁지어	-11.4513
적이지	-11.4514
▁교회에	-11.4514
▁사나	-11.4516
▁연구자들	-11.4516
교회	-11.4519
경기에	-11.4519
▁클리	-11.4519
회장	-11.452
▁감동	-11.452
▁합법적	-11.4521
▁심리학	-11.4522
▁소행이라	-11.4522
▁치명적	-11.4522
티스	-11.4529
메스	-11.4536
려면	-11.4538
▁경찰관들	-11.4541
▁하위	-11.4541
▁공로	-11.4541
▁부분에	-11.4542
▁물의	-11.4542
▁이용했다	-11.4542
상품	-11.4543
▁무장세력과	-11.4544
▁유대인들	-11.4546
▁근본적	-11.4553
▁팔레스타인인	-11.4554
▁해법	-11.4555
▁노인들	-11.4557
▁조사관	-11.4557
▁우호적	-11.456
만대	-11.4561
▁올림픽에서	-11.4564
▁폭발물이	-11.4566
▁통신에	-11.4575
▁몰리	-11.4576
▁이뤄졌	-11.4577
▁외계	-11.4582
▁가혹	-11.4582
▁금요일에	-11.4583
▁기록됐다	-11.4587
▁정규	-11.4587
▁직면하	-11.4589
▁연구하는	-11.4593
▁중력	-11.4598
르트	-11.4598
▁관계자와	-11.4599
98	-11.4599
아갈	-11.4601
▁걸리는	-11.4603
▁그룹은	-11.4605
텍	-11.4605
수단	-11.4605
▁만지	-11.4606
▁바다에	-11.4607
▁지지했다	-11.4609
▁태어났	-11.461
▁해역	-11.461
▁션	-11.4613
▁조세	-11.4616
트릭	-11.4616
▁벌여왔	-11.4618
▁월터	-11.462
▁밀집	-11.4621
십만	-11.4621
▁한명	-11.4622
▁미네소타	-11.4625
▁관리들과	-11.4627
▁미주리	-11.4628
▁선박들	-11.4628
▁시달	-11.4631
획	-11.4632
첩	-11.4633
칙	-11.4633
뒀	-11.4634
븐	-11.4634
▁존재하	-11.4635
파크	-11.4635
▁수단으로	-11.4636
엽	-11.4637
펀	-11.4637
윗	-11.4637
▁앵커	-11.4637
랫	-11.4637
▁갖췄다	-11.4637
▁갤러리	-11.4637
▁겪은	-11.4637
▁끊어	-11.4637
▁네그로폰테	-11.4637
▁뉴욕상업거래소	-11.4637
▁뚜렷	-11.4637
▁매카트니	-11.4637
▁뭔가	-11.4637
▁비아그라	-11.4637
▁쌓인	-11.4637
▁쓰러져	-11.4637
▁아흐마디네자드	-11.4637
▁영유권	-11.4637
▁유네스코	-11.4637
▁자민당	-11.4637
▁주최한	-11.4637
▁중앙정보국	-11.4637
▁즈보나레바	-11.4637
▁해안경비대	-11.4637
▁현수막	-11.4637
뜯	-11.4637
▁신생아	-11.4637
▁갱단	-11.4637
▁마리화나	-11.4637
▁센트럴	-11.4637
▁딜런	-11.4638
▁로날드	-11.4638
▁아폴로	-11.4638
▁홈구장	-11.4638
▁포츠머스	-11.4638
▁헝가리	-11.4638
▁몰아넣	-11.4638
▁해들리	-11.4638
▁무자비	-11.4638
▁핑크	-11.4638
▁프리츨	-11.4638
▁함부르크	-11.4638
▁발자국	-11.4638
▁강원도	-11.4638
▁마스리	-11.4638
▁휴이트	-11.4638
▁룰라	-11.4638
▁게놈	-11.4638
▁독특	-11.4638
▁다이앤	-11.4638
▁개들	-11.4638
▁연못	-11.4638
▁체첸	-11.4638
▁친척들	-11.4638
▁웰스	-11.4638
▁출항	-11.4638
▁혜성	-11.4638
▁가르시아	-11.4638
▁오스만	-11.4639
▁혼잡	-11.4639
▁눈보라	-11.4639
▁척추	-11.4639
▁순결	-11.4639
▁참의원	-11.4639
▁도미니카	-11.4639
▁무하마	-11.4639
▁창업자	-11.4639
▁잠비아	-11.4639
▁피해여성	-11.464
▁제이슨	-11.464
▁나이로	-11.464
▁내놓았다	-11.464
▁매도프	-11.464
▁좌우	-11.464
▁막으려	-11.4641
▁거슬러	-11.4641
▁돌풍	-11.4641
▁선고받았다	-11.4641
▁파이프	-11.4642
▁야외	-11.4642
▁묻혀	-11.4643
▁인질극	-11.4643
▁정확하게	-11.4643
▁기원전	-11.4643
▁비참	-11.4644
▁단언	-11.4644
▁1945	-11.4645
▁훔쳐	-11.4645
▁재앙	-11.4645
▁막았다	-11.4645
▁버려진	-11.4645
▁독립국가	-11.4646
▁초드리	-11.4647
▁티모	-11.4647
▁해리슨	-11.4647
▁악마	-11.4647
▁도착하자	-11.4647
▁조사결과	-11.4648
▁사라질	-11.4648
▁135	-11.4648
▁동거	-11.4649
▁복사	-11.4649
▁있느냐	-11.4649
▁조립	-11.465
▁걸음	-11.465
▁인수위원회	-11.4651
▁크로스	-11.4651
▁흘리	-11.4651
▁순수	-11.4652
▁배역	-11.4653
▁투여	-11.4654
▁만연	-11.4655
트와	-11.4655
▁카이로	-11.4655
▁구두	-11.4655
▁남긴	-11.4656
▁구성원	-11.4656
▁점심	-11.4657
▁부양	-11.4658
▁제조업	-11.4658
▁1300	-11.4658
이상	-11.4659
▁케이스	-11.466
▁살리기	-11.4661
▁작가들	-11.4662
▁무거	-11.4663
▁가이드	-11.4664
▁혐의와	-11.4664
▁잡혔다	-11.4665
▁멍	-11.4665
▁그래픽	-11.4666
▁제기됐다	-11.4667
▁지방법원	-11.4668
▁가져왔다	-11.4671
▁아이오와주	-11.4671
▁만회	-11.4672
▁안고	-11.4672
▁사무국장	-11.4672
▁목성	-11.4674
▁정박	-11.4674
▁실었다	-11.4676
▁도피	-11.4678
▁동력	-11.4679
▁페트로	-11.4679
▁예산안	-11.468
▁레이드	-11.468
▁추종자들	-11.468
▁중태	-11.4682
▁버드	-11.4684
▁났	-11.4685
▁포즈	-11.4686
▁포크	-11.4686
▁버린	-11.4686
▁만나고	-11.4686
▁리우	-11.4687
▁일했다	-11.4687
▁마루	-11.4687
▁손길	-11.4689
▁자파	-11.469
▁참석하는	-11.4691
▁티나	-11.4692
▁2200	-11.4692
▁통과된	-11.4693
▁토드	-11.4693
비드	-11.4696
▁죽였다	-11.4696
▁카디	-11.4701
▁태세	-11.4702
▁따내	-11.4702
▁구속했다	-11.4702
▁서구	-11.4702
대상	-11.4703
▁관광객들에게	-11.4703
▁중립	-11.4704
월말	-11.4705
▁격돌한	-11.4706
▁기용	-11.4706
슬러	-11.4708
▁방사	-11.4711
▁번개	-11.4712
▁기각했다	-11.4713
▁수준이다	-11.4716
▁주장했	-11.4718
▁따라잡	-11.472
▁캐나다에서	-11.4722
▁편집장	-11.4722
▁개정된	-11.4724
▁예고	-11.4724
▁요구한다	-11.4728
▁빨라	-11.4729
▁집어	-11.4733
▁공개될	-11.4733
▁끌어내	-11.4734
▁발표되지	-11.4737
▁대통령으로서	-11.4741
▁추락해	-11.4744
▁본회의	-11.4748
▁없었고	-11.4751
▁본인	-11.4751
▁쓰인	-11.4752
▁공격해	-11.4757
▁북해	-11.4758
▁부분에서	-11.4759
▁숨어	-11.4759
▁이제까지	-11.476
함이	-11.476
▁연행됐다	-11.4761
▁미얀마에	-11.4765
▁평방	-11.4766
▁견디	-11.4766
▁여행사	-11.4768
▁여왕이	-11.4769
▁적도	-11.4769
아누	-11.4771
능력	-11.4772
▁마시는	-11.4784
워진	-11.4788
▁정해진	-11.4788
▁명확한	-11.4788
▁거론	-11.4791
▁심리적	-11.4792
▁길게	-11.4792
▁주전	-11.4796
노스	-11.4796
▁주시하	-11.4797
▁나타난다	-11.4799
▁하락했	-11.48
▁이집트에서	-11.4803
▁마주	-11.4804
▁지나간	-11.481
개로	-11.481
▁신뢰할	-11.4811
▁대장	-11.4813
▁잘라	-11.4814
▁제의	-11.4814
▁노린	-11.4815
비안	-11.4819
▁빌라	-11.4819
▁이겨	-11.482
▁두번째로	-11.4828
17	-11.4829
▁과거사	-11.483
▁차이나	-11.4833
54	-11.4833
▁랜드	-11.4838
▁지르	-11.4838
▁위협받	-11.4839
▁조심	-11.4842
▁농부들	-11.4842
▁광장에서	-11.4843
스프링스	-11.4844
▁결정하지	-11.4844
▁잡았	-11.4844
▁센터에	-11.4846
▁제품이	-11.4846
▁정신병	-11.4858
▁보장하	-11.4863
라기	-11.4865
성과	-11.4868
건설	-11.4878
▁자랑하	-11.4881
워스	-11.4886
▁무대에	-11.4895
▁그곳	-11.4895
유지	-11.4898
▁주석이	-11.4898
데릭	-11.4899
▁지켜보고	-11.4902
▁높이기	-11.4904
▁납치됐	-11.4906
명씩	-11.4912
▁아서	-11.4914
▁경기장에서	-11.4915
▁일부에서	-11.4918
▁보내지	-11.4921
▁외곽에	-11.4927
타로	-11.4927
보면	-11.4931
▁하드	-11.4933
▁동물원에서	-11.4933
▁구속됐다	-11.4933
▁전비	-11.4934
▁조사하는	-11.4936
▁도와	-11.4938
방법	-11.4938
▁잡을	-11.4938
▁팔레스타인인들	-11.4943
▁북한측	-11.4943
38	-11.4944
▁전제	-11.4945
▁했는지	-11.4947
▁추산	-11.4951
단지	-11.4952
▁동의한다	-11.4952
▁운항이	-11.4958
▁샌프란시스코에서	-11.4959
79	-11.4961
▁이성	-11.4961
▁권했다	-11.4962
▁하나다	-11.4967
▁농부	-11.4967
하느냐	-11.497
정치	-11.497
▁째	-11.4972
▁롭	-11.4983
▁그루	-11.4983
▁일년	-11.499
첸	-11.5008
앞	-11.5009
딕	-11.501
마라	-11.5011
▁이었다	-11.5012
전략	-11.5013
클럽	-11.5015
앨	-11.5015
▁해왔	-11.5019
▁아사	-11.5019
개월이	-11.5019
상자	-11.502
▁미끄러	-11.5028
브레	-11.5035
▁시청자	-11.5039
▁나간	-11.5041
부장	-11.5045
▁고속도로에서	-11.5046
▁별개	-11.5046
▁설립했다	-11.5049
살된	-11.5052
▁곤	-11.5052
뉴스	-11.5054
▁생산된	-11.5056
▁방문한다	-11.5057
신원	-11.506
▁내부에서	-11.5064
▁발표했	-11.5064
▁210	-11.5067
공원	-11.5069
▁않았다면	-11.5071
▁업무에	-11.5073
호프	-11.5074
▁서기	-11.5075
카트	-11.5076
실에	-11.5083
▁마드리드에서	-11.5084
▁임무에	-11.5087
▁모가디슈	-11.5087
▁절반이	-11.5092
▁역할에	-11.5095
▁145	-11.5097
▁배우자	-11.5099
해도	-11.5101
봤다	-11.5103
▁차량과	-11.5106
전화	-11.5108
마크	-11.5109
▁들어왔	-11.5109
▁인체	-11.5112
▁실종됐	-11.5115
▁탔	-11.5118
컷	-11.5124
700	-11.5129
까요	-11.513
▁피플	-11.5133
▁결렬	-11.5137
▁아비	-11.514
있다고	-11.5142
▁회사에서	-11.5143
▁여론조사에	-11.5146
▁라드	-11.5148
▁통과했다	-11.5159
듬	-11.5162
▁혐오	-11.5162
랙	-11.5163
▁첨단	-11.5164
▁가깝게	-11.5164
▁가솔린	-11.5164
▁꿀벌	-11.5164
▁니스텔로이	-11.5164
▁동성결혼	-11.5164
▁디스플레이	-11.5164
▁르완다	-11.5164
▁리트비넨코	-11.5164
▁메르세데스	-11.5164
▁박정희	-11.5164
▁방코델타아시아	-11.5164
▁버틀러	-11.5164
▁베를루스코니	-11.5164
▁상임이사국	-11.5164
▁성매매	-11.5164
▁스즈키	-11.5164
▁신행정수도	-11.5164
▁아제르바이잔	-11.5164
▁앙카라	-11.5164
▁애틀랜티스호	-11.5164
▁옥스포드	-11.5164
▁와이오밍	-11.5164
▁요하네스버그	-11.5164
▁인공위성	-11.5164
▁자르카위	-11.5164
▁좋겠다	-11.5164
▁초콜릿	-11.5164
▁최다	-11.5164
▁칠면조	-11.5164
▁키드먼	-11.5164
▁토튼햄	-11.5164
▁핸드폰	-11.5164
▁햇볕	-11.5164
▁흑자	-11.5164
넥	-11.5164
늬	-11.5164
옌	-11.5164
▁니제르	-11.5164
▁미항공우주국	-11.5164
▁밀라노	-11.5164
▁영사관	-11.5164
▁재규어	-11.5164
▁합법화	-11.5164
▁순이익	-11.5164
▁조선일보	-11.5164
▁오사카	-11.5164
▁원자재	-11.5164
▁카펠로	-11.5164
200701	-11.5164
▁사직서	-11.5164
▁비너스	-11.5164
▁대운하	-11.5164
▁징조	-11.5164
▁나뉘어	-11.5164
▁선거유세	-11.5164
▁막바지	-11.5164
▁불매운동	-11.5164
▁셰퍼드	-11.5164
▁관절염	-11.5164
▁나이트클럽	-11.5164
▁사형선고	-11.5164
▁심장질환	-11.5164
▁페라로	-11.5164
▁블랙워터	-11.5164
▁반짝이	-11.5164
▁참혹	-11.5164
▁즐거움	-11.5164
▁프라이스	-11.5164
▁현대자동차	-11.5164
▁번화가	-11.5164
▁묵념	-11.5164
▁드라이브	-11.5164
▁정권인수팀	-11.5164
▁몸싸움	-11.5164
▁액션	-11.5164
▁파란색	-11.5165
▁휘말	-11.5165
▁바오로	-11.5165
▁인내심	-11.5165
▁와일드	-11.5165
▁빠져나가	-11.5165
▁제약회사	-11.5165
▁군복무	-11.5165
▁관례	-11.5166
▁잠수함	-11.5166
▁재건축	-11.5166
▁그린존	-11.5166
▁크리스틴	-11.5166
▁쏟아져	-11.5166
▁정회장	-11.5166
▁파라오	-11.5166
▁형벌	-11.5166
▁휴먼	-11.5166
▁노워크	-11.5166
▁부유층	-11.5167
▁스테판	-11.5167
▁불빛	-11.5167
▁오닐	-11.5167
▁직무	-11.5167
▁어디서	-11.5167
▁가정집	-11.5167
▁연합통신	-11.5168
▁꾸미	-11.5168
▁괴물	-11.5168
▁생물체	-11.5168
▁환급	-11.5168
▁연봉	-11.5168
▁난항	-11.5168
▁찍힌	-11.5168
▁소방차	-11.5169
▁부국장	-11.5169
▁너	-11.5169
▁아흐메드	-11.5169
▁이송됐으	-11.5169
시킴	-11.517
▁상징으로	-11.517
▁마스크	-11.517
▁숨져	-11.517
▁표범	-11.517
▁측근들	-11.517
▁라이더	-11.5171
▁리틀	-11.5171
▁드러나	-11.5171
▁요구사항	-11.5172
▁푸미	-11.5172
▁샤리아	-11.5172
▁가져오	-11.5172
▁접종	-11.5173
▁낳았다	-11.5173
▁개체	-11.5173
▁꼬리	-11.5173
▁법령	-11.5173
▁기다렸다	-11.5173
▁사귀	-11.5174
▁카누	-11.5174
▁그레이스	-11.5174
▁난처	-11.5174
81	-11.5175
▁승진	-11.5175
▁저격	-11.5175
▁속출	-11.5175
▁국토	-11.5176
▁반란군	-11.5176
▁굽	-11.5176
▁퓨	-11.5176
▁미시건주	-11.5177
▁경감	-11.5177
▁명절	-11.5178
▁사과문	-11.5178
▁각료회의	-11.5179
▁달했다	-11.5179
▁우표	-11.5179
▁사립	-11.518
▁발언이	-11.5182
▁만들어졌다	-11.5182
▁카렌	-11.5182
▁지켜봤다	-11.5182
▁표정	-11.5182
▁유타주	-11.5182
▁루이지애나주	-11.5184
▁테디	-11.5184
▁대통령궁	-11.5184
▁벤치	-11.5185
▁며칠간	-11.5186
▁그런데	-11.5186
놨다	-11.5186
▁생길	-11.5187
▁얼리	-11.5187
▁매설	-11.5188
▁넘겼다	-11.5189
▁반세기	-11.5191
▁당사	-11.5192
▁치타	-11.5193
▁기준에	-11.5193
▁형량	-11.5194
▁변호사와	-11.5195
▁효율	-11.5195
73	-11.5195
▁5500	-11.5198
▁들어있다	-11.5199
▁슈퍼대의원	-11.5199
▁펜실베니아주	-11.52
▁임상	-11.52
▁거행	-11.52
▁4500	-11.5202
▁발표되	-11.5204
순위	-11.5205
▁구직	-11.5205
▁반경	-11.5206
▁소원	-11.5206
런스	-11.5206
▁친분	-11.5207
▁쉴	-11.5207
▁날려	-11.521
▁확정된	-11.521
▁찔	-11.521
▁들렸다	-11.521
▁연관성	-11.5212
▁은신	-11.5213
▁주장했었다	-11.5213
▁총력	-11.5214
▁책상	-11.5218
▁회복세	-11.5218
▁띠	-11.5218
▁돌진	-11.5218
▁북부지역	-11.5218
▁미션	-11.5219
▁청소년들	-11.522
▁인내	-11.522
▁레비	-11.5222
▁자질	-11.5223
▁카카	-11.5223
▁분주	-11.5223
▁질병에	-11.5224
▁끝나기	-11.5226
▁저하	-11.5226
▁루트	-11.5227
▁보잉사	-11.5227
▁이빨	-11.5228
▁국가적	-11.5229
▁압도적으로	-11.5229
▁쉽다	-11.5229
▁천국	-11.5229
▁예상한	-11.5232
▁입원해	-11.5233
▁나포	-11.5233
▁불행한	-11.5233
51	-11.5234
▁우수	-11.5234
▁거래되	-11.5236
▁반응이	-11.5237
▁수장	-11.5243
▁구속력	-11.5244
▁의약	-11.5246
▁가담한	-11.5248
▁작품이	-11.525
▁나노	-11.525
▁독자적	-11.5254
▁공작	-11.5254
▁민족주의	-11.5255
▁벌인다	-11.5258
마드	-11.5258
▁흘	-11.5258
▁건스	-11.526
▁산책로	-11.5262
▁복도	-11.5262
▁타개	-11.5264
▁놓치	-11.5268
▁다닐	-11.5271
▁모색하고	-11.5272
▁해외로	-11.5272
▁하루만	-11.5273
▁이겼다	-11.5287
▁한창	-11.5291
요원들	-11.5291
▁정서	-11.5296
▁기업에	-11.5298
▁국경지역에서	-11.5299
평가	-11.53
▁인종적	-11.53
여건	-11.5301
▁무너지고	-11.5306
▁매도	-11.531
▁사람들에	-11.531
▁교사들	-11.5316
▁플로리다에	-11.5317
▁보스	-11.5318
▁중장	-11.5318
▁인사들과	-11.532
▁금지된	-11.5325
벨라	-11.5327
▁사원에	-11.5328
▁말하	-11.5328
▁기기	-11.5329
▁진압하기	-11.5329
▁놓인	-11.5329
▁몰아내	-11.5333
▁전년	-11.5336
▁남쪽에	-11.5336
▁추방된	-11.5338
▁고독	-11.5338
▁느	-11.5338
▁현대적	-11.5339
▁법규	-11.5339
▁줄어	-11.534
타카	-11.5342
▁추측이	-11.5352
▁희생됐다	-11.5354
▁설명하지	-11.5355
▁청문회에서	-11.5355
▁져야	-11.5362
리드	-11.5364
▁84	-11.5366
▁여명	-11.5367
시민	-11.5367
▁번호	-11.5369
▁매춘부	-11.5369
▁증상이	-11.5372
▁클레이	-11.5372
밀리에	-11.5373
▁원주민들	-11.5375
▁부시와	-11.5376
▁크루	-11.5381
▁건물들	-11.5381
▁해안가	-11.5382
▁메가	-11.5385
▁정치가	-11.5386
▁얼굴에	-11.5386
▁지지해	-11.539
▁지시한	-11.539
▁행복한	-11.5392
▁요청했	-11.5392
▁화면에	-11.5394
가렛	-11.5397
▁가시	-11.5401
▁도발적	-11.5403
61	-11.5403
▁기독교인	-11.5407
▁조심스럽	-11.5408
▁느끼지	-11.5408
명이다	-11.5408
▁환경에서	-11.5408
▁참여하고	-11.5409
▁레인	-11.5409
▁호전	-11.5418
▁가져가	-11.542
▁롱	-11.5426
▁거부할	-11.5427
▁시드니에서	-11.5432
▁살아있	-11.5437
▁목적지	-11.5442
▁월스트리트에서	-11.5442
▁기술자들	-11.5443
▁않았기	-11.5448
▁동원됐다	-11.5449
▁결혼한	-11.545
▁여당이	-11.5452
서야	-11.5454
▁에바	-11.5456
▁주어진	-11.5457
▁실직자	-11.5459
▁가하는	-11.546
▁권장	-11.5463
▁부각	-11.5467
▁여행자	-11.5468
▁불만이	-11.547
▁콜로	-11.5477
▁유학	-11.5479
▁위원회에	-11.5484
▁병장	-11.5484
▁손실이	-11.5487
즘	-11.5488
▁마티	-11.5491
▁이어져	-11.5493
▁타지	-11.5494
▁때보다	-11.5494
▁세상에	-11.5495
▁만들어지	-11.5498
▁미안	-11.5498
▁구사	-11.5506
▁비난해	-11.5507
▁시위대에	-11.551
▁어기	-11.5512
▁북쪽에	-11.5512
▁자원봉사자들	-11.5526
▁금지했다	-11.5535
▁제작했다	-11.5536
줬	-11.5536
▁위원회에서	-11.5538
닐	-11.5539
▁미미	-11.5543
▁다리에	-11.5553
▁국무장관과	-11.5559
브리지	-11.5559
활	-11.5559
▁친절	-11.5565
▁따르지	-11.5567
랩	-11.5567
965	-11.5569
턱	-11.557
뒤	-11.557
저널	-11.5571
첨	-11.5571
▁관람객	-11.5573
▁통신원	-11.5573
▁벌이다	-11.5574
▁허용했다	-11.5574
▁국가들에	-11.5575
▁정상회담에	-11.5577
▁후보였	-11.5579
진압	-11.5584
▁호스	-11.5585
조약	-11.5588
군데	-11.559
에너지	-11.5596
▁사용된다	-11.5601
바락	-11.5601
▁되자	-11.5602
▁제국	-11.5602
▁패했다	-11.5611
▁생겼	-11.5614
▁노출된	-11.5616
▁싼	-11.5617
방식	-11.562
▁죽고	-11.562
▁상반	-11.5626
▁우리들	-11.5626
▁다해	-11.5633
▁조장	-11.5637
▁계획이었다	-11.5637
▁발명	-11.5648
▁임원들	-11.5653
▁헌법에	-11.5656
▁기술에	-11.566
▁시달리	-11.5669
▁괴롭	-11.5673
하드	-11.5673
▁충격적	-11.5675
럭	-11.5681
20051	-11.5681
▁촉진시키	-11.5682
▁훔	-11.5685
루드	-11.5686
▁소방서	-11.5691
심리	-11.5692
▁들려	-11.5692
▁터뜨	-11.5703
▁극단주의	-11.5704
▁계열	-11.5704
▁바람직	-11.5704
▁사진기자	-11.5705
92	-11.5708
▁차량에서	-11.571
7500	-11.5712
옹	-11.5716
모리	-11.5717
깃	-11.5718
▁가석방	-11.5718
쿤	-11.5718
▁힌두	-11.5718
▁밀매	-11.5719
▁살모넬라	-11.5719
▁쫓겨	-11.5719
▁개성공단	-11.5719
▁걸림돌	-11.5719
▁경기후퇴	-11.5719
▁국제올림픽위원회	-11.5719
▁긱스	-11.5719
▁남우주연상	-11.5719
▁뉴잉글랜드	-11.5719
▁늦추	-11.5719
▁독극물	-11.5719
▁라크시미	-11.5719
▁바랍니다	-11.5719
▁새크라멘토	-11.5719
▁샌안토니오	-11.5719
▁서둘러	-11.5719
▁선거기부금	-11.5719
▁세골렌	-11.5719
▁아프카니스탄	-11.5719
▁악천후	-11.5719
▁애슐리	-11.5719
▁옮겼다	-11.5719
▁유엔사무총장	-11.5719
▁이바노비치	-11.5719
▁잠깐	-11.5719
▁재결합	-11.5719
▁제퍼슨	-11.5719
▁지켰다	-11.5719
▁췌장암	-11.5719
▁컸다	-11.5719
▁쿠즈넷소바	-11.5719
▁키티호크	-11.5719
▁트러스트	-11.5719
▁하드웨어	-11.5719
▁헐리우드	-11.5719
▁홍석현	-11.5719
▁히스패닉	-11.5719
캇	-11.5719
▁깁슨	-11.5719
▁대법관	-11.5719
▁불공정	-11.5719
▁엑스파일	-11.5719
쯔	-11.5719
▁깁스	-11.5719
▁나타날	-11.5719
▁승부차기	-11.5719
▁유동성	-11.5719
▁추기경	-11.5719
▁루카스	-11.5719
▁산체스	-11.5719
▁다둘라	-11.5719
▁스프레이	-11.5719
▁하니야	-11.5719
▁개구리	-11.5719
▁백과사전	-11.5719
▁말레이시아에서	-11.5719
▁욕구	-11.5719
▁핀란드	-11.5719
▁즐겁	-11.5719
▁무효	-11.572
▁바시르	-11.572
▁희귀	-11.572
▁진짜	-11.572
▁캐롤라인	-11.572
▁교도통신	-11.572
▁하이킹	-11.572
▁어렸을	-11.572
▁그리핀	-11.572
▁글로리아	-11.572
▁탈퇴	-11.572
▁바레인	-11.572
▁즐겨	-11.572
▁음향	-11.572
▁역전승	-11.5721
▁항구도시	-11.5721
▁기념행사	-11.5721
▁국제축구연맹	-11.5721
▁잠자리	-11.5721
▁쿠마르	-11.5721
▁벌어질	-11.5721
▁핵연료	-11.5721
▁잠겨	-11.5722
▁호황	-11.5722
▁플루	-11.5722
▁오래전부터	-11.5722
▁주어지	-11.5722
▁양육	-11.5722
▁어워드	-11.5722
▁액체	-11.5722
▁빙산	-11.5723
▁어윈	-11.5723
▁들어올	-11.5723
▁컬럼비아호	-11.5723
▁디젤	-11.5723
▁평화협정	-11.5723
▁그만두	-11.5724
▁실망감	-11.5724
▁교류	-11.5724
▁상태였	-11.5724
▁오디오	-11.5725
▁루머	-11.5725
▁기네스	-11.5725
▁이어갔다	-11.5726
▁중동평화회의	-11.5726
▁충성	-11.5727
▁무척	-11.5727
▁카타르	-11.5727
▁기사에	-11.5727
▁에밀리	-11.5727
▁오리건주	-11.5727
▁표본	-11.5729
지도자	-11.5729
▁누출	-11.573
▁잔디	-11.573
▁수익금	-11.573
▁빅토	-11.573
▁반테러	-11.5731
▁모여들었다	-11.5731
▁의논	-11.5731
▁미주리주	-11.5731
▁종사하	-11.5732
▁강철	-11.5732
▁진동	-11.5732
▁개월	-11.5732
▁기대감	-11.5733
▁현저	-11.5733
▁탈선	-11.5733
▁출산율	-11.5733
▁회교도	-11.5734
▁밝혀질	-11.5734
▁어류	-11.5734
▁꺼내	-11.5734
보장	-11.5734
할때	-11.5736
▁제왕	-11.5736
▁아담스	-11.5737
▁궁극적으로	-11.5738
▁구제금융안	-11.5738
▁로렌스	-11.5738
▁가져야	-11.5739
▁표결에	-11.574
▁정복	-11.574
▁로렌	-11.574
▁소유즈	-11.5741
▁통제권	-11.5741
▁자동차회사	-11.5741
▁존재하지	-11.5741
▁비스타	-11.5741
▁변호인단	-11.5741
▁200702	-11.5741
▁1930	-11.5742
▁메모리얼	-11.5742
▁과감	-11.5742
▁안았다	-11.5742
▁불량	-11.5743
▁진척	-11.5743
▁과속	-11.5744
▁자동차업체	-11.5744
▁토티	-11.5744
▁126	-11.5744
▁돌파구	-11.5745
▁망치	-11.5745
▁코란	-11.5745
▁감당	-11.5745
투자	-11.5746
▁않을까	-11.5747
▁부의장	-11.5747
▁난관	-11.5747
▁친미	-11.5749
▁성실	-11.5749
▁사료	-11.575
▁썩	-11.575
▁재계	-11.5752
▁알아야	-11.5756
▁청와대에서	-11.5759
▁북극해	-11.5759
▁여러차례	-11.5762
▁항공편	-11.5763
▁3200	-11.5763
▁전인대	-11.5763
▁거울	-11.5764
▁준결승전에서	-11.5764
▁지하실	-11.5765
▁블루스	-11.5768
▁내외	-11.5769
▁분리된	-11.5771
세대	-11.5772
▁쇼에서	-11.5773
▁운동화	-11.5773
▁스티븐스	-11.5774
▁부패혐의	-11.5775
▁옮겨졌다	-11.5776
▁소비자들에게	-11.5776
▁라운드	-11.5777
▁체스	-11.5777
▁분개	-11.5777
▁리마	-11.5777
▁건의	-11.578
▁벗어나기	-11.5781
▁1100	-11.5781
▁변하지	-11.5782
▁확정됐다	-11.5784
잡이	-11.5784
▁수사팀	-11.5785
▁스트리트	-11.5786
▁쿠폰	-11.5788
▁군용	-11.5788
▁바탕으로	-11.5789
▁한국어	-11.5789
▁가혹한	-11.5789
▁새우	-11.5791
▁결정적	-11.5792
▁대미	-11.5792
객들	-11.5794
실에서	-11.5799
▁계약서	-11.5803
▁컬	-11.5804
▁지냈다	-11.5804
▁웬	-11.5805
▁거부하는	-11.5807
호선	-11.5812
▁허가했다	-11.5812
▁거주자	-11.5813
▁탈레반에	-11.5813
▁삼바	-11.5816
▁주말까지	-11.5816
▁내역	-11.5816
▁고려하	-11.5818
▁육지	-11.5819
▁반대해	-11.582
▁바꾸기	-11.5821
▁카라치에서	-11.5823
▁중위	-11.5824
▁클라인	-11.5826
▁축하하기	-11.5826
▁대위	-11.5828
▁생명에	-11.5837
▁선서	-11.5837
▁음식점	-11.5838
▁물건들	-11.5838
▁비로	-11.5841
▁뜨	-11.5846
▁중심부에서	-11.5847
▁사령부	-11.5848
▁의거	-11.5849
군요	-11.5854
▁플로리다에서	-11.5854
▁생각은	-11.5854
▁그녀에게	-11.5857
▁눈으로	-11.5859
▁자국민	-11.5861
▁떠나기	-11.5862
▁생사	-11.5866
▁공약으로	-11.5868
할지도	-11.587
▁통제하는	-11.587
▁이탈리아에서	-11.5871
▁가루	-11.5873
▁성장이	-11.5879
▁수신	-11.5881
▁죽었	-11.5885
▁주관	-11.5885
▁철회할	-11.5885
▁제공되	-11.5888
▁컴	-11.59
리언	-11.59
▁다양성	-11.5904
▁워싱턴주	-11.5905
▁농장에서	-11.5906
▁정부측	-11.5906
▁사라져	-11.5907
▁2008090	-11.5908
▁동요	-11.5909
▁조사관들	-11.5913
▁중단해야	-11.5915
▁타계했다	-11.5916
▁이재민들	-11.5917
▁지었다	-11.5919
▁생산성	-11.5923
▁주식시장에서	-11.5927
▁블로거	-11.5928
▁변호사들	-11.5933
탈루	-11.5934
▁농구	-11.5936
▁베니스	-11.5942
▁신뢰도	-11.5948
▁냈	-11.5955
▁방송인	-11.596
▁중심부에	-11.5961
▁누구에게	-11.5963
▁수십만	-11.5966
그램	-11.5966
▁부위에	-11.5967
▁합류했다	-11.5967
▁폭도	-11.5968
▁혁신적	-11.5971
▁취하기	-11.5973
▁장애인	-11.5976
▁트럭에	-11.5977
▁참석자들	-11.5978
▁예루살렘에서	-11.5978
▁정보에	-11.5978
▁회사측	-11.5982
▁우승했다	-11.5988
▁산업에	-11.5994
▁수단이	-11.6003
▁전차	-11.6006
문제에	-11.6006
▁사임한	-11.6013
▁자백했다	-11.6017
▁자백	-11.6017
▁관중들	-11.6021
▁텐	-11.6024
▁살아있다	-11.6024
▁마련하고	-11.6027
워크	-11.6028
▁그외	-11.6032
▁곤경에	-11.6038
죄	-11.6039
▁통과시키	-11.6044
▁사무실에	-11.6046
▁이르다	-11.6049
▁협력해	-11.6052
▁일일	-11.6057
받았	-11.6061
▁파티에	-11.6065
혁	-11.6072
▁보니	-11.6073
지역으로	-11.6077
▁죽음이	-11.6077
프트	-11.6079
▁메디컬	-11.6079
▁감소한	-11.608
▁병이	-11.6086
▁우주국	-11.6088
위와	-11.609
명이었다	-11.6092
났	-11.6094
▁타는	-11.6094
▁살기	-11.6094
▁보라	-11.6095
▁환자에게	-11.6096
▁물자	-11.6099
▁흔적이	-11.6104
▁결정하는	-11.6105
▁제한된	-11.6105
1974	-11.6105
▁개별	-11.6106
▁회의적	-11.6109
▁자행	-11.611
▁희망하	-11.6114
▁감소하고	-11.6115
대학교	-11.612
▁고층	-11.6121
▁출연할	-11.6122
▁흥분한	-11.6124
▁다나	-11.6124
▁마자	-11.6126
▁유튜브에	-11.6126
▁고르	-11.6127
▁배심원단	-11.613
관리국	-11.6132
▁사회에서	-11.6135
밤	-11.6137
혹	-11.6137
▁집권한	-11.6138
▁시작된다	-11.6142
▁목표에	-11.6142
▁그룹이	-11.6144
원장	-11.6144
주일간	-11.6144
▁침	-11.6146
▁취하는	-11.615
▁경제학	-11.615
▁거점	-11.6154
▁되는데	-11.6155
켄	-11.6156
쥐	-11.6156
재판소	-11.6157
아프리카	-11.6157
붙	-11.6157
핵	-11.6158
▁별장	-11.6159
▁여론이	-11.6159
잘	-11.6159
스텔	-11.6164
민족	-11.6164
▁제압하	-11.6165
▁무장세력들	-11.6167
업무	-11.6167
시간만	-11.6168
조합	-11.617
관광	-11.6172
집단	-11.6175
타스	-11.6176
▁스페인에서	-11.6176
▁대부	-11.6178
신청	-11.6181
▁아프간군	-11.6191
사단	-11.6193
▁넘었다	-11.6195
▁수학	-11.6199
▁작동되	-11.6203
▁신자들	-11.6205
▁상점들	-11.6206
07	-11.6206
▁적었다	-11.6209
시절	-11.6218
화씨	-11.622
글판	-11.6221
▁상황으로	-11.6225
▁달아	-11.6227
중단	-11.6229
▁압력에	-11.6231
그리	-11.6233
▁대항하는	-11.6234
▁보이기	-11.6244
▁해변에	-11.6245
▁재개했다	-11.625
87	-11.6257
▁소실	-11.6261
▁분리주의	-11.6261
▁이슬람교도	-11.6265
▁납부	-11.6265
▁좋았	-11.6271
▁거래에서	-11.6274
▁다할	-11.6276
▁당사자들	-11.6278
▁바라지	-11.6284
▁당선되	-11.6285
▁주차장	-11.629
▁미시건	-11.6293
▁죽어	-11.6294
▁브랜	-11.6296
▁공원에	-11.6298
▁준결승	-11.6298
▁일축	-11.6302
▁학자	-11.6302
흥	-11.6303
프레드	-11.6304
셉	-11.6304
▁국민과	-11.6304
둬	-11.6304
▁기지에	-11.6306
▁경쟁이	-11.6307
돔	-11.6307
놔	-11.6307
뮤	-11.6308
툰	-11.6308
▁고르바초프	-11.6308
▁구소련	-11.6308
▁금강산	-11.6308
▁뇌졸중	-11.6308
▁더글라스	-11.6308
▁듣게	-11.6308
▁리우데자네이루	-11.6308
▁먹어	-11.6308
▁메릴린치	-11.6308
▁몰랐다	-11.6308
▁미확인	-11.6308
▁민주노동당	-11.6308
▁바나프샤	-11.6308
▁볼티모어	-11.6308
▁블래터	-11.6308
▁샀다	-11.6308
▁스필버그	-11.6308
▁시에라리온	-11.6308
▁식품의약국	-11.6308
▁신시내티	-11.6308
▁아디다스	-11.6308
▁암스테르담	-11.6308
▁여중생	-11.6308
▁예방접종	-11.6308
▁위태롭게	-11.6308
▁인신매매	-11.6308
▁자페타	-11.6308
▁정보통신부	-11.6308
▁조류독감	-11.6308
▁준이치로	-11.6308
▁최장	-11.6308
▁최적	-11.6308
▁타이타닉	-11.6308
▁트리폴리	-11.6308
▁포유류	-11.6308
▁햇빛	-11.6308
▁확고한	-11.6308
▁흩어져	-11.6308
띤	-11.6308
샨	-11.6308
콥	-11.6308
텀	-11.6308
퐁	-11.6308
▁언젠가	-11.6308
▁정찰위성	-11.6308
▁존엄성	-11.6308
▁좁혀	-11.6308
▁쿼터백	-11.6308
▁항공모함	-11.6308
▁헤드폰	-11.6308
▁확립	-11.6308
▁1967	-11.6308
▁영업이익	-11.6308
▁다이어트	-11.6308
▁에스트라다	-11.6308
▁타디치	-11.6308
▁흥정	-11.6308
▁메이도프	-11.6308
▁대성당	-11.6308
▁버나드	-11.6308
▁카펫	-11.6308
▁스틸러스	-11.6308
▁치뤄	-11.6308
▁강대국	-11.6308
▁어쩔	-11.6308
▁고등학생	-11.6308
▁버크헤드	-11.6308
▁사진작가	-11.6308
▁패트로스	-11.6308
▁검정색	-11.6308
▁통합민주당	-11.6308
▁경수로	-11.6308
▁정착촌	-11.6308
▁낭독	-11.6308
▁슬픈	-11.6308
▁트랙	-11.6308
▁북아일랜드	-11.6308
▁진상조사	-11.6308
▁출혈	-11.6308
▁당뇨병	-11.6308
▁도망쳤다	-11.6308
▁국영언론	-11.6308
▁작가조합	-11.6308
▁노동조합	-11.6308
▁씨앗	-11.6308
▁빈민층	-11.6308
▁체험	-11.6308
▁블랙홀	-11.6309
▁휴전협정	-11.6309
▁출현	-11.6309
▁검역	-11.6309
▁사이언스	-11.6309
▁007	-11.6309
▁헬렌	-11.6309
▁식별	-11.6309
▁고아원	-11.6309
▁볼드윈	-11.6309
▁마스터즈	-11.6309
▁계약이	-11.6309
▁신흥	-11.6309
▁출처	-11.631
▁항의시위	-11.631
▁총파업	-11.631
▁리옹	-11.631
▁십자가	-11.631
▁축복	-11.631
▁찰리	-11.631
▁몰락	-11.631
▁키팅	-11.631
▁조세프	-11.6311
▁다저스	-11.6311
▁무효화	-11.6311
▁내륙	-11.6311
▁부활절	-11.6311
▁계승	-11.6311
▁프린트	-11.6311
▁절망	-11.6311
▁극복하	-11.6312
▁살인사건	-11.6312
▁무장조직	-11.6312
▁타임즈와	-11.6312
▁탄원서	-11.6312
▁연립	-11.6312
▁로리언	-11.6312
▁유독	-11.6312
▁용감	-11.6312
▁보건장관	-11.6312
▁흠	-11.6313
▁엔론	-11.6313
▁올라왔다	-11.6313
▁날로	-11.6313
▁특혜	-11.6314
▁제휴	-11.6314
▁피켓	-11.6314
▁머무르	-11.6314
▁종목	-11.6314
▁1976	-11.6315
▁완구	-11.6315
▁야망	-11.6315
▁켄트	-11.6316
▁근방	-11.6316
▁돌렸다	-11.6316
▁청산	-11.6317
▁집결	-11.6317
▁국무회의	-11.6317
▁환경단체	-11.6317
▁다르지	-11.6318
▁폴락	-11.6318
▁공산	-11.6318
▁지휘자	-11.6318
▁소년병	-11.6319
▁오델	-11.632
▁작위	-11.632
▁통신망	-11.632
▁견제	-11.6321
▁관제	-11.6321
▁737	-11.6321
▁넘긴	-11.6321
▁오르지	-11.6322
▁오프	-11.6323
▁강탈	-11.6323
▁할렘	-11.6323
▁2015	-11.6325
▁밀크	-11.6325
▁귀중	-11.6325
▁절정	-11.6326
▁질식	-11.6326
▁타워	-11.6327
▁발령했다	-11.6329
▁오찬	-11.6329
▁바다위	-11.6329
▁경찰국장	-11.633
▁악수	-11.633
▁배아줄기세포	-11.6331
▁점에	-11.6333
▁배출량	-11.6335
하트	-11.6335
▁주의보	-11.6335
▁휴전선	-11.6335
▁테크	-11.6336
▁점유	-11.6336
▁소포	-11.6336
▁공동체	-11.6337
▁270	-11.6337
▁격전	-11.6338
▁전해진	-11.6338
▁애리조나주	-11.6338
▁파란	-11.6338
▁지상군	-11.6339
▁틸리	-11.634
▁2030	-11.634
▁관용	-11.634
▁자재	-11.634
▁공석	-11.634
▁신청했다	-11.6341
▁찍어	-11.6341
▁정문	-11.6342
▁어조	-11.6342
▁결선	-11.6342
▁체력	-11.6343
▁기자실	-11.6346
▁진술서	-11.6346
▁처사	-11.6347
▁중요하게	-11.6348
▁개통	-11.6349
▁세울	-11.6349
▁원형	-11.635
▁뻔	-11.635
▁물리학자	-11.6351
▁의장직	-11.6352
▁부친	-11.6352
▁기지에서	-11.6352
▁컴퓨터에	-11.6353
▁원석	-11.6353
▁극도로	-11.6355
▁보내졌다	-11.6355
▁되도록	-11.6356
▁강화하	-11.6356
▁빛나	-11.6357
▁실업자	-11.6357
▁나토군이	-11.6359
▁찾아야	-11.636
▁희생된	-11.6361
천여	-11.6362
▁문화원	-11.6362
▁개제	-11.6363
▁캐시	-11.6363
▁마신	-11.6366
▁끝이	-11.6367
▁사업체	-11.637
▁피지	-11.6371
▁구조물	-11.6372
▁고객들에게	-11.6372
▁손잡	-11.6373
▁시급	-11.6374
운영	-11.6375
▁도보	-11.6377
드미	-11.6377
▁단계로	-11.6378
▁마카	-11.6378
▁07	-11.6379
▁190	-11.6379
혁명	-11.638
▁선호하	-11.638
▁불법적으로	-11.638
▁소치	-11.638
▁싫어하	-11.638
▁부탁했다	-11.638
됐음	-11.6384
▁정찰기	-11.6384
▁숨어있	-11.6385
▁공개되	-11.6385
▁양식	-11.6385
▁차이점	-11.6386
▁헌법상	-11.6386
학술	-11.6386
▁파장	-11.6386
▁장르	-11.6387
▁부모님	-11.6391
▁관점	-11.6391
▁생물학자	-11.6392
▁마오	-11.6393
▁정했다	-11.6394
없	-11.6395
▁발사됐다	-11.6396
론자들	-11.6397
▁태워	-11.6397
▁유지될	-11.6398
▁건물들이	-11.6398
▁봤을	-11.6398
▁천장	-11.6399
담당자	-11.64
▁급락했다	-11.6401
▁대구	-11.6402
투성이	-11.6402
▁평양에	-11.6404
▁에너지부	-11.6404
▁반대파	-11.6404
▁화성에	-11.6407
▁위력	-11.641
▁제압	-11.641
▁장군이	-11.6411
▁106	-11.6417
▁당사자	-11.642
▁맞이했다	-11.6421
▁죄수	-11.6425
▁자진	-11.6427
▁영화계	-11.6428
헌재	-11.6428
▁이슬람교도들	-11.6429
▁해결되	-11.643
▁말하자	-11.6431
▁220	-11.6431
▁미렌	-11.6432
▁기자와	-11.6441
▁홀리	-11.6441
▁뷰	-11.6443
▁조니	-11.6446
▁수염	-11.645
▁자카르타에서	-11.6451
행해진	-11.6452
렉스	-11.6452
▁무서	-11.6453
▁많았	-11.6461
▁집계됐다	-11.6461
▁경선에	-11.6463
▁상대적	-11.6463
▁갖지	-11.6465
실장	-11.6471
▁승리해야	-11.6471
▁광고에	-11.6473
▁총리실	-11.6474
▁깨어	-11.6477
▁191	-11.6477
라프	-11.6477
▁해안지역	-11.648
▁크리스티아	-11.6481
보관소	-11.6481
▁밀리	-11.6483
자산	-11.6483
▁보석으로	-11.6487
▁유나이티드와	-11.6487
▁묵인	-11.6488
▁비슷하다	-11.6491
▁대응하기	-11.6492
▁목장	-11.6493
▁교장	-11.65
▁옹호하	-11.6501
때로	-11.6505
▁라만	-11.6506
▁지역구	-11.651
나단	-11.6514
▁대행	-11.6517
▁왔었다	-11.652
▁주도했다	-11.6521
▁도드	-11.6525
▁대만에	-11.6527
▁한동안	-11.6532
▁나인	-11.6534
▁리자	-11.6536
▁후회	-11.6538
▁지원자들	-11.654
사르	-11.6542
▁잠들	-11.6545
▁지도부와	-11.655
▁크리	-11.655
▁요가	-11.655
▁초기에	-11.6552
▁사망률	-11.6556
스럽다	-11.6561
▁장군과	-11.6565
▁다량	-11.6565
▁없다면	-11.6566
▁일으키고	-11.6568
▁터지	-11.6569
▁비어	-11.6573
▁200608	-11.658
▁보자	-11.6582
▁전후	-11.6592
▁신문이	-11.6594
▁장착한	-11.6597
▁분쟁에	-11.6599
▁류	-11.6599
▁이민자	-11.6601
▁하늘에서	-11.6602
▁수니파와	-11.6603
983	-11.6604
베르트	-11.6604
▁흥미로	-11.6605
▁외무장관이	-11.6607
▁모아이	-11.6609
▁대법원에	-11.6609
라에서	-11.6618
▁인용했다	-11.6621
일까요	-11.6626
봤	-11.6628
▁사르	-11.6633
▁중단되	-11.664
▁브라질에서	-11.6642
▁패배한	-11.6651
▁경매에서	-11.6652
▁올라와	-11.6654
▁보드	-11.6655
▁여러분이	-11.6657
상태에	-11.6661
▁아들에게	-11.6661
▁엑	-11.6662
▁않았었다	-11.6663
국적	-11.6663
▁실시하고	-11.6668
정지	-11.6669
▁장관들	-11.6678
▁확산되는	-11.6678
저스	-11.6679
일쯤	-11.6681
▁전화기	-11.6683
▁모국	-11.6693
▁선보이	-11.6697
▁아스	-11.6697
▁경쟁자들	-11.6698
▁촬영했다	-11.6699
▁임명됐다	-11.6704
▁도와주	-11.6707
▁해일	-11.6716
▁지장	-11.6719
▁강타했다	-11.6721
▁부문에	-11.6722
▁뒷받침	-11.6728
리얼	-11.673
▁선정한	-11.6733
▁단계에서	-11.6736
▁급증했다	-11.6737
리코	-11.6738
▁비공식적	-11.6743
▁토론회에	-11.6749
▁타계	-11.6749
▁베니	-11.6751
▁생각했	-11.6754
▁당선이	-11.6755
▁멕시코에서	-11.6757
▁이해하는	-11.6761
▁바커	-11.6762
▁변했다	-11.6764
▁일부에	-11.6765
▁영하	-11.6765
▁유가족들	-11.6772
▁베드	-11.6773
▁카페인	-11.6774
▁지불했다	-11.6775
꾸	-11.6776
틸	-11.6778
▁케냐에서	-11.678
▁사라졌	-11.6782
▁죽음으로	-11.6783
오픈	-11.6785
드립니다	-11.6786
평방	-11.6786
▁타마	-11.6792
득점	-11.6795
▁심슨이	-11.6796
▁국무	-11.6797
공연	-11.6798
▁반사	-11.6798
조각	-11.6799
▁우려했다	-11.6807
연방	-11.6807
재정	-11.6811
▁정당한	-11.6813
▁기여한	-11.6813
▁사망할	-11.6813
▁딸들	-11.6814
처분	-11.6817
▁팀장	-11.6818
아래	-11.682
▁어스	-11.6825
예프	-11.6831
자녀	-11.6834
▁일과	-11.6834
▁테러리스트들이	-11.6835
▁베트남전	-11.6835
▁개발했다	-11.684
▁모델이	-11.684
브리	-11.6842
▁태우	-11.685
▁라마	-11.685
▁불확실	-11.6852
▁팬이	-11.6858
▁생중계	-11.6861
우트	-11.6861
▁사유	-11.6868
▁소녀들	-11.6868
▁스타디움	-11.687
▁달링	-11.6877
▁희	-11.688
▁실망했다	-11.688
▁크라	-11.6883
▁원했다	-11.6884
▁유명인사들	-11.6886
봐야	-11.6888
▁자료에	-11.6891
▁폭도들	-11.6891
▁시켰다	-11.6892
▁로게	-11.6892
바라크	-11.6892
▁거뒀	-11.6897
▁덴	-11.6904
▁세계에	-11.6904
차관	-11.6906
시안	-11.6908
▁메인	-11.6908
▁외국인들이	-11.6915
▁알렉산드	-11.6915
▁우주비행	-11.6916
▁천문학	-11.6917
금치	-11.6918
▁환호하	-11.6919
▁빠졌	-11.6921
▁면역	-11.6927
▁구매자	-11.6928
키스	-11.6929
▁맺어	-11.693
▁사람이다	-11.693
왓	-11.6931
▁불러일으	-11.6931
▁수마트라	-11.6932
▁냉각	-11.6932
톡	-11.6932
밭	-11.6932
옵	-11.6933
▁건강검진	-11.6933
▁걷기	-11.6933
▁국가평의회	-11.6933
▁기울여야	-11.6933
▁깨닫	-11.6933
▁깨달았다	-11.6933
▁나미비아	-11.6933
▁나폴리타노	-11.6933
▁남동생	-11.6933
▁대검찰청	-11.6933
▁디카프리오	-11.6933
▁떠올랐다	-11.6933
▁래드클리프	-11.6933
▁리투아니아	-11.6933
▁멜버른	-11.6933
▁멤피스	-11.6933
▁모레스모	-11.6933
▁바랐다	-11.6933
▁밸리	-11.6933
▁부총재	-11.6933
▁불균형	-11.6933
▁불러일으켰다	-11.6933
▁블록버스터	-11.6933
▁사이언톨로지	-11.6933
▁알카티리	-11.6933
▁츠방기라이	-11.6933
▁퀘벡	-11.6933
▁타임스퀘어	-11.6933
▁파키스탄인민당	-11.6933
▁퍼붓	-11.6933
▁프랑크푸르트	-11.6933
▁혹등고래	-11.6933
▁휠체어	-11.6933
▁흡입	-11.6933
랏	-11.6933
쑤	-11.6933
윅	-11.6933
팡	-11.6933
▁내보냈다	-11.6933
▁매몰된	-11.6933
▁배트맨	-11.6933
▁부동층	-11.6933
▁카르발라	-11.6933
▁플레이스테이션	-11.6933
▁인수제안	-11.6933
▁재경부	-11.6933
▁트레일러	-11.6933
▁구속영장	-11.6933
▁사무차장	-11.6933
▁상무부	-11.6933
▁레코드	-11.6933
▁리브니	-11.6933
▁보너스	-11.6933
▁비무장지대	-11.6933
▁서두르	-11.6933
▁전자메일	-11.6933
▁원동력	-11.6933
▁메케인	-11.6933
▁사로잡	-11.6933
▁스콜스	-11.6933
▁중질유	-11.6933
▁산악지대	-11.6933
▁로드아일랜드	-11.6933
▁불가사의	-11.6933
▁놀이공원	-11.6933
▁수수료	-11.6933
▁산시성	-11.6933
▁전비법안	-11.6933
▁자위대	-11.6933
▁땅콩	-11.6933
▁엘리엇	-11.6933
▁올림피	-11.6933
▁이스마일	-11.6933
▁화학물질	-11.6933
▁어둠	-11.6933
▁클릭	-11.6933
▁철폐	-11.6933
▁압델	-11.6933
▁노던록	-11.6934
▁주변국들	-11.6934
▁당첨	-11.6934
▁레빈슨	-11.6934
▁국가안보회의	-11.6934
▁교훈	-11.6934
▁부대변인	-11.6934
▁불륜	-11.6934
▁차량폭탄	-11.6934
▁그래미	-11.6935
▁찾으려	-11.6935
▁유대교	-11.6935
▁마피아	-11.6935
▁놀라움	-11.6935
▁입후보	-11.6935
▁슬림	-11.6935
▁별칭	-11.6935
그너	-11.6935
▁멜론	-11.6935
▁대슐	-11.6935
▁희미	-11.6935
▁게시물	-11.6935
▁그레그	-11.6935
▁오웬	-11.6936
▁스튜	-11.6936
▁대리모	-11.6936
▁우주여행	-11.6936
▁나눈	-11.6936
▁정몽	-11.6936
▁생애	-11.6936
▁예상됩니다	-11.6936
▁필름	-11.6936
▁장례	-11.6937
▁벤처	-11.6937
▁집값	-11.6937
▁출입국	-11.6938
▁공헌	-11.6938
▁케이프	-11.6938
▁제국주의	-11.6938
▁청원서	-11.6938
▁신기록	-11.6938
▁팻	-11.6938
▁운용	-11.6938
▁절실	-11.6938
▁도로변	-11.6939
▁로빈슨	-11.6939
▁범죄행위	-11.6939
▁누구인지	-11.6939
▁관통	-11.6939
▁학계	-11.6939
▁단결	-11.6939
▁민영	-11.6939
▁증파	-11.694
▁지방정부	-11.694
▁공공연	-11.694
▁프로스트	-11.694
▁생생	-11.694
▁홀더	-11.6941
▁최신작	-11.6941
▁레빈	-11.6941
▁자폭	-11.6941
▁불법행위	-11.6941
▁알라위	-11.6942
▁법무상	-11.6942
▁대피시켰다	-11.6942
▁코웰	-11.6942
▁상환	-11.6942
▁자동차산업	-11.6942
▁단편	-11.6943
▁골절	-11.6943
▁군사정부	-11.6944
▁지명되기	-11.6944
▁흔들었다	-11.6944
▁언니	-11.6944
▁아델	-11.6945
▁생체	-11.6946
▁물러났다	-11.6946
▁야채	-11.6946
▁바꾼	-11.6946
▁이맘	-11.6946
▁허브	-11.6947
▁2018	-11.6947
▁왕관	-11.6947
▁생계	-11.6947
▁신랑	-11.6947
▁주연상	-11.6948
▁포탄	-11.6948
▁브라이언트	-11.6949
▁루터	-11.6949
▁무력화	-11.6949
▁풀려나	-11.6949
▁메인주	-11.695
▁이루어졌	-11.695
▁아나	-11.695
▁팬더	-11.695
▁플래시	-11.6952
▁건축물	-11.6952
▁황소	-11.6952
▁마술	-11.6953
▁놓여있다	-11.6953
▁찾아온	-11.6953
▁호박	-11.6955
▁생산업체	-11.6955
▁유실	-11.6956
마트	-11.6956
▁발판	-11.6956
▁비축	-11.6957
▁파이낸셜	-11.6958
▁유로화	-11.6958
▁부주의	-11.6959
▁연구소에서	-11.6959
▁같지	-11.696
▁던졌	-11.6961
▁중단시켰다	-11.6961
▁도출	-11.6962
▁거액	-11.6962
▁경미	-11.6962
▁베일	-11.6963
▁모방	-11.6963
▁우정	-11.6963
▁부분적으로	-11.6964
▁인권문제	-11.6967
▁인터내셔널	-11.6968
▁남북간	-11.697
▁해골	-11.697
강한	-11.6971
▁상속	-11.6972
▁신씨	-11.6973
▁꾸며	-11.6973
▁정치인들이	-11.6973
▁찾아냈다	-11.6974
▁궁지에	-11.6974
▁잭슨이	-11.6975
▁대금	-11.6976
▁주립대학	-11.6977
▁킴	-11.6978
키마	-11.6978
▁살레	-11.6978
▁청년들	-11.6979
▁궁전	-11.698
▁대사와	-11.6982
▁깨진	-11.6982
▁당내	-11.6983
▁추억	-11.6984
▁과오	-11.6985
려져	-11.6985
▁벗기	-11.6985
▁대피하	-11.6987
덱스	-11.6988
▁있냐	-11.6989
▁친부	-11.699
여성	-11.699
▁당파	-11.6991
▁국회의장	-11.6991
▁자리잡	-11.6992
▁동점	-11.6992
▁등장한다	-11.6992
▁2100	-11.6993
▁하나였다	-11.6993
▁주범	-11.6994
▁요리사	-11.6995
▁경찰서로	-11.6995
▁박탈당	-11.6997
▁유니버	-11.6997
▁딱	-11.6998
▁놈	-11.6998
▁프레이	-11.6998
▁키트	-11.6999
▁생기는	-11.7
▁순교자	-11.7001
▁종업원	-11.7003
▁감사원	-11.7004
▁연상	-11.7004
▁호건	-11.7007
▁분노한	-11.701
▁신차	-11.7014
▁착륙했다	-11.7016
▁섬에서	-11.7017
분별	-11.7019
▁129	-11.7024
▁꼬	-11.7025
▁좋아지	-11.7026
▁편리	-11.7028
▁감정적	-11.7029
▁조각들	-11.703
▁밝혀져	-11.7032
▁유발할	-11.7032
▁합쳐	-11.7033
▁축하했다	-11.7034
웠던	-11.7035
▁설명할	-11.704
보라	-11.7043
▁발표되었다	-11.7044
▁랜디	-11.7046
▁흙	-11.7048
▁유지해	-11.7048
▁받아들이기	-11.7049
▁충고	-11.7049
▁개막식에	-11.7055
▁제출된	-11.706
▁입소	-11.706
▁가속	-11.7061
▁늘었다	-11.7062
▁수출국	-11.7062
▁비판하는	-11.7067
▁정권에	-11.7069
▁115	-11.707
▁공정하	-11.7073
▁노르	-11.7074
▁애플사	-11.7076
▁초고속	-11.7077
▁일보	-11.7077
▁죽어가	-11.7079
▁지구와	-11.7079
▁펼쳐지	-11.708
▁우위	-11.7081
▁투표했다	-11.7081
▁정면	-11.7082
▁알기	-11.7083
▁운영자	-11.7087
▁225	-11.7089
▁애인	-11.709
▁부모에게	-11.7092
▁전락	-11.7094
▁의사회	-11.7095
▁살해되	-11.7098
▁통상적	-11.7098
▁관람객들	-11.7101
▁연구실	-11.7101
▁해당한다	-11.7102
▁직원들에게	-11.7106
▁결승에	-11.7113
▁촉	-11.7116
▁시작되었	-11.7121
▁신청자	-11.7124
▁여자친구와	-11.7127
▁목록에서	-11.713
▁있었는데	-11.714
▁실적이	-11.7143
▁영국으로부터	-11.7143
받지	-11.7143
▁정세	-11.7144
▁예외	-11.7145
▁돌아보	-11.7146
먼트	-11.715
▁480	-11.7152
▁합의했	-11.7155
▁축출된	-11.7155
▁축구팬	-11.7158
브론	-11.7163
▁알았	-11.7165
▁적어	-11.7169
▁남동부에서	-11.717
▁보았	-11.7171
▁향상시키	-11.7171
▁랭	-11.718
▁인부	-11.7182
▁고기	-11.7182
▁배에	-11.7184
이래	-11.7184
▁대중들	-11.7187
▁유사하다	-11.7191
▁카바	-11.7192
▁베티	-11.7193
▁특성	-11.7197
▁택	-11.7199
▁성대	-11.7203
하든	-11.7209
버렸	-11.7209
▁도와주는	-11.721
▁추산되	-11.7213
▁위헌	-11.7214
▁초까지	-11.7214
▁에드로	-11.7214
▁소방대원들	-11.7228
▁죽인	-11.723
▁들지	-11.7245
▁탐험가	-11.7247
▁파견한	-11.7249
▁확산됐다	-11.7251
▁묘사한	-11.7252
▁흉내	-11.7256
▁카메라에	-11.7257
▁아타	-11.7271
▁케인	-11.7274
▁대비하고	-11.7276
▁압박했다	-11.7277
티브	-11.728
▁펠	-11.728
▁장갑	-11.7281
▁사자	-11.7282
▁대개	-11.7282
▁회복할	-11.7283
▁정보통	-11.7285
▁폐쇄됐다	-11.7291
▁하락하고	-11.7293
▁간주되	-11.7294
▁수감돼	-11.7295
자본	-11.7296
▁주인공이	-11.7297
▁반기	-11.7298
▁인정한다	-11.7301
키야	-11.7304
▁어디	-11.7306
▁나간다	-11.7313
▁구사하	-11.7317
▁대상자	-11.7319
▁출발한	-11.7322
▁이름과	-11.7322
▁언론사	-11.7338
상황이	-11.736
▁삼아	-11.7361
▁빛이	-11.7361
▁축구팬들	-11.7365
▁폐쇄하기	-11.737
▁교수와	-11.7376
▁월드컵에서	-11.7376
나갔다	-11.7377
▁존재한다	-11.7378
▁휘트	-11.7381
▁터키와	-11.7382
▁시에서	-11.7385
끈	-11.739
▁여행할	-11.7395
기남	-11.7396
▁들어있	-11.74
▁시도할	-11.7405
퍼트	-11.7408
▁전신	-11.7408
▁알려왔	-11.7415
▁안된	-11.7418
▁연결된	-11.7427
▁자살했다	-11.7428
있게	-11.7429
▁관계없	-11.7429
가족	-11.743
▁지나면	-11.743
접	-11.7433
트너	-11.7435
제작	-11.7436
▁165	-11.7438
대비	-11.7438
▁스타인	-11.7445
사령부	-11.7447
엠	-11.7447
뷰	-11.7447
▁방영되	-11.7448
칩	-11.7449
200901	-11.7449
▁딸에게	-11.7449
월드컵	-11.745
잠	-11.7451
▁추진해	-11.7451
▁남성에게	-11.7457
차관보	-11.7458
▁06	-11.7459
968	-11.746
▁만화가	-11.7463
▁회원국이	-11.7463
워터	-11.7466
▁공급하	-11.7466
하락	-11.7467
공유	-11.7468
▁이외에	-11.7472
▁취소하	-11.748
▁시신들	-11.748
▁관리하는	-11.7482
▁조직위	-11.7483
▁슬로	-11.7483
▁인도주의	-11.7484
▁민주당원	-11.7484
이라크	-11.7492
▁출동했다	-11.7493
▁참석한다	-11.7503
보안	-11.7509
▁같아	-11.7515
▁저질렀	-11.7521
▁생산되	-11.7538
▁싶었	-11.7541
▁라벨	-11.7542
기동대	-11.7545
▁걸렸	-11.7546
▁일자	-11.7546
▁순례	-11.7549
▁실명	-11.7553
949	-11.7564
▁비싸	-11.7564
략	-11.7566
▁마쳤	-11.7574
▁지원국	-11.7575
▁창립	-11.7576
▁입찰	-11.7577
▁무시했다	-11.758
▁진열	-11.7583
▁축구선수	-11.7584
▁않겠	-11.7589
캣	-11.7591
▁마텔	-11.7591
▁시몬	-11.7592
▁다짐	-11.7593
▁표하고	-11.7593
랍	-11.7594
롯	-11.7595
홉	-11.7596
▁디스커버리	-11.7596
▁도미니	-11.7597
▁콜롬	-11.7597
콕	-11.7598
▁오피니언	-11.7599
▁국제영화제	-11.7599
▁끊겼	-11.7599
▁남태평양	-11.7599
▁냉장고	-11.7599
▁다비덴코	-11.7599
▁들어보겠습니다	-11.7599
▁루고보이	-11.7599
▁만토바니	-11.7599
▁먹지	-11.7599
▁무기징역	-11.7599
▁발렌시아	-11.7599
▁서포터	-11.7599
▁세컨드라이프	-11.7599
▁슈퍼마켓	-11.7599
▁아르메니아	-11.7599
▁안타깝게	-11.7599
▁알츠하이머	-11.7599
▁애틀랜틱	-11.7599
▁유투브	-11.7599
▁잉그리드	-11.7599
▁출퇴근	-11.7599
▁칼데론	-11.7599
▁캠브리지	-11.7599
▁티크리트	-11.7599
▁프랑수아	-11.7599
▁하르툼	-11.7599
▁해밀턴	-11.7599
눕	-11.7599
쟈	-11.7599
줌	-11.7599
팍	-11.7599
▁견뎌	-11.7599
▁볼리비아	-11.7599
▁비정상적	-11.7599
▁서유럽	-11.7599
▁스타워즈	-11.7599
▁시트콤	-11.7599
▁전두환	-11.7599
▁크라이튼	-11.7599
▁파딜라	-11.7599
▁패터슨	-11.7599
옴	-11.7599
▁대배심	-11.7599
▁어리석	-11.7599
▁여기저기	-11.7599
▁옵션	-11.7599
▁은하계	-11.7599
▁즐긴다	-11.7599
▁가디언	-11.7599
▁아메바	-11.7599
▁핵폐기	-11.7599
▁제레미	-11.7599
▁돌려보내	-11.7599
▁바이에른	-11.7599
▁섭씨	-11.7599
▁아세안	-11.7599
▁금리인하	-11.7599
▁할로윈	-11.7599
▁어소시에이션	-11.7599
▁국가안보보좌관	-11.7599
▁유연한	-11.7599
▁뛰어넘	-11.7599
▁무언가	-11.7599
▁갑작스럽	-11.7599
▁어쩌	-11.76
▁아스카리	-11.76
▁말리부	-11.76
▁세르게이	-11.76
▁구제금융법안	-11.76
▁벗어났다	-11.76
▁종지부	-11.76
▁소비에트	-11.76
▁선거인단	-11.76
▁알라스카	-11.76
▁드라	-11.76
200801	-11.76
▁마지드	-11.76
▁산업자원부	-11.76
▁베이징올림픽	-11.76
쿼터	-11.76
▁얼룩말	-11.76
▁벗겨	-11.76
▁소방당국	-11.76
▁작별	-11.76
▁용도로	-11.76
▁낫다	-11.76
도날드	-11.76
▁군사행동	-11.76
▁수감생활	-11.7601
▁탈옥	-11.7601
▁겨누	-11.7601
▁건강보험	-11.7601
▁슈렉	-11.7601
▁미뤄	-11.7601
▁도서관	-11.7601
▁북극광	-11.7601
▁포털	-11.7601
▁스마트	-11.7601
▁약물검사	-11.7601
▁봉투	-11.7601
▁피난처	-11.7601
▁디즈니랜드	-11.7602
▁도둑	-11.7602
▁날카로	-11.7602
▁십먼	-11.7602
▁우발적	-11.7602
▁콜롬보	-11.7602
▁싸워	-11.7602
▁홈경기	-11.7602
▁투명성	-11.7602
▁비밀요원	-11.7602
▁압류	-11.7602
▁부정행위	-11.7602
▁페드로	-11.7602
▁비웃	-11.7603
▁머독	-11.7603
▁업종	-11.7603
▁푸른	-11.7603
▁보험회사	-11.7603
▁루시디	-11.7603
▁필사적	-11.7603
▁리스	-11.7603
▁봉급	-11.7603
▁근절	-11.7603
▁스노우	-11.7603
▁교각	-11.7603
▁축구스타	-11.7603
▁기관총	-11.7604
층짜리	-11.7604
▁윈터	-11.7604
▁케이티	-11.7604
▁편견	-11.7604
▁결말	-11.7604
▁하렐	-11.7604
▁대국민	-11.7604
▁자치권	-11.7605
▁암살사건	-11.7605
▁마쓰	-11.7605
▁애견	-11.7605
▁폭발사고	-11.7605
▁만평	-11.7605
▁합작	-11.7606
▁계급	-11.7606
▁알렉	-11.7606
▁아프리카연합	-11.7606
▁태생	-11.7606
▁1972	-11.7606
▁에베레스트산	-11.7606
▁애완용	-11.7606
▁짐작	-11.7606
▁해산시키기	-11.7606
▁종말	-11.7606
▁듀크	-11.7607
▁우편물	-11.7607
▁선례	-11.7607
▁사망원인	-11.7607
▁경합	-11.7607
▁대공	-11.7607
▁빈센트	-11.7607
▁나왔습니다	-11.7607
▁연합정부	-11.7607
▁요한슨	-11.7607
▁무례	-11.7608
▁상향	-11.7608
▁소도시	-11.7608
▁보스톤	-11.7609
▁투자은행	-11.7609
▁수개월	-11.7609
▁난입	-11.7609
▁평온	-11.7609
▁주택시장	-11.761
▁로지스	-11.761
▁위독	-11.761
▁설전	-11.761
▁부시대통령	-11.7611
▁발머	-11.7612
▁변함없	-11.7612
▁번복	-11.7613
▁무레이	-11.7614
▁결단	-11.7614
▁설비	-11.7614
▁메모	-11.7615
▁헝	-11.7615
▁들어설	-11.7616
▁웨스	-11.7616
▁조엘	-11.7616
▁왕조	-11.7616
▁담요	-11.7617
▁결혼식에	-11.7617
▁은둔	-11.7618
▁음료수	-11.7618
▁매료	-11.7618
▁놀란	-11.7618
▁버몬트주	-11.7618
▁분단	-11.7618
▁불확실성	-11.7618
▁신년	-11.7619
1191	-11.762
▁김양	-11.762
▁용납하지	-11.762
▁종교단체	-11.7621
▁폭력배	-11.7621
▁가장자리	-11.7622
▁과연	-11.7623
▁실천	-11.7623
▁시립	-11.7623
▁로빈	-11.7624
▁아샤	-11.7624
▁호스트	-11.7624
▁근본주의자들	-11.7624
▁속력	-11.7625
▁난방	-11.7625
▁증대	-11.7626
▁커뮤니케이션	-11.7626
▁공금	-11.7626
▁토미	-11.7628
▁토레스	-11.7629
▁형편	-11.763
▁동의안	-11.763
▁왕비	-11.7631
▁검찰청	-11.7632
▁군사위원회	-11.7633
▁심리학자	-11.7634
▁용량	-11.7634
▁기뻐	-11.7635
▁1700	-11.7635
▁고의적으로	-11.7635
▁신형	-11.7636
▁정치국	-11.7637
▁2400	-11.7637
▁당부	-11.7638
▁유영	-11.7639
▁소모	-11.7639
▁나누어	-11.7639
▁리츠	-11.7639
▁등장했다	-11.7644
▁매직	-11.7645
▁페니	-11.7645
▁보물	-11.7646
만파운드	-11.7646
▁심각성	-11.7648
카니	-11.7648
▁꺼리	-11.7648
▁국정원장	-11.765
▁푸드	-11.7651
▁나오기	-11.7651
▁경계선	-11.7651
스쿨	-11.7651
▁펼쳐진	-11.7651
▁동부지역	-11.7652
▁메르	-11.7652
▁엄청나	-11.7653
▁골드만	-11.7654
▁국세청장	-11.7654
▁속편	-11.7655
▁끝내기	-11.7656
▁설사	-11.7657
▁싶었다	-11.7657
▁잎	-11.7658
▁투표자	-11.7659
▁일기장	-11.766
▁유출된	-11.766
▁로마에서	-11.766
▁어려움에	-11.7661
▁국어	-11.7661
▁원내	-11.7662
▁성범죄자	-11.7662
공학	-11.7663
▁추적하	-11.7663
정된	-11.7664
▁보도되었다	-11.7664
▁뉴햄프셔주	-11.7665
▁기울이지	-11.7668
▁말해주	-11.7668
▁요구했었다	-11.7669
▁속해	-11.767
▁간직	-11.767
▁헨	-11.7671
▁외화	-11.7672
▁기미	-11.7673
▁서점	-11.7675
▁소실됐다	-11.7676
▁거기에	-11.7678
▁전반전	-11.7679
바드	-11.768
정규직	-11.7682
▁교리	-11.7683
▁불안해	-11.7683
펠드	-11.7683
▁해역에서	-11.7684
▁기자단	-11.7685
▁이윤	-11.7689
▁인류학	-11.769
릭스	-11.769
▁과학기술	-11.7692
▁환경적	-11.7693
▁거머쥐었	-11.7693
▁주의회	-11.7696
▁백만	-11.7696
레이즈	-11.7697
▁잠재	-11.7698
▁유니	-11.7709
▁수혈	-11.7709
▁이루기	-11.7711
▁싶어하지	-11.7711
▁야스	-11.7713
▁키니	-11.7713
▁알바로	-11.7713
▁108	-11.7715
▁채용	-11.7716
▁안정화	-11.7718
▁기숙사에서	-11.7719
▁고심하	-11.772
▁제출해야	-11.7721
▁버렸	-11.7722
해준다	-11.7723
▁안정성	-11.7724
▁방법이라고	-11.7725
▁피랍됐	-11.7726
▁좋아하	-11.7729
▁등반	-11.7733
▁나쁘	-11.7734
▁분자	-11.7735
플리	-11.7737
▁것인데	-11.7737
▁휴회	-11.774
▁피난민	-11.7741
▁주마	-11.7747
▁가문	-11.7747
▁코드	-11.775
▁구성원들	-11.7756
▁명상	-11.776
▁밝혀졌	-11.7762
▁사이트에서	-11.7769
▁크레인	-11.7772
▁직원인	-11.7772
96	-11.7772
▁오바	-11.7775
▁청장	-11.7777
▁조장하	-11.7782
▁제시하지	-11.7785
▁영국인들	-11.7789
▁유서	-11.7789
▁볼트	-11.7794
▁저서	-11.7796
▁서울과	-11.78
▁마련한	-11.78
▁변명	-11.78
▁뒤진	-11.78
▁시차	-11.7801
▁공직자	-11.7806
리프	-11.7807
▁구리	-11.781
▁양도	-11.7811
▁초소	-11.7816
▁덤	-11.7817
▁선수들에게	-11.7823
▁상하이에서	-11.7823
▁건강상	-11.7828
▁선출됐다	-11.7831
▁침체에	-11.7836
▁힘들었	-11.7838
▁두려워하	-11.7839
▁거론되	-11.784
겠는가	-11.7841
▁적용할	-11.7844
▁출전했다	-11.7847
▁가파	-11.7849
▁스테이	-11.7852
▁활동가들	-11.7854
▁열정적	-11.7855
사미	-11.7855
▁상인들	-11.7855
▁해결하고	-11.7856
▁계획안	-11.7857
▁빠	-11.7861
▁군데	-11.7862
▁경제팀	-11.7862
▁550	-11.7871
▁레스토랑에서	-11.7876
▁관장	-11.7876
▁중단하겠다	-11.7879
▁찌	-11.7883
▁납세자들	-11.7886
▁반군들	-11.7888
▁힐튼과	-11.7889
▁부패와	-11.7892
▁거절한	-11.7892
▁팔린	-11.7904
▁표현할	-11.7908
▁보리	-11.7908
▁친구들이	-11.791
교사	-11.7911
▁메카	-11.7911
▁피해자들이	-11.7913
셰르	-11.7919
▁끝나면	-11.7921
▁경쟁사	-11.7922
▁장악했다	-11.7925
▁무능	-11.7927
부장관	-11.7929
▁개최국	-11.7947
▁날아가	-11.7951
▁근대	-11.7951
▁상징인	-11.7952
▁모욕적	-11.7956
▁주위에	-11.7957
▁모기	-11.7958
타그	-11.7958
▁봉인	-11.7959
▁제조업자	-11.7962
부총리	-11.7967
투스	-11.797
▁기업체	-11.7971
▁늘어난	-11.7974
▁인도적	-11.798
▁01	-11.7982
▁비서	-11.7983
▁놓았	-11.7983
▁정해	-11.7984
▁안전성	-11.7984
▁고용한	-11.7985
▁제조업체들	-11.799
▁이때	-11.7993
▁패트	-11.7997
▁우려된다	-11.7998
▁후반에	-11.8001
▁세리	-11.8002
히코	-11.8003
▁실감	-11.8011
▁고등	-11.8012
▁제소	-11.8014
▁자행한	-11.8014
▁04	-11.8016
▁치료하는	-11.802
▁동의하	-11.8023
▁발전기	-11.8024
▁공적	-11.8028
▁약화시키	-11.803
▁쉽	-11.8031
▁충족	-11.8036
백만명	-11.8039
▁구하는	-11.8039
▁표지	-11.804
▁점령한	-11.804
▁사육사들	-11.8041
▁엑스	-11.8045
▁실패로	-11.8048
▁매장에서	-11.8052
시키다	-11.8054
▁도발	-11.8054
▁김만	-11.8061
▁휴대폰으로	-11.8064
▁각료들	-11.8071
매장	-11.8071
▁미대사	-11.8073
▁락	-11.8075
▁발견하고	-11.8075
▁출발했다	-11.8076
▁한계	-11.8079
▁전장에	-11.8088
▁본부에서	-11.809
▁가방에	-11.8099
▁참여하기	-11.8107
▁요인들	-11.8123
▁생물학	-11.8125
▁재기	-11.8139
▁남한과	-11.8141
▁당혹	-11.8145
▁차장	-11.8145
▁문명	-11.8146
명중	-11.8147
잡지	-11.8147
▁스캔들에	-11.8147
▁정하지	-11.8148
죽	-11.8152
▁막지	-11.8153
큐	-11.8154
▁탈북자들	-11.8157
봐	-11.8157
흘	-11.8157
엑	-11.8159
보험	-11.816
▁아브	-11.816
폭탄	-11.816
▁확보하고	-11.8161
책임자	-11.8162
졸	-11.8162
페이스	-11.8162
자동차	-11.8165
미사일	-11.8166
쳐야	-11.8166
반응	-11.8167
테니스	-11.8168
▁영구적	-11.8173
▁밀고	-11.8174
장애	-11.8175
계약	-11.8183
제조	-11.8185
소득	-11.8187
▁고통스러	-11.8187
▁구매자들	-11.8189
▁원정	-11.8191
중국	-11.8192
▁생각되는	-11.8192
개국에서	-11.8192
열차	-11.8192
▁한국전	-11.8199
시피	-11.8203
▁나타낸	-11.8203
대결	-11.8205
▁회복되	-11.8206
▁전사자	-11.8208
▁성교	-11.8213
▁보고됐다	-11.8218
집회	-11.8219
▁투자할	-11.8219
▁폭력과	-11.8222
소속	-11.8222
▁후보간	-11.8224
여채	-11.8227
▁노던	-11.8227
러진	-11.8231
▁미성년	-11.8233
행진	-11.8234
▁조율	-11.8244
▁벗어나지	-11.8246
소니	-11.8251
쿨	-11.8251
모토	-11.8256
▁적들	-11.8257
▁높았	-11.826
▁수감됐	-11.8262
▁반해	-11.8263
▁쳤다	-11.8263
▁3600	-11.8264
▁강조하는	-11.8268
▁침대에	-11.8271
연금	-11.8279
▁게르	-11.828
▁사무국	-11.8282
▁어린이와	-11.8283
▁힘들어	-11.8284
▁무차별	-11.8285
▁유언	-11.8289
▁중국어	-11.829
▁한파	-11.8295
▁설치했다	-11.8302
▁곤란	-11.8302
▁참모총장	-11.8304
▁터무니	-11.8306
감시	-11.8307
둑	-11.8308
얄	-11.8308
슐	-11.8311
▁프란시스	-11.8311
슬라브	-11.8311
▁경기부양	-11.8313
▁솔로몬	-11.8313
▁뉴욕타임즈	-11.8314
▁마르세유	-11.8314
▁발렌타인	-11.8314
▁스프린트	-11.8314
▁아름답	-11.8314
▁아쿠아리움	-11.8314
▁오마이뉴스	-11.8314
▁와코비아	-11.8314
▁워싱턴포스트	-11.8314
▁카메룬	-11.8314
▁컨소시엄	-11.8314
팽	-11.8314
▁겪어	-11.8314
▁고혈압	-11.8314
▁나스랄라	-11.8314
▁네브라스카	-11.8314
▁다녔다	-11.8314
▁대기오염	-11.8314
▁대선예비후보	-11.8314
▁댓글	-11.8314
▁독립선언	-11.8314
▁뒷좌석	-11.8314
▁드림라이너	-11.8314
▁따돌렸다	-11.8314
▁레오나르도	-11.8314
▁머물렀다	-11.8314
▁먹었다	-11.8314
▁메탄가스	-11.8314
▁미식축구	-11.8314
▁민주변화운동	-11.8314
▁믿어지	-11.8314
▁바예스테로스	-11.8314
▁박스오피스	-11.8314
▁부드러운	-11.8314
▁북방한계선	-11.8314
▁분리독립	-11.8314
▁비디오테이프	-11.8314
▁사우스다코타	-11.8314
▁섰다	-11.8314
▁스머프	-11.8314
▁스테로이드	-11.8314
▁시니오라	-11.8314
▁시베리아	-11.8314
▁아리조나	-11.8314
▁애국전선	-11.8314
▁에메랄드	-11.8314
▁옥수수	-11.8314
▁외할머니	-11.8314
▁울프위츠	-11.8314
▁자와히리	-11.8314
▁조기총선	-11.8314
▁최연소	-11.8314
▁카스파로프	-11.8314
▁클랩튼	-11.8314
▁키프로스	-11.8314
▁폴란스키	-11.8314
▁홀로코스트	-11.8314
▁히말라야	-11.8314
▁극단적인	-11.8314
▁다빈치	-11.8314
▁스릴러	-11.8314
▁알레르기	-11.8314
▁인공심장	-11.8314
▁공청회	-11.8314
▁목걸이	-11.8314
▁에버튼	-11.8314
▁카제미	-11.8314
▁현기증	-11.8314
▁라말라	-11.8314
▁산티아고	-11.8314
▁우체국	-11.8314
▁카우치	-11.8314
▁퇴근	-11.8314
어느때보다	-11.8314
▁알메이다	-11.8314
▁엘비스	-11.8314
▁허덕이	-11.8314
▁어둡	-11.8314
▁퇴출	-11.8314
▁부녀자	-11.8314
▁세비르	-11.8314
▁임상실험	-11.8314
▁떠다니	-11.8314
▁삼성전자	-11.8314
▁트레이드	-11.8314
▁펠릭스	-11.8314
▁아침식사	-11.8314
▁오피스	-11.8314
▁불도저	-11.8314
▁공동기자회견에	-11.8314
▁미생물	-11.8314
▁손가락	-11.8314
▁쓰러진	-11.8314
▁행정명령	-11.8314
▁클리닉	-11.8314
▁월경작전	-11.8314
▁모토로라	-11.8314
▁트레이시	-11.8314
▁니가타	-11.8314
▁듀프레	-11.8314
▁추도식	-11.8314
▁메세지	-11.8314
▁궁금	-11.8314
▁가오리	-11.8314
▁버핏	-11.8314
▁맛봤다	-11.8314
▁엔터프라이즈	-11.8314
▁크로포드	-11.8314
▁히잡	-11.8314
▁불상사	-11.8314
▁동북	-11.8314
▁슬램	-11.8314
▁재가동	-11.8314
▁종합병원	-11.8314
▁히트곡	-11.8314
▁빠져나갔다	-11.8314
▁김일성	-11.8314
▁헐값	-11.8314
▁슬럼	-11.8314
▁결론지었다	-11.8314
▁구급차	-11.8314
▁골드버그	-11.8314
▁데이비스컵	-11.8314
▁홍보담당자	-11.8314
▁출몰	-11.8314
▁블랙베리	-11.8315
▁평의회	-11.8315
▁적임자	-11.8315
▁아름다움	-11.8315
▁놀이기구	-11.8315
▁쥐스틴	-11.8315
▁완패	-11.8315
▁강제진압	-11.8315
▁제주도	-11.8315
▁겸손	-11.8315
▁용암	-11.8315
▁올라간다	-11.8315
▁마샬	-11.8315
▁감기약	-11.8315
▁패션쇼	-11.8315
▁사기꾼	-11.8315
▁현명한	-11.8315
▁청취	-11.8315
▁라디오뉴스	-11.8315
▁베풀	-11.8315
▁스페이스	-11.8315
▁목욕	-11.8315
▁선거운동본부	-11.8315
▁출근	-11.8315
▁갈망하	-11.8316
▁폭염	-11.8316
▁슈스터	-11.8316
▁남아시아	-11.8316
▁비겁	-11.8316
▁금전적	-11.8316
▁유니티	-11.8316
▁숙박비	-11.8316
▁올라갔다	-11.8316
▁리프트	-11.8316
▁분화구	-11.8317
▁육류	-11.8317
▁간접	-11.8317
▁검은색	-11.8317
▁입혔다	-11.8317
▁주모자	-11.8317
▁테러리즘	-11.8317
▁교도관	-11.8317
▁회생	-11.8317
▁관습	-11.8317
▁드럼	-11.8317
▁노골적	-11.8318
▁사형제도	-11.8318
▁상무위원	-11.8318
▁가져온	-11.8318
▁잠입	-11.8318
▁베이커	-11.8318
▁실용적	-11.8319
▁만들어낸	-11.8319
▁임시정부	-11.8319
▁올리버	-11.8319
▁월급	-11.8319
▁채굴	-11.8319
▁자궁	-11.8319
▁뉴먼	-11.832
▁환경운동	-11.832
▁축구협회	-11.832
▁석권	-11.832
▁어두	-11.8321
▁터졌다	-11.8321
▁유명해졌다	-11.8321
▁잠복	-11.8321
▁하향	-11.8321
▁아이콘	-11.8322
▁처방전	-11.8322
▁성폭행범	-11.8322
▁화산재	-11.8323
▁담합	-11.8323
▁구슬	-11.8324
▁담았다	-11.8324
▁산업지수	-11.8325
▁신랄	-11.8325
▁검시	-11.8325
▁과열	-11.8325
▁성취	-11.8326
▁독려	-11.8326
▁교신	-11.8326
▁에릭슨	-11.8326
▁진학	-11.8327
▁떼어	-11.8327
▁정치활동	-11.8327
▁표출	-11.8327
▁모빌	-11.8328
▁양빈	-11.8328
▁수상작	-11.8328
▁통치권	-11.8329
▁행보	-11.8329
▁스토리	-11.833
▁야유	-11.833
▁자율	-11.833
▁감형	-11.833
▁어른	-11.833
▁청원	-11.833
▁칭하며	-11.833
▁변종	-11.8331
▁축적	-11.8331
▁벵	-11.8331
▁친교	-11.8331
▁칼리드	-11.8332
▁완강	-11.8332
▁거칠	-11.8334
▁달아나	-11.8334
▁공급업체	-11.8334
요리	-11.8335
▁친지들	-11.8336
▁응용	-11.8336
▁간격	-11.8336
▁혼자서	-11.8336
▁그리스에서	-11.8337
▁나빠지	-11.8337
▁파탄	-11.8337
▁군당국	-11.8337
▁달려있다	-11.8338
▁매리	-11.8338
▁극우	-11.8339
▁기상학자	-11.8339
▁억지	-11.8339
▁아예	-11.8339
▁경고문	-11.834
▁보수주의자들	-11.834
▁실체	-11.834
▁동조	-11.834
▁초보	-11.8341
▁재연	-11.8341
▁탐지기	-11.8341
▁없어질	-11.8341
▁그라이브	-11.8342
▁요크	-11.8342
▁돌발	-11.8342
▁분산	-11.8343
▁카본	-11.8344
▁얻어야	-11.8344
▁상류	-11.8345
▁천원	-11.8345
▁월터스	-11.8346
▁인도양	-11.8346
▁모친	-11.8348
▁증명서	-11.8348
▁의문사	-11.8348
▁환경부	-11.8349
▁영국항공	-11.8349
▁인출	-11.835
▁형법	-11.835
▁레노	-11.835
▁공단	-11.835
▁쓰러졌다	-11.8351
▁유형	-11.8351
▁건전	-11.8352
▁잠수	-11.8352
▁의향	-11.8352
▁오메	-11.8353
▁배신	-11.8353
▁농성	-11.8353
▁비난한다	-11.8354
▁쥬	-11.8354
▁소득세	-11.8355
▁공급하기	-11.8355
▁아래서	-11.8356
▁국가대표팀	-11.8356
▁소중	-11.8356
▁동화	-11.8356
▁사본	-11.8356
▁계절	-11.8357
▁폰다	-11.8357
▁위스콘신주	-11.8357
▁않음	-11.8358
▁03	-11.8358
▁시작하자	-11.8361
▁피력	-11.8361
▁개종	-11.8361
▁인물들	-11.8362
▁아론	-11.8363
툴라	-11.8365
▁도와준	-11.8365
랜스	-11.8366
▁올림픽위원회	-11.8366
▁병원측	-11.8367
▁원정경기에서	-11.8368
▁안경	-11.8368
▁연비	-11.8369
▁이민국	-11.8372
▁일생	-11.8372
▁중학교	-11.8373
▁저조	-11.8373
▁호르	-11.8373
▁로케	-11.8374
퍼드	-11.8378
▁기법	-11.8378
▁여론조사에따르면	-11.8379
▁페어	-11.8381
▁특권	-11.8384
▁161	-11.8384
식품	-11.8384
▁장시간	-11.8384
광장	-11.8386
▁인물이다	-11.8387
네거	-11.8387
▁분파	-11.8387
▁캘	-11.8388
▁감독관	-11.8389
▁도하	-11.839
▁녹스	-11.8392
▁동부지역에서	-11.8393
▁피랍됐다	-11.8393
▁대권	-11.8393
▁보장받	-11.8393
▁샤리	-11.8393
▁강행할	-11.8395
▁발사해	-11.8396
▁불타	-11.8397
▁마우	-11.8397
▁보내야	-11.8398
▁입성	-11.84
▁받아들여지	-11.84
▁부호	-11.8401
로프트	-11.8401
▁그렇지만	-11.8401
▁로키	-11.8402
▁최소화	-11.8402
▁정당성	-11.8402
었었다	-11.8406
자격	-11.8407
▁오노	-11.8408
▁소비량	-11.8413
▁만족할	-11.8413
▁맞서기	-11.8415
▁제거하는	-11.8416
▁응급실	-11.8418
▁지형	-11.8419
▁모가디슈에서	-11.8419
▁기동	-11.8422
▁마시지	-11.8423
▁저지대	-11.8424
▁거미	-11.8425
▁나타낸다	-11.8425
▁무시한	-11.8427
▁코브	-11.8429
▁구성했다	-11.8432
▁제외됐다	-11.8432
▁고려해야	-11.8433
▁무르	-11.8434
▁프라하	-11.8436
▁거주지역	-11.8437
▁무성	-11.8438
▁낭	-11.8439
▁이루어지지	-11.8439
▁확보하기	-11.844
슈아	-11.8442
▁실시간	-11.8444
▁통과시킨	-11.8446
▁보도됐다	-11.8451
▁점원	-11.8452
▁배치된	-11.8455
06	-11.8455
▁가설	-11.8455
▁재확인	-11.8456
▁뉴욕시장	-11.8458
▁충분하다	-11.8462
▁이반	-11.8463
▁200609	-11.8464
플랜	-11.8468
▁멜로	-11.8472
▁옐로	-11.8472
▁들어간다	-11.8473
▁안치	-11.8473
▁사죄	-11.8474
▁살았다	-11.8477
▁작성했다	-11.8478
▁신고서	-11.848
했어야	-11.8483
▁가든	-11.8483
▁용지	-11.8483
▁취지	-11.8484
▁물려	-11.8484
▁자비	-11.8485
▁구멍이	-11.8486
▁방해하	-11.8487
▁취했	-11.8492
▁페러	-11.8493
시마	-11.8495
▁입게	-11.8496
▁모술에서	-11.8498
▁봐야	-11.8503
▁보여주었다	-11.8505
▁보수주의	-11.8505
▁주간지	-11.8513
▁고소했다	-11.8515
▁장례식이	-11.8516
▁사퇴했다	-11.8521
▁스키장	-11.8521
쿠르	-11.8522
▁발견하게	-11.8525
▁케네	-11.8525
▁도서	-11.8528
자키	-11.853
▁간주하	-11.853
▁전달하는	-11.8531
▁메이어	-11.8534
▁일당	-11.8535
▁그들과	-11.8538
▁싸우고	-11.854
▁갑작스러	-11.8541
▁인권단체들	-11.8546
▁호프	-11.8546
▁개헌안에	-11.855
▁벤와	-11.8551
▁발레	-11.8553
내지	-11.856
▁조언했다	-11.8563
▁보안국	-11.8567
▁발견되었	-11.8567
▁쥐들	-11.8571
▁차트	-11.8579
▁제거했다	-11.8584
▁연안에서	-11.8585
▁알레	-11.8589
▁철로	-11.8594
환자	-11.8601
▁잉	-11.8604
▁인물이라	-11.8605
젤리	-11.8612
▁인하했다	-11.8614
▁필리	-11.8614
▁톨	-11.8617
▁프로그램들	-11.8619
▁상징하	-11.8626
▁후원자	-11.8629
▁조사됐다	-11.8632
▁도슨	-11.8637
▁변기	-11.8637
977	-11.8643
▁이하로	-11.8647
▁바꾸고	-11.8655
▁배치되어	-11.8657
▁돌아가기	-11.8657
▁추위	-11.8664
▁재정비	-11.8665
▁취임식에	-11.8666
▁대표단과	-11.8668
▁배치했다	-11.867
▁적기	-11.8671
▁노력해야	-11.8672
▁버려	-11.8676
▁지상에서	-11.8684
▁세워졌	-11.8685
▁부정했다	-11.8691
▁디지	-11.87
▁봉쇄했다	-11.8703
▁웅	-11.8704
▁날씨에	-11.8704
▁포착했다	-11.8707
▁사망하기	-11.8709
▁노스캐롤라이나에서	-11.8712
▁가수들	-11.8718
▁남자들이	-11.8721
▁중독자	-11.873
▁나이지리아에서	-11.8732
▁수세기	-11.8732
▁보수적	-11.8732
▁범인들	-11.8739
▁일본측	-11.8739
▁서부에서	-11.874
▁위주	-11.8747
▁제마	-11.8753
▁대대	-11.8754
▁수행하기	-11.8757
▁여행하는	-11.8757
▁사랑한다	-11.8768
데라	-11.8769
▁중요하지	-11.8769
▁기소장	-11.8769
▁확정했다	-11.877
▁절대적	-11.8774
▁구입했다	-11.8774
음에	-11.8775
스러워	-11.8781
▁연행했다	-11.8784
주민들	-11.8785
▁접어	-11.8797
▁제작됐다	-11.8811
▁돌봐	-11.8818
▁추측되	-11.8819
재산권	-11.8823
▁농민들이	-11.8826
평했다	-11.8827
▁청구했다	-11.8828
▁바트	-11.8832
▁인기있	-11.8847
레오	-11.8851
▁마린	-11.8852
▁정당인	-11.8856
비트	-11.8857
▁붕괴됐다	-11.8862
▁어부들	-11.8867
▁연주자	-11.8869
웬	-11.887
▁전해왔	-11.8877
▁전달하기	-11.8877
▁마련하는	-11.8878
투쟁	-11.8888
▁디나	-11.8891
▁포로로	-11.8896
▁구조했다	-11.8898
▁참고	-11.8898
▁182	-11.8899
▁부과했다	-11.89
▁둔화되	-11.8902
▁돼야	-11.8907
▁평화롭	-11.8907
보좌관	-11.8921
▁278	-11.8921
싸	-11.8924
▁뉴질랜드에서	-11.8925
▁무장괴한들	-11.8927
▁다행	-11.8928
▁알리지	-11.8928
200609	-11.8929
▁나쁘지	-11.893
쌍	-11.893
▁피하고	-11.8931
▁청소년들이	-11.8931
낙	-11.8932
듀	-11.8933
시리즈	-11.8934
빅	-11.8934
기상청	-11.8934
리서치	-11.8937
▁안전하다	-11.8938
게이트	-11.8939
모델	-11.8942
나이트	-11.8942
외교	-11.8943
강전	-11.8944
▁보행	-11.8944
결정	-11.8946
▁부족해	-11.8946
등록	-11.8947
소송	-11.8947
란드	-11.8948
보낼	-11.8951
▁알프레	-11.8953
▁277	-11.8956
다닐	-11.8959
▁빈민	-11.8963
▁서적	-11.8973
▁체포되	-11.8973
▁유명해	-11.8977
▁주행	-11.8977
▁심기	-11.8984
수익	-11.8984
불안	-11.8989
▁가린	-11.8995
드윈	-11.9
▁끝났	-11.9004
▁스타들	-11.9015
세워	-11.902
▁슈퍼대의원들	-11.9031
▁타오	-11.9031
▁준결승전	-11.9033
▁원만	-11.9037
▁변호사들이	-11.9037
타이거	-11.9042
▁붙어	-11.9042
▁생산국	-11.9048
▁윌리암	-11.9049
▁확보하는	-11.905
만부	-11.9051
▁드러냈	-11.9059
▁실시됐	-11.9061
▁떨어뜨	-11.9064
▁지지하지	-11.9065
▁빠뜨	-11.9068
▁뒤따	-11.9076
오브	-11.9076
▁트래	-11.9078
륜	-11.9078
섯	-11.9078
▁에어웨이	-11.908
▁나와있	-11.9082
벳	-11.9082
▁비무장	-11.9083
▁가깝다	-11.9083
▁공상과학	-11.9083
▁광저우	-11.9083
▁끌었다	-11.9083
▁나뭇가지	-11.9083
▁냉소적	-11.9083
▁닫았	-11.9083
▁대북제재	-11.9083
▁댕기열	-11.9083
▁델라웨어	-11.9083
▁도마뱀	-11.9083
▁동아시아	-11.9083
▁듣기	-11.9083
▁레터맨	-11.9083
▁롤러코스터	-11.9083
▁루프트한자	-11.9083
▁맨하탄	-11.9083
▁무사콸라	-11.9083
▁무장혁명군	-11.9083
▁민주변화동맹	-11.9083
▁밀워키	-11.9083
▁불공평	-11.9083
▁브래들리	-11.9083
▁사파테로	-11.9083
▁선글라스	-11.9083
▁선덜랜드	-11.9083
▁세계경제포럼	-11.9083
▁스폰서	-11.9083
▁쌓아	-11.9083
▁아틀레티코	-11.9083
▁애국심	-11.9083
▁여우주연상	-11.9083
▁연방준비은행	-11.9083
▁융통성	-11.9083
▁이뤘다	-11.9083
▁이슬라미야	-11.9083
▁인수합병	-11.9083
▁족자카르타	-11.9083
▁주일미군	-11.9083
▁쫓아내	-11.9083
▁차이나데일리	-11.9083
▁츠요시	-11.9083
▁캄푸쉬	-11.9083
▁캐시미르	-11.9083
▁코리아타임즈	-11.9083
▁코뿔소	-11.9083
▁코펜하겐	-11.9083
▁콜롬비아무장혁명군	-11.9083
▁콴타스	-11.9083
▁클리브랜드	-11.9083
▁통합러시아당	-11.9083
▁트랜스포머	-11.9083
▁트럼프	-11.9083
▁파라마운트	-11.9083
▁파르베즈	-11.9083
▁프리미엄	-11.9083
▁확고히	-11.9083
언더파	-11.9083
텔레그래프	-11.9083
▁노란색	-11.9083
▁마들렌	-11.9083
▁묶어	-11.9083
▁배기가스	-11.9083
▁백만장자	-11.9083
▁상여금	-11.9083
▁세계무역센터	-11.9083
▁심사숙고	-11.9083
▁에두아르	-11.9083
▁적합하지	-11.9083
▁천안문	-11.9083
▁휘두르	-11.9083
▁레예스	-11.9083
▁로버츠	-11.9083
▁스펙터	-11.9083
▁쓰러지	-11.9083
간담회에서	-11.9083
만배럴	-11.9083
▁복부비만	-11.9083
▁카밀라	-11.9083
▁현충일	-11.9083
▁강렬한	-11.9083
▁나르기스	-11.9083
▁유니폼	-11.9083
▁의사소통	-11.9083
프로축구	-11.9083
▁트레이너	-11.9083
▁만수르	-11.9083
▁안테나	-11.9083
▁고프섬	-11.9083
▁끼치지	-11.9083
▁왓슨	-11.9083
▁보궐선거	-11.9083
▁짐바브웨아프리카민족	-11.9083
▁친인척	-11.9083
▁헬멧	-11.9083
▁스트립	-11.9083
▁스프링스틴	-11.9083
▁에볼라	-11.9083
▁구덩이	-11.9083
▁디아즈	-11.9083
▁의정서	-11.9083
▁무작위	-11.9083
▁붐비는	-11.9083
▁서부텍사스산	-11.9083
▁벨몬트였습니다	-11.9083
▁욕실	-11.9083
▁이스트우드	-11.9083
▁클라우디	-11.9083
▁징수	-11.9083
▁스코어	-11.9083
▁로하스	-11.9083
▁발리우드	-11.9083
▁물고문	-11.9083
▁혈압	-11.9083
▁트루먼	-11.9083
▁에어컨	-11.9083
1966	-11.9083
▁유럽중앙은행	-11.9083
▁현존하	-11.9083
▁컨트리	-11.9083
▁선두주자	-11.9083
▁폭죽	-11.9083
▁내보내	-11.9083
▁곤봉	-11.9083
▁깨뜨	-11.9083
▁악몽	-11.9084
▁권좌	-11.9084
프로야구	-11.9084
▁다이빙	-11.9084
▁집주인	-11.9084
▁리스본	-11.9084
▁착각	-11.9084
▁장병들	-11.9084
▁혈통	-11.9085
▁경범죄	-11.9085
▁압축	-11.9085
▁과격단체	-11.9085
▁클래식	-11.9085
▁성폭력	-11.9085
▁차량폭탄테러	-11.9085
▁비서관	-11.9085
▁추락사고	-11.9085
▁타깃	-11.9085
▁학습	-11.9085
▁좌초	-11.9085
▁충실	-11.9085
▁행정장관	-11.9086
962	-11.9086
▁무관	-11.9086
▁라마디	-11.9086
▁클로버	-11.9086
▁글로브	-11.9086
▁부흥	-11.9086
▁출품	-11.9086
▁음란	-11.9086
▁조연상	-11.9087
▁기반시설	-11.9087
첸코	-11.9087
▁치욕	-11.9087
▁심각해지	-11.9087
▁사흘	-11.9087
▁왕립	-11.9087
▁지켜볼	-11.9087
▁관절	-11.9087
▁능가	-11.9087
▁특별검사	-11.9088
▁보호구역	-11.9088
▁신탁	-11.9088
▁붉은색	-11.9088
▁유로스타	-11.9088
▁가리키	-11.9088
▁미시시피강	-11.9088
▁움직여	-11.9088
▁스몰	-11.9088
▁그랜트	-11.9088
▁특검	-11.9089
▁헬러	-11.9089
▁소멸	-11.9089
▁자금지원	-11.9089
▁한계선	-11.909
▁휩쓸려	-11.909
▁평화회담	-11.909
▁도킹	-11.909
▁굴복	-11.9091
▁드물게	-11.9091
▁025	-11.9091
▁떠올리	-11.9091
▁솔라나	-11.9092
▁피해규모	-11.9092
▁주가지수	-11.9092
▁낙타	-11.9092
▁국민은행	-11.9092
▁아시안	-11.9092
▁소변	-11.9092
▁삼판	-11.9092
▁열악	-11.9092
▁대선결과	-11.9093
▁항목	-11.9093
▁펠트	-11.9093
공간	-11.9093
▁신변	-11.9093
▁친근	-11.9093
▁쏘아	-11.9093
▁목재	-11.9093
▁늘려	-11.9094
▁채팅	-11.9094
▁선거결과	-11.9094
▁테너	-11.9095
▁도망치	-11.9095
▁모스크	-11.9095
▁갈색	-11.9095
▁출구	-11.9095
▁양봉	-11.9095
▁영공	-11.9097
▁세르비아계	-11.9097
▁태형	-11.9097
▁파열	-11.9098
그라	-11.9098
▁길거리	-11.9098
▁커져	-11.9099
▁재확인했다	-11.91
▁오존	-11.91
▁온건	-11.9101
▁메릴랜드주	-11.9101
▁성전환	-11.9101
▁다짐했다	-11.9102
▁셸	-11.9102
▁다수당	-11.9102
▁비틀	-11.9102
▁유래	-11.9103
▁천체	-11.9103
▁집행위원회	-11.9103
▁쇼핑센터	-11.9103
▁외교위원회	-11.9103
▁소탕하기	-11.9104
▁전국위원회	-11.9104
▁상업용	-11.9104
▁열망	-11.9104
▁만두	-11.9104
▁치유	-11.9105
▁청구서	-11.9105
▁클린트	-11.9105
▁우울	-11.9106
▁1910	-11.9106
▁동계	-11.9106
▁기자였습니다	-11.9108
▁구입하는	-11.9108
▁올라있다	-11.9108
▁댄스	-11.9108
▁앉아서	-11.9108
▁알래스카주	-11.9109
▁버티	-11.9109
▁테러사건	-11.911
▁행해지	-11.911
▁원료	-11.911
▁단단	-11.9111
▁산출	-11.9112
극장	-11.9112
▁바람직하다	-11.9113
▁명확하지	-11.9113
▁반입	-11.9113
▁실형	-11.9113
▁시에나	-11.9113
▁즉석	-11.9114
▁싸운	-11.9116
▁특유	-11.9116
▁웬디	-11.9117
▁헤비	-11.9117
▁국교	-11.9117
▁지낼	-11.9117
▁로이드	-11.9118
▁추측된다	-11.9119
▁내몰	-11.9119
▁철수시킬	-11.912
▁시설물	-11.912
▁석방하라	-11.912
▁원작	-11.912
▁칭했다	-11.912
▁방중	-11.9121
▁마리오	-11.9122
▁파병군	-11.9122
▁총탄	-11.9123
▁모리스	-11.9123
▁뒷받침할	-11.9124
▁도처에	-11.9126
▁전망된다	-11.9126
▁모터스	-11.9126
▁맘	-11.9127
▁탈락했다	-11.9128
▁회피	-11.9128
▁건국	-11.9128
▁버니	-11.9128
▁세무	-11.9129
▁논리	-11.9129
▁카라다	-11.9131
▁미끄러지	-11.9132
▁상급	-11.9134
▁그러면	-11.9134
▁마련됐다	-11.9135
▁외관	-11.9135
▁탄력	-11.9135
▁팔기	-11.9137
▁소방서장	-11.9139
▁피랍자	-11.9139
▁불신	-11.9141
▁유린	-11.9141
▁니콜슨	-11.9142
▁원더	-11.9143
▁훔쳤	-11.9143
▁날조	-11.9144
▁있으면	-11.9144
▁실시하는	-11.9145
▁이용되	-11.9145
▁기뻐했다	-11.9146
▁우선시	-11.9146
경보	-11.9146
▁동의하지	-11.9147
▁개입하지	-11.9148
▁검찰관	-11.9149
▁게재했다	-11.9149
▁함자	-11.915
▁추측했다	-11.915
▁독살	-11.9151
▁기조	-11.9153
▁가르쳐	-11.9155
▁우유	-11.9157
추어	-11.9159
▁밝혀내지	-11.9159
▁실험실	-11.916
▁경신했다	-11.916
▁어울리는	-11.916
큐리	-11.916
▁장래에	-11.9161
▁선거위원회	-11.9161
▁불확실한	-11.9162
▁클래스	-11.9162
▁찬스	-11.9163
▁못했습니다	-11.9166
▁예측하기	-11.9166
▁알약	-11.9166
▁되어있다	-11.9167
▁명이다	-11.9168
▁화학적	-11.9173
▁해달라	-11.9173
노브	-11.9174
방위	-11.9174
▁회기	-11.9175
드리스	-11.9175
▁후송됐다	-11.9176
▁변함	-11.9177
▁노력해	-11.9177
▁외곽지역	-11.918
▁기여했다	-11.9181
러드	-11.9181
▁여행객들이	-11.9182
▁기본스	-11.9183
▁농지	-11.9186
테오	-11.9191
▁마디	-11.9193
▁중부지역	-11.9193
▁일체	-11.9193
▁쏟아지	-11.9195
▁회복하기	-11.9195
▁풀기	-11.9196
▁바꾸어	-11.9197
▁묘사하고	-11.9197
▁아우	-11.9198
▁비행기니	-11.9199
▁중추	-11.92
▁발생했었다	-11.9202
▁330	-11.9202
증세	-11.9202
▁주장하면서	-11.9205
▁주저	-11.9205
▁잡히	-11.9207
▁맥스	-11.9208
▁학부모	-11.9209
▁솔로	-11.921
▁방대	-11.9211
프레스	-11.9211
▁인디애나주	-11.9213
느린	-11.9215
▁인체에	-11.9221
▁선사	-11.9222
▁현재로서	-11.9222
▁사회자	-11.9223
▁보고타	-11.9224
▁일관	-11.9224
첼로	-11.9226
▁다투	-11.9226
▁코스타	-11.9229
▁사바	-11.923
소식	-11.9232
▁넘치	-11.9237
▁미터	-11.9238
▁127	-11.9241
▁스파	-11.9241
▁말하면	-11.9243
52	-11.9243
▁통근자들	-11.9243
▁금융기관	-11.9243
▁마이어	-11.9245
▁전했	-11.9249
▁잠정적	-11.9257
▁공간이	-11.9261
▁공제	-11.9261
▁확실시되	-11.9261
▁오래전	-11.9262
▁이둘	-11.9263
▁다크	-11.9264
▁살펴보	-11.9264
▁연구센터	-11.9265
▁달성하기	-11.9266
▁지속되고	-11.9267
▁설명하는	-11.9268
▁오크	-11.9273
▁촉발됐다	-11.9276
▁의자에	-11.9278
패로	-11.9281
▁기종	-11.9284
▁느낌이	-11.9287
▁공판에서	-11.9287
▁골프장	-11.9288
▁현명하	-11.929
▁레오	-11.9291
친화적	-11.9292
▁검문소에서	-11.9294
▁성당에서	-11.9294
▁막사	-11.9295
▁교대	-11.93
▁경제학자인	-11.9303
▁중단한다	-11.9303
▁조야	-11.9303
▁천정	-11.9306
▁지불해야	-11.9309
▁타자	-11.9315
▁만들려	-11.9317
▁지르가	-11.9318
▁그랜	-11.9319
▁바보	-11.932
▁치르기	-11.9321
▁생각하기	-11.9321
▁피살됐다	-11.9324
▁주중	-11.9324
스트리	-11.9327
술라	-11.9331
▁행성들	-11.9337
▁개발자들	-11.9338
스버그	-11.9345
▁배심원들	-11.9346
▁가담했다	-11.9346
▁극도	-11.9349
▁기관사	-11.935
▁진출할	-11.9351
▁이슬람인들	-11.9352
▁국제공항에서	-11.9355
▁드러	-11.9356
치오	-11.9362
▁개별적	-11.9365
▁외신	-11.9368
▁훈련시키	-11.9371
▁내린다	-11.9374
▁출두했다	-11.9374
▁안면	-11.9377
▁경찰서에서	-11.938
▁기장	-11.9381
통계국	-11.9384
하더라	-11.9385
▁사막에서	-11.9387
▁허락했다	-11.9387
▁185	-11.9387
▁정해졌	-11.939
▁노숙자	-11.939
▁마니	-11.9392
사용	-11.9392
▁채워	-11.9395
▁해커	-11.9396
블라	-11.9399
▁투입되	-11.9401
▁남았	-11.9402
▁연결되	-11.9405
▁학교측	-11.9407
▁오염된	-11.941
▁선생님	-11.9415
▁추문에	-11.942
▁별명	-11.9421
▁작용하	-11.9422
▁이변	-11.9426
▁찾는다	-11.9427
▁트로	-11.9431
▁알선	-11.9434
▁신도들이	-11.9439
▁존중하	-11.9442
웃	-11.9444
▁벌어들	-11.9447
▁흉	-11.9449
▁아마드	-11.945
▁낮다	-11.9451
▁파라	-11.9453
▁지정했다	-11.9453
▁본사에서	-11.9453
▁통지	-11.9454
워졌다	-11.9456
▁나면	-11.946
▁가능해	-11.9462
▁올리기	-11.9464
▁강화해	-11.9471
▁장갑차	-11.9473
▁사람이었다	-11.9473
▁고등학교에서	-11.9481
▁근로	-11.9483
▁대항해	-11.9492
▁로비스트	-11.9493
▁기소할	-11.9494
▁용이하	-11.9499
▁소비자에게	-11.9505
▁금액이	-11.9514
강국	-11.9528
포르	-11.9529
▁자랑스럽	-11.9531
▁베라	-11.9536
▁도착하기	-11.9541
▁순찰차	-11.9541
▁발효된	-11.9543
▁혁신	-11.9545
스텐	-11.9545
▁저항하	-11.9548
▁거라	-11.9554
▁베트남에서	-11.9554
▁증명했다	-11.9562
▁제방이	-11.9566
▁성공하지	-11.9567
무대	-11.9574
시간씩	-11.9575
▁필요하지	-11.9581
▁순례객	-11.9582
▁피했다	-11.9582
셨	-11.9586
▁켈	-11.9591
▁납치하려	-11.9599
▁사스	-11.9602
▁블로거들	-11.9607
▁육박	-11.9612
▁중소기업	-11.9613
▁복귀했다	-11.9617
르모	-11.962
▁조합원들	-11.9621
▁연결시키	-11.963
▁서머	-11.963
▁살라	-11.9639
▁경영자들	-11.9641
놓는다	-11.9642
라이츠	-11.9645
▁석유회사	-11.9646
▁이민자들이	-11.9648
▁문화부	-11.965
▁석방되	-11.966
스맨	-11.9667
▁거절하	-11.9668
▁취하겠다	-11.9671
▁타타	-11.9671
▁아파	-11.9678
파티	-11.968
▁트랜	-11.9693
▁제거하고	-11.9695
▁멀지	-11.9705
전문가들	-11.9708
▁복용하	-11.9715
탈리아	-11.9724
▁청중들	-11.9727
▁스캔	-11.9733
▁결정됐다	-11.9735
▁안토니	-11.9738
▁예정됐	-11.9738
▁옐	-11.9739
▁안전하지	-11.9743
▁피난민들	-11.9744
▁잠정	-11.9747
쉽	-11.9748
▁도착한다	-11.9756
괴	-11.976
아버지	-11.976
낭	-11.9761
흙	-11.9762
눈	-11.9763
캔	-11.9765
200712	-11.9766
헬	-11.9766
딸	-11.9766
싸움	-11.9766
잇	-11.9767
끝	-11.9767
쓸	-11.9767
랭킹	-11.9767
프랑스	-11.9768
검색	-11.9769
▁139	-11.977
▁돌려받	-11.9771
호텔	-11.9779
쉽게	-11.9779
▁반대자들	-11.978
무역	-11.9784
사상	-11.9785
성향	-11.9787
▁호의적	-11.9788
예산	-11.9788
▁간호사들	-11.9794
▁양심	-11.9796
출신	-11.9796
파업	-11.9796
▁라면	-11.9798
방문	-11.9802
▁조상	-11.9802
▁격돌	-11.9805
▁수행한다	-11.9809
네트	-11.981
▁외무	-11.9812
▁제안했	-11.9815
▁느꼈	-11.9818
▁테러단체로	-11.9825
▁114	-11.9828
▁사과한다	-11.983
국제	-11.9833
▁개발도상국들	-11.9833
▁옮겨졌	-11.9839
▁후원하	-11.9839
▁예상하지	-11.9841
피아	-11.9848
▁성기	-11.9849
▁거부해	-11.9849
▁자원봉사	-11.985
▁아르빌에	-11.9852
무차관	-11.9854
셈	-11.9857
▁연설했다	-11.9865
▁보유자	-11.9866
▁기쁘	-11.9866
▁질문들	-11.987
▁추종	-11.9873
▁노렸	-11.9873
▁정장	-11.9876
▁멀어	-11.9886
▁억류됐	-11.989
▁틀림없	-11.9894
▁217	-11.9895
명령	-11.9906
▁떠올	-11.9908
▁메트	-11.9909
▁뭉	-11.991
▁진행됐	-11.991
붕	-11.991
봇	-11.9912
▁증권거래	-11.9914
늄	-11.9914
▁악화시키	-11.9914
▁게이머	-11.9915
▁프리미어	-11.9916
▁뇌종양	-11.9916
▁뿌려	-11.9916
▁앓았	-11.9916
▁큐레이터	-11.9916
츄	-11.9916
퀘	-11.9916
▁가브리엘	-11.9916
▁공영방송	-11.9916
▁구테레스	-11.9916
▁국제통화기금	-11.9916
▁굶주림	-11.9916
▁까다로운	-11.9916
▁나노튜브	-11.9916
▁낚시	-11.9916
▁난투극	-11.9916
▁남아메리카	-11.9916
▁네델란드	-11.9916
▁네브래스카	-11.9916
▁노벨평화상	-11.9916
▁노스웨스트	-11.9916
▁데이터베이스	-11.9916
▁라이베리아	-11.9916
▁레슬링	-11.9916
▁록펠러	-11.9916
▁맥코넬	-11.9916
▁맥클라렌	-11.9916
▁메디슨	-11.9916
▁바리케이드	-11.9916
▁버밍엄	-11.9916
▁부에노스아이레스	-11.9916
▁북대서양조약기구	-11.9916
▁브란카토	-11.9916
▁수족구병	-11.9916
▁스트라이커	-11.9916
▁스피커	-11.9916
▁시앙시앙	-11.9916
▁쐈다	-11.9916
▁업데이트	-11.9916
▁에스판디아리	-11.9916
▁옛날	-11.9916
▁오랑우탄	-11.9916
▁윈스턴	-11.9916
▁읽어	-11.9916
▁죄책감	-11.9916
▁카디널스	-11.9916
▁카트만두	-11.9916
▁컨텐츠	-11.9916
▁코카콜라	-11.9916
▁콜럼버스	-11.9916
▁콜럼비아	-11.9916
▁쿠알라룸푸르	-11.9916
▁크루그먼	-11.9916
▁테스토스테론	-11.9916
▁펀자브	-11.9916
▁페르시아만	-11.9916
▁풍력발전기	-11.9916
▁플랫폼	-11.9916
▁피츠제럴드	-11.9916
▁핵사찰단	-11.9916
▁헨더슨	-11.9916
▁호나우지뉴	-11.9916
▁휴먼라이츠워치	-11.9916
쉘	-11.9916
엉	-11.9916
▁거식증	-11.9916
▁불태우	-11.9916
▁삽입	-11.9916
▁수뇌부	-11.9916
▁아인슈타인	-11.9916
▁트레제게	-11.9916
▁팽창	-11.9916
▁회계연도	-11.9916
▁가비알	-11.9916
▁고래상어	-11.9916
▁더블린	-11.9916
▁멜리사	-11.9916
▁빔보	-11.9916
▁십자군	-11.9916
▁포레스트	-11.9916
▁모니카	-11.9916
▁이병헌	-11.9916
▁물대포	-11.9916
▁불사조	-11.9916
▁울타리	-11.9916
▁징집	-11.9916
▁오스본	-11.9916
▁플레임	-11.9916
▁빌라로사	-11.9916
▁제노아	-11.9916
▁튜브	-11.9916
▁비엔나	-11.9916
▁욕설	-11.9916
▁갑판	-11.9916
▁오마하	-11.9916
▁오피니언리서치	-11.9916
▁인권운동가	-11.9916
▁산유국	-11.9916
▁순조롭	-11.9916
▁불어넣	-11.9916
▁동물보호	-11.9916
▁유니버셜	-11.9916
▁놔두	-11.9916
▁양조장	-11.9916
▁이정표	-11.9916
▁징크	-11.9916
▁자랑스러워	-11.9916
▁템파베이	-11.9916
▁유원지	-11.9916
▁저질러	-11.9916
▁마운트	-11.9916
▁운전기사	-11.9916
▁주경기장	-11.9916
▁메트로폴리	-11.9916
▁맹렬	-11.9916
▁플로렌스	-11.9916
▁미립자	-11.9916
▁와이먼	-11.9916
▁솔로몬제도	-11.9917
▁플래카드	-11.9917
▁탁자	-11.9917
▁팩스	-11.9917
▁율법	-11.9917
▁캐스팅	-11.9917
▁이라와디	-11.9917
▁월드뉴스	-11.9917
▁불명예	-11.9917
▁언쟁	-11.9917
▁셀틱	-11.9917
▁안와르	-11.9917
▁세부사항	-11.9917
▁무리뉴	-11.9917
▁터뜨렸다	-11.9917
▁너머	-11.9917
▁유대관계	-11.9917
▁교묘	-11.9917
▁사무엘	-11.9917
▁랄리	-11.9917
▁비상대책	-11.9917
▁권익	-11.9917
▁파키스탄무슬림리그	-11.9918
▁보컬	-11.9918
▁끼치는	-11.9918
▁텔레	-11.9918
▁풍습	-11.9918
대회에서	-11.9918
▁체스판	-11.9918
▁전자제품	-11.9918
▁슈웨	-11.9918
▁잠겼다	-11.9918
▁오빠	-11.9918
▁결탁	-11.9918
▁종합지수	-11.9918
▁대명사	-11.9918
▁브릿	-11.9918
▁폰테	-11.9919
▁염증	-11.9919
▁치와와	-11.9919
▁일어났는지	-11.9919
▁납품	-11.9919
▁깊숙	-11.9919
▁넘어갔다	-11.9919
▁개회식	-11.9919
▁라이플	-11.9919
▁다가왔다	-11.992
▁혈관	-11.992
▁높아져	-11.992
▁크리스마스트리	-11.992
▁예보관	-11.992
▁인수가격	-11.992
▁흔들림	-11.992
▁브랜슨	-11.992
▁윈저	-11.992
▁충동	-11.992
▁크리스탈	-11.992
▁흉선	-11.992
▁험난	-11.992
▁멕시코시티	-11.992
▁따냈다	-11.992
▁폭력시위	-11.992
▁레슬리	-11.9921
▁관중석	-11.9921
▁동결자금	-11.9921
▁베넷	-11.9921
▁이해관계	-11.9921
▁바에즈	-11.9921
▁풍속	-11.9921
▁국외	-11.9921
▁거둬	-11.9921
▁얻으려	-11.9921
▁왕족	-11.9921
▁휩싸여	-11.9921
▁마약거래	-11.9921
▁영장류	-11.9922
▁기조연설	-11.9922
▁로스쿨	-11.9922
▁하락폭	-11.9922
▁등뼈	-11.9922
▁특허	-11.9923
▁오클리	-11.9923
▁일가족	-11.9923
▁금광	-11.9923
▁그래미상	-11.9924
▁처해있다	-11.9924
▁유익	-11.9924
▁울음	-11.9924
▁로보트	-11.9924
▁손녀	-11.9924
▁크리스티안	-11.9924
▁패턴	-11.9924
▁모텔	-11.9924
▁200603	-11.9924
▁소폭	-11.9925
▁계란	-11.9925
▁질책	-11.9925
▁봉사단	-11.9925
▁사이러스	-11.9925
▁낙관	-11.9925
▁장려하	-11.9925
▁선풍	-11.9926
▁외교부장관	-11.9926
▁종족	-11.9926
▁유의원	-11.9926
▁친목	-11.9926
▁피스코	-11.9926
트래포드	-11.9926
▁인민당	-11.9926
▁구호작업	-11.9926
▁종파간	-11.9926
▁찬성표	-11.9926
▁동성간	-11.9927
▁감사합니다	-11.9927
▁건강상태	-11.9927
▁실정이	-11.9927
▁린든	-11.9927
▁위스키	-11.9928
▁바뀌었다	-11.9928
▁풍력	-11.9928
▁안바르	-11.9928
▁소장품	-11.9928
▁아이칸	-11.9928
▁1961	-11.9928
[...]
